{
  "version": "1.0",
  "truncation": null,
  "padding": null,
  "added_tokens": [
    {
      "id": 0,
      "content": "[PAD]",
      "single_word": false,
      "lstrip": false,
      "rstrip": false,
      "normalized": false,
      "special": true
    },
    {
      "id": 1,
      "content": "[BOS]",
      "single_word": false,
      "lstrip": false,
      "rstrip": false,
      "normalized": false,
      "special": true
    },
    {
      "id": 2,
      "content": "[EOS]",
      "single_word": false,
      "lstrip": false,
      "rstrip": false,
      "normalized": false,
      "special": true
    },
    {
      "id": 3,
      "content": "[UNK]",
      "single_word": false,
      "lstrip": false,
      "rstrip": false,
      "normalized": false,
      "special": true
    }
  ],
  "normalizer": null,
  "pre_tokenizer": {
    "type": "Whitespace"
  },
  "post_processor": null,
  "decoder": null,
  "model": {
    "type": "BPE",
    "dropout": null,
    "unk_token": "[UNK]",
    "continuing_subword_prefix": null,
    "end_of_word_suffix": null,
    "fuse_unk": false,
    "byte_fallback": false,
    "ignore_merges": false,
    "vocab": {
      "[PAD]": 0,
      "[BOS]": 1,
      "[EOS]": 2,
      "[UNK]": 3,
      "!": 4,
      "\"": 5,
      "$": 6,
      "%": 7,
      "&": 8,
      "'": 9,
      "(": 10,
      ")": 11,
      "*": 12,
      "+": 13,
      ",": 14,
      "-": 15,
      ".": 16,
      "/": 17,
      "0": 18,
      "1": 19,
      "2": 20,
      "3": 21,
      "4": 22,
      "5": 23,
      "6": 24,
      "7": 25,
      "8": 26,
      "9": 27,
      ":": 28,
      ";": 29,
      "=": 30,
      "?": 31,
      "[": 32,
      "]": 33,
      "_": 34,
      "`": 35,
      "a": 36,
      "b": 37,
      "c": 38,
      "d": 39,
      "e": 40,
      "f": 41,
      "g": 42,
      "h": 43,
      "i": 44,
      "j": 45,
      "k": 46,
      "l": 47,
      "m": 48,
      "n": 49,
      "o": 50,
      "p": 51,
      "q": 52,
      "r": 53,
      "s": 54,
      "t": 55,
      "u": 56,
      "v": 57,
      "w": 58,
      "x": 59,
      "y": 60,
      "z": 61,
      "": 62,
      "": 63,
      "": 64,
      "": 65,
      "": 66,
      "": 67,
      "": 68,
      "¡": 69,
      "§": 70,
      "ª": 71,
      "«": 72,
      "­": 73,
      "°": 74,
      "´": 75,
      "º": 76,
      "»": 77,
      "½": 78,
      "¿": 79,
      "à": 80,
      "á": 81,
      "â": 82,
      "ã": 83,
      "ä": 84,
      "ç": 85,
      "è": 86,
      "é": 87,
      "ê": 88,
      "ë": 89,
      "ì": 90,
      "í": 91,
      "î": 92,
      "ï": 93,
      "ñ": 94,
      "ò": 95,
      "ó": 96,
      "ô": 97,
      "õ": 98,
      "ö": 99,
      "ù": 100,
      "ú": 101,
      "û": 102,
      "ü": 103,
      "de": 104,
      "ra": 105,
      "es": 106,
      "os": 107,
      "as": 108,
      "qu": 109,
      "do": 110,
      "en": 111,
      "co": 112,
      "que": 113,
      "se": 114,
      "ão": 115,
      "da": 116,
      "te": 117,
      "ar": 118,
      "in": 119,
      "to": 120,
      "is": 121,
      "ia": 122,
      "ta": 123,
      "ma": 124,
      "re": 125,
      "er": 126,
      "po": 127,
      "al": 128,
      "el": 129,
      "ro": 130,
      "an": 131,
      "em": 132,
      "ou": 133,
      "mo": 134,
      "ca": 135,
      "não": 136,
      "um": 137,
      "ri": 138,
      "va": 139,
      "lh": 140,
      "me": 141,
      "pa": 142,
      "ti": 143,
      "di": 144,
      "con": 145,
      "com": 146,
      "no": 147,
      "men": 148,
      "na": 149,
      "so": 150,
      "sa": 151,
      "ha": 152,
      "uma": 153,
      "era": 154,
      "ho": 155,
      "ei": 156,
      "ci": 157,
      "vi": 158,
      "..": 159,
      "res": 160,
      "tu": 161,
      "gu": 162,
      "por": 163,
      "tra": 164,
      "lo": 165,
      "ção": 166,
      "des": 167,
      "li": 168,
      "dos": 169,
      "la": 170,
      "para": 171,
      "mas": 172,
      "fo": 173,
      "fi": 174,
      "si": 175,
      "lhe": 176,
      "go": 177,
      "cu": 178,
      "ve": 179,
      "ver": 180,
      "le": 181,
      "su": 182,
      "vo": 183,
      "ça": 184,
      "cas": 185,
      "eu": 186,
      "ria": 187,
      "mu": 188,
      "ent": 189,
      "dade": 190,
      "das": 191,
      "ao": 192,
      "par": 193,
      "mi": 194,
      "cia": 195,
      "mente": 196,
      "pe": 197,
      "per": 198,
      "us": 199,
      "inha": 200,
      "mais": 201,
      "dis": 202,
      "fa": 203,
      "ch": 204,
      "dia": 205,
      "esta": 206,
      "ga": 207,
      "est": 208,
      "bo": 209,
      "ter": 210,
      "ce": 211,
      "pro": 212,
      "ela": 213,
      "ele": 214,
      "ex": 215,
      "como": 216,
      "ando": 217,
      "pre": 218,
      "tos": 219,
      "car": 220,
      "tem": 221,
      "un": 222,
      "sem": 223,
      "io": 224,
      "tro": 225,
      "ran": 226,
      "ros": 227,
      "sen": 228,
      "mar": 229,
      "--": 230,
      "du": 231,
      "ser": 232,
      "lu": 233,
      "mes": 234,
      "tar": 235,
      "ras": 236,
      "pos": 237,
      "...": 238,
      "rio": 239,
      "tou": 240,
      "ram": 241,
      "ba": 242,
      "tas": 243,
      "ões": 244,
      "cer": 245,
      "mos": 246,
      "ir": 247,
      "ndo": 248,
      "foi": 249,
      "tes": 250,
      "nos": 251,
      "ên": 252,
      "vel": 253,
      "cor": 254,
      "ém": 255,
      "mor": 256,
      "pen": 257,
      "ru": 258,
      "pri": 259,
      "ten": 260,
      "ix": 261,
      "mb": 262,
      "esp": 263,
      "ala": 264,
      "diz": 265,
      "disse": 266,
      "via": 267,
      "jo": 268,
      "há": 269,
      "casa": 270,
      "sim": 271,
      "pas": 272,
      "olh": 273,
      "vez": 274,
      "tr": 275,
      "ina": 276,
      "pi": 277,
      "nem": 278,
      "pare": 279,
      "mui": 280,
      "ente": 281,
      "pois": 282,
      "alg": 283,
      "man": 284,
      "pres": 285,
      "mento": 286,
      "tan": 287,
      "este": 288,
      "gun": 289,
      "faz": 290,
      "pr": 291,
      "im": 292,
      "ço": 293,
      "ven": 294,
      "cha": 295,
      "for": 296,
      "cois": 297,
      "on": 298,
      "são": 299,
      "quando": 300,
      "fe": 301,
      "cre": 302,
      "ni": 303,
      "qui": 304,
      "gra": 305,
      "tor": 306,
      "tinha": 307,
      "esse": 308,
      "bra": 309,
      "min": 310,
      "tal": 311,
      "pu": 312,
      "pon": 313,
      "tudo": 314,
      "bi": 315,
      "be": 316,
      "já": 317,
      "outra": 318,
      "gar": 319,
      "inda": 320,
      "ja": 321,
      "ções": 322,
      "dor": 323,
      "deu": 324,
      "mei": 325,
      "pel": 326,
      "tão": 327,
      "só": 328,
      "té": 329,
      "pou": 330,
      "can": 331,
      "depois": 332,
      "pode": 333,
      "za": 334,
      "bre": 335,
      "ne": 336,
      "cos": 337,
      "fei": 338,
      "lá": 339,
      "lar": 340,
      "fal": 341,
      "rou": 342,
      "entre": 343,
      "cio": 344,
      "gi": 345,
      "ência": 346,
      "nada": 347,
      "ainda": 348,
      "lia": 349,
      "tin": 350,
      "tempo": 351,
      "estava": 352,
      "che": 353,
      "hor": 354,
      "fer": 355,
      "val": 356,
      "ab": 357,
      "rei": 358,
      "gos": 359,
      "inte": 360,
      "tura": 361,
      "meu": 362,
      "mem": 363,
      "vida": 364,
      "primei": 365,
      "muito": 366,
      "eiro": 367,
      "nte": 368,
      "pes": 369,
      "sua": 370,
      "ali": 371,
      "tava": 372,
      "nas": 373,
      "outro": 374,
      "coisa": 375,
      "dar": 376,
      "vol": 377,
      "seu": 378,
      "....": 379,
      "eram": 380,
      "olhos": 381,
      "mã": 382,
      "está": 383,
      "minha": 384,
      "isto": 385,
      "mesmo": 386,
      "ração": 387,
      "bem": 388,
      "deix": 389,
      "gran": 390,
      "pé": 391,
      "dois": 392,
      "ami": 393,
      "les": 394,
      "ber": 395,
      "sou": 396,
      "lí": 397,
      "ob": 398,
      "he": 399,
      "ju": 400,
      "segu": 401,
      "mel": 402,
      "lha": 403,
      "tamb": 404,
      "também": 405,
      "algum": 406,
      "aos": 407,
      "até": 408,
      "comp": 409,
      "or": 410,
      "homem": 411,
      "porque": 412,
      "ces": 413,
      "fu": 414,
      "assim": 415,
      "verdade": 416,
      "noi": 417,
      "dé": 418,
      "ceu": 419,
      "às": 420,
      "todos": 421,
      "ad": 422,
      "quem": 423,
      "ês": 424,
      "pouco": 425,
      "vis": 426,
      "bar": 427,
      "vam": 428,
      "pala": 429,
      "ins": 430,
      "cen": 431,
      "cri": 432,
      "palav": 433,
      "isso": 434,
      "der": 435,
      "ís": 436,
      "tado": 437,
      "iu": 438,
      "jan": 439,
      "dizer": 440,
      "los": 441,
      "menos": 442,
      "eito": 443,
      "senti": 444,
      "dias": 445,
      "ago": 446,
      "duas": 447,
      "aque": 448,
      "conhe": 449,
      "ário": 450,
      "seus": 451,
      "ves": 452,
      "respon": 453,
      "pela": 454,
      "ouvi": 455,
      "aqui": 456,
      "au": 457,
      "lica": 458,
      "ças": 459,
      "agora": 460,
      "sos": 461,
      "podia": 462,
      "pergun": 463,
      "lher": 464,
      "sr": 465,
      "antes": 466,
      "indo": 467,
      "mal": 468,
      "aca": 469,
      "hora": 470,
      "ân": 471,
      "quer": 472,
      "espera": 473,
      "inh": 474,
      "anos": 475,
      "grande": 476,
      "ge": 477,
      "lho": 478,
      "cou": 479,
      "las": 480,
      "je": 481,
      "tros": 482,
      "dei": 483,
      "ás": 484,
      "pró": 485,
      "alguma": 486,
      "dou": 487,
      "ns": 488,
      "então": 489,
      "sin": 490,
      "lev": 491,
      "lon": 492,
      "mão": 493,
      "amor": 494,
      "tanto": 495,
      "fica": 496,
      "moça": 497,
      "ris": 498,
      "cis": 499,
      "fim": 500,
      "ante": 501,
      "anto": 502,
      "pelo": 503,
      "ido": 504,
      "ac": 505,
      "lem": 506,
      "onde": 507,
      "passa": 508,
      "sar": 509,
      "liv": 510,
      "sas": 511,
      "rios": 512,
      "essa": 513,
      "sei": 514,
      "eira": 515,
      "algun": 516,
      "alguns": 517,
      "tia": 518,
      "idé": 519,
      "fos": 520,
      "mag": 521,
      "tó": 522,
      "nça": 523,
      "tica": 524,
      "rar": 525,
      "paz": 526,
      "mulher": 527,
      "tí": 528,
      "fin": 529,
      "endo": 530,
      "gas": 531,
      "logo": 532,
      "vos": 533,
      "ach": 534,
      "eli": 535,
      "noite": 536,
      "pedi": 537,
      "fazer": 538,
      "vas": 539,
      "raz": 540,
      "coração": 541,
      "entra": 542,
      "fun": 543,
      "tri": 544,
      "idade": 545,
      "tá": 546,
      "bu": 547,
      "pesso": 548,
      "cla": 549,
      "outros": 550,
      "pai": 551,
      "tre": 552,
      "gem": 553,
      "tulo": 554,
      "havia": 555,
      "rece": 556,
      "gou": 557,
      "contra": 558,
      "sor": 559,
      "pí": 560,
      "sobre": 561,
      "cal": 562,
      "cidade": 563,
      "mé": 564,
      "ília": 565,
      "rito": 566,
      "vem": 567,
      "iste": 568,
      "lti": 569,
      "jor": 570,
      "fez": 571,
      "tua": 572,
      "come": 573,
      "enh": 574,
      "eta": 575,
      "feli": 576,
      "cria": 577,
      "toda": 578,
      "gre": 579,
      "nun": 580,
      "caso": 581,
      "sal": 582,
      "tamente": 583,
      "alma": 584,
      "rua": 585,
      "ível": 586,
      "sil": 587,
      "mora": 588,
      "melhor": 589,
      "todas": 590,
      "vir": 591,
      "pô": 592,
      "cons": 593,
      "porta": 594,
      "qual": 595,
      "quanto": 596,
      "cias": 597,
      "conf": 598,
      "lei": 599,
      "cios": 600,
      "mim": 601,
      "bal": 602,
      "gua": 603,
      "atro": 604,
      "cé": 605,
      "tei": 606,
      "corre": 607,
      "pal": 608,
      "guém": 609,
      "den": 610,
      "suas": 611,
      "ado": 612,
      "mesma": 613,
      "espí": 614,
      "hou": 615,
      "coisas": 616,
      "capí": 617,
      "três": 618,
      "........": 619,
      "bas": 620,
      "parece": 621,
      "sol": 622,
      "fosse": 623,
      "iam": 624,
      "sempre": 625,
      "tando": 626,
      "vai": 627,
      "nenh": 628,
      "ião": 629,
      "nunca": 630,
      "mãe": 631,
      "deus": 632,
      "cá": 633,
      "cin": 634,
      "capítulo": 635,
      "vezes": 636,
      "senhor": 637,
      "cabe": 638,
      "parte": 639,
      "ós": 640,
      "ul": 641,
      "inc": 642,
      "certo": 643,
      "lan": 644,
      "dele": 645,
      "ior": 646,
      "esti": 647,
      "palavras": 648,
      "inter": 649,
      "fora": 650,
      "ena": 651,
      "idéia": 652,
      "exp": 653,
      "18": 654,
      "dá": 655,
      "nome": 656,
      "amb": 657,
      "próp": 658,
      "pá": 659,
      "var": 660,
      "meio": 661,
      "horas": 662,
      "amigo": 663,
      "primeiro": 664,
      "pensa": 665,
      "jos": 666,
      "natura": 667,
      "todo": 668,
      "feito": 669,
      "fí": 670,
      "gen": 671,
      "inho": 672,
      "precis": 673,
      "ida": 674,
      "carta": 675,
      "sus": 676,
      "ale": 677,
      "talvez": 678,
      "tis": 679,
      "hos": 680,
      "últi": 681,
      "san": 682,
      "vou": 683,
      "ços": 684,
      "mundo": 685,
      "cur": 686,
      "primeira": 687,
      "cada": 688,
      "espírito": 689,
      "sé": 690,
      "mentos": 691,
      "baix": 692,
      "contin": 693,
      "eio": 694,
      "ição": 695,
      "ora": 696,
      "hã": 697,
      "boa": 698,
      "almente": 699,
      "ias": 700,
      "il": 701,
      "dela": 702,
      "ap": 703,
      "ama": 704,
      "polí": 705,
      "és": 706,
      "escre": 707,
      "parecia": 708,
      "outras": 709,
      "continu": 710,
      "parti": 711,
      "algumas": 712,
      "mis": 713,
      "pin": 714,
      "gente": 715,
      "ses": 716,
      "seja": 717,
      "anda": 718,
      "jus": 719,
      "dr": 720,
      "má": 721,
      "dizia": 722,
      "natural": 723,
      "flo": 724,
      "tiva": 725,
      "compan": 726,
      "daque": 727,
      "terra": 728,
      "cul": 729,
      "respondeu": 730,
      "conver": 731,
      "bri": 732,
      "pú": 733,
      "fran": 734,
      "penas": 735,
      "gan": 736,
      "cabeça": 737,
      "xi": 738,
      "dio": 739,
      "mãos": 740,
      "bel": 741,
      "teu": 742,
      "rapaz": 743,
      "dão": 744,
      "far": 745,
      "tran": 746,
      "dente": 747,
      "tivo": 748,
      "has": 749,
      "ento": 750,
      "lado": 751,
      "culo": 752,
      "cr": 753,
      "seria": 754,
      "entes": 755,
      "ped": 756,
      "poeta": 757,
      "qü": 758,
      "apenas": 759,
      "dez": 760,
      "perguntou": 761,
      "nin": 762,
      "quis": 763,
      "imag": 764,
      "ía": 765,
      "ira": 766,
      "eles": 767,
      "viu": 768,
      "ença": 769,
      "fala": 770,
      "estas": 771,
      "bor": 772,
      "acha": 773,
      "rias": 774,
      "ninguém": 775,
      "dades": 776,
      "mer": 777,
      "vê": 778,
      "minu": 779,
      "bli": 780,
      "enta": 781,
      "simp": 782,
      "cara": 783,
      "homen": 784,
      "gado": 785,
      "modo": 786,
      "mou": 787,
      "marido": 788,
      "bom": 789,
      "ava": 790,
      "nar": 791,
      "rá": 792,
      "clu": 793,
      "esco": 794,
      "trabal": 795,
      "vão": 796,
      "cel": 797,
      "lidade": 798,
      "ló": 799,
      "tenho": 800,
      "creio": 801,
      "morre": 802,
      "bran": 803,
      "pera": 804,
      "hoje": 805,
      "dem": 806,
      "indi": 807,
      "velho": 808,
      "cê": 809,
      "sab": 810,
      "feliz": 811,
      "esto": 812,
      "duz": 813,
      "homens": 814,
      "peito": 815,
      "filha": 816,
      "traz": 817,
      "razão": 818,
      "fé": 819,
      "vesse": 820,
      "son": 821,
      "usa": 822,
      "br": 823,
      "cho": 824,
      "esque": 825,
      "ficou": 826,
      "triste": 827,
      "ii": 828,
      "senhora": 829,
      "morte": 830,
      "ze": 831,
      "levan": 832,
      "mon": 833,
      "sível": 834,
      "estre": 835,
      "simples": 836,
      "dre": 837,
      "saber": 838,
      "voz": 839,
      "teve": 840,
      "bro": 841,
      "falar": 842,
      "deste": 843,
      "fiz": 844,
      "palavra": 845,
      "tico": 846,
      "maria": 847,
      "diante": 848,
      "manhã": 849,
      "cido": 850,
      "capi": 851,
      "admi": 852,
      "vá": 853,
      "ín": 854,
      "titu": 855,
      "dava": 856,
      "preen": 857,
      "ino": 858,
      "conse": 859,
      "aquele": 860,
      "clar": 861,
      "estar": 862,
      "notí": 863,
      "pra": 864,
      "naque": 865,
      "tante": 866,
      "sabe": 867,
      "livro": 868,
      "ância": 869,
      "sala": 870,
      "desde": 871,
      "gin": 872,
      "vinha": 873,
      "pareceu": 874,
      "lhes": 875,
      "porém": 876,
      "posta": 877,
      "escri": 878,
      "gri": 879,
      "fam": 880,
      "neces": 881,
      "lugar": 882,
      "gal": 883,
      "rem": 884,
      "cost": 885,
      "foram": 886,
      "har": 887,
      "céu": 888,
      "espe": 889,
      "direi": 890,
      "olhar": 891,
      "nova": 892,
      "entos": 893,
      "pequ": 894,
      "luís": 895,
      "uns": 896,
      "cem": 897,
      "rom": 898,
      "desse": 899,
      "tarde": 900,
      "exa": 901,
      "estou": 902,
      "possível": 903,
      "fra": 904,
      "aquela": 905,
      "gue": 906,
      "preciso": 907,
      "desta": 908,
      "acaba": 909,
      "çou": 910,
      "nosso": 911,
      "bus": 912,
      "rava": 913,
      "enten": 914,
      "devia": 915,
      "tada": 916,
      "cum": 917,
      "quar": 918,
      "filho": 919,
      "abri": 920,
      "estão": 921,
      "ano": 922,
      "cie": 923,
      "his": 924,
      "ben": 925,
      "tória": 926,
      "anti": 927,
      "fir": 928,
      "casamento": 929,
      "ol": 930,
      "chama": 931,
      "blica": 932,
      "ficar": 933,
      "viú": 934,
      "ocas": 935,
      "interes": 936,
      "pei": 937,
      "ciência": 938,
      "pessoa": 939,
      "consi": 940,
      "baixo": 941,
      "veio": 942,
      "padre": 943,
      "aten": 944,
      "forma": 945,
      "cam": 946,
      "gosto": 947,
      "você": 948,
      "ponto": 949,
      "nossa": 950,
      "sub": 951,
      "vera": 952,
      "duran": 953,
      "posto": 954,
      "dido": 955,
      "ase": 956,
      "igo": 957,
      "ban": 958,
      "cil": 959,
      "plo": 960,
      "ig": 961,
      "apro": 962,
      "osa": 963,
      "pressão": 964,
      "ref": 965,
      "elas": 966,
      "cinco": 967,
      "digo": 968,
      "vamos": 969,
      "minis": 970,
      "longe": 971,
      "fia": 972,
      "sent": 973,
      "procu": 974,
      "çar": 975,
      "pio": 976,
      "chega": 977,
      "cial": 978,
      "tir": 979,
      "quase": 980,
      "tiu": 981,
      "ron": 982,
      "moço": 983,
      "veis": 984,
      "sá": 985,
      "lou": 986,
      "úni": 987,
      "uni": 988,
      "meus": 989,
      "viúva": 990,
      "conversa": 991,
      "próprio": 992,
      "ah": 993,
      "jar": 994,
      "ré": 995,
      "nós": 996,
      "fre": 997,
      "rado": 998,
      "queria": 999,
      "enda": 1000,
      "desa": 1001,
      "inci": 1002,
      "trou": 1003,
      "obra": 1004,
      "mana": 1005,
      "eno": 1006,
      "ambos": 1007,
      "guar": 1008,
      "entrou": 1009,
      "quatro": 1010,
      "aí": 1011,
      "quin": 1012,
      "família": 1013,
      "acei": 1014,
      "nu": 1015,
      "autor": 1016,
      "pobre": 1017,
      "papel": 1018,
      "conte": 1019,
      "ito": 1020,
      "neg": 1021,
      "pessoas": 1022,
      "josé": 1023,
      "nenhuma": 1024,
      "lembra": 1025,
      "jun": 1026,
      "gil": 1027,
      "amo": 1028,
      "có": 1029,
      "ler": 1030,
      "reza": 1031,
      "huma": 1032,
      "tt": 1033,
      "caval": 1034,
      "recu": 1035,
      "paix": 1036,
      "camin": 1037,
      "amar": 1038,
      "mil": 1039,
      "saiu": 1040,
      "será": 1041,
      "boni": 1042,
      "dado": 1043,
      "bei": 1044,
      "ocasião": 1045,
      "refle": 1046,
      "minutos": 1047,
      "opin": 1048,
      "ass": 1049,
      "tais": 1050,
      "repe": 1051,
      "achou": 1052,
      "nenhum": 1053,
      "lin": 1054,
      "situa": 1055,
      "rec": 1056,
      "jantar": 1057,
      "teatro": 1058,
      "trans": 1059,
      "fazia": 1060,
      "hi": 1061,
      "ani": 1062,
      "maior": 1063,
      "compreen": 1064,
      "seguinte": 1065,
      "gên": 1066,
      "pren": 1067,
      "força": 1068,
      "rosa": 1069,
      "hon": 1070,
      "mostra": 1071,
      "causa": 1072,
      "lhas": 1073,
      "amigos": 1074,
      "graça": 1075,
      "figu": 1076,
      "sur": 1077,
      "vista": 1078,
      "enfim": 1079,
      "dese": 1080,
      "somb": 1081,
      "tação": 1082,
      "agra": 1083,
      "chegou": 1084,
      "................": 1085,
      "aconte": 1086,
      "vinte": 1087,
      "cimento": 1088,
      "comple": 1089,
      "posso": 1090,
      "além": 1091,
      "ume": 1092,
      "luz": 1093,
      "inheiro": 1094,
      "haver": 1095,
      "receb": 1096,
      "notícia": 1097,
      "cida": 1098,
      "gera": 1099,
      "gui": 1100,
      "durante": 1101,
      "novo": 1102,
      "posição": 1103,
      "pedro": 1104,
      "hel": 1105,
      "êncio": 1106,
      "deixa": 1107,
      "tade": 1108,
      "tido": 1109,
      "deve": 1110,
      "ista": 1111,
      "meses": 1112,
      "af": 1113,
      "tio": 1114,
      "div": 1115,
      "ôn": 1116,
      "asse": 1117,
      "visi": 1118,
      "ori": 1119,
      "cion": 1120,
      "dentro": 1121,
      "cir": 1122,
      "gesto": 1123,
      "tendo": 1124,
      "oso": 1125,
      "veu": 1126,
      "janeiro": 1127,
      "alidade": 1128,
      "públi": 1129,
      "neste": 1130,
      "versos": 1131,
      "leva": 1132,
      "sair": 1133,
      "joão": 1134,
      "gio": 1135,
      "tam": 1136,
      "cado": 1137,
      "dra": 1138,
      "ares": 1139,
      "obri": 1140,
      "história": 1141,
      "ilus": 1142,
      "comigo": 1143,
      "muita": 1144,
      "tê": 1145,
      "pó": 1146,
      "cus": 1147,
      "pressa": 1148,
      "jorge": 1149,
      "nto": 1150,
      "cima": 1151,
      "princ": 1152,
      "médi": 1153,
      "companh": 1154,
      "daí": 1155,
      "princí": 1156,
      "ências": 1157,
      "velha": 1158,
      "dida": 1159,
      "lágri": 1160,
      "cru": 1161,
      "fá": 1162,
      "arte": 1163,
      "mara": 1164,
      "cris": 1165,
      "semana": 1166,
      "muitas": 1167,
      "deira": 1168,
      "segundo": 1169,
      "sentimento": 1170,
      "boca": 1171,
      "qualquer": 1172,
      "desco": 1173,
      "prova": 1174,
      "rosto": 1175,
      "oh": 1176,
      "política": 1177,
      "tur": 1178,
      "tinham": 1179,
      "helena": 1180,
      "quero": 1181,
      "situação": 1182,
      "pau": 1183,
      "temp": 1184,
      "igu": 1185,
      "fui": 1186,
      "própria": 1187,
      "rando": 1188,
      "gillia": 1189,
      "char": 1190,
      "naturalmente": 1191,
      "gilliatt": 1192,
      "iz": 1193,
      "natu": 1194,
      "eter": 1195,
      "circu": 1196,
      "câ": 1197,
      "conclu": 1198,
      "lação": 1199,
      "silêncio": 1200,
      "entretanto": 1201,
      "atra": 1202,
      "til": 1203,
      "eiros": 1204,
      "serva": 1205,
      "bele": 1206,
      "grandes": 1207,
      "dú": 1208,
      "guer": 1209,
      "leitor": 1210,
      "continuou": 1211,
      "dera": 1212,
      "ôni": 1213,
      "mesa": 1214,
      "fício": 1215,
      "lhos": 1216,
      "gover": 1217,
      "exem": 1218,
      "estado": 1219,
      "houve": 1220,
      "estes": 1221,
      "enquanto": 1222,
      "pôde": 1223,
      "entrar": 1224,
      "fundo": 1225,
      "aleg": 1226,
      "natureza": 1227,
      "passar": 1228,
      "contr": 1229,
      "tribu": 1230,
      "resposta": 1231,
      "acompan": 1232,
      "expli": 1233,
      "elo": 1234,
      "pôs": 1235,
      "cena": 1236,
      "cra": 1237,
      "gia": 1238,
      "damente": 1239,
      "volta": 1240,
      "deixou": 1241,
      "dizendo": 1242,
      "rindo": 1243,
      "van": 1244,
      "alves": 1245,
      "pia": 1246,
      "deixar": 1247,
      "esper": 1248,
      "dig": 1249,
      "pesar": 1250,
      "dência": 1251,
      "ocu": 1252,
      "inten": 1253,
      "respeito": 1254,
      "íssi": 1255,
      "dito": 1256,
      "acor": 1257,
      "rior": 1258,
      "água": 1259,
      "pun": 1260,
      "arran": 1261,
      "escu": 1262,
      "essas": 1263,
      "rubi": 1264,
      "clara": 1265,
      "convi": 1266,
      "ato": 1267,
      "pedir": 1268,
      "segun": 1269,
      "cera": 1270,
      "casar": 1271,
      "efeito": 1272,
      "explica": 1273,
      "vendo": 1274,
      "fen": 1275,
      "deles": 1276,
      "bela": 1277,
      "emos": 1278,
      "rubião": 1279,
      "arre": 1280,
      "von": 1281,
      "pul": 1282,
      "estavam": 1283,
      "princi": 1284,
      "apres": 1285,
      "estu": 1286,
      "quê": 1287,
      "diga": 1288,
      "opinião": 1289,
      "cente": 1290,
      "quei": 1291,
      "teria": 1292,
      "conven": 1293,
      "namora": 1294,
      "entar": 1295,
      "resto": 1296,
      "cular": 1297,
      "imagina": 1298,
      "estran": 1299,
      "difer": 1300,
      "desen": 1301,
      "voltou": 1302,
      "princípio": 1303,
      "janela": 1304,
      "ine": 1305,
      "muitos": 1306,
      "riso": 1307,
      "flor": 1308,
      "curios": 1309,
      "idéias": 1310,
      "trabalho": 1311,
      "comé": 1312,
      "num": 1313,
      "certa": 1314,
      "nesse": 1315,
      "sau": 1316,
      "sabia": 1317,
      "bou": 1318,
      "mando": 1319,
      "inhas": 1320,
      "ada": 1321,
      "bora": 1322,
      "nças": 1323,
      "empre": 1324,
      "tim": 1325,
      "começa": 1326,
      "oli": 1327,
      "aper": 1328,
      "demais": 1329,
      "dores": 1330,
      "pena": 1331,
      "curso": 1332,
      "tru": 1333,
      "confes": 1334,
      "passo": 1335,
      "lágrimas": 1336,
      "vontade": 1337,
      ".": 1338,
      "assu": 1339,
      "vio": 1340,
      "ação": 1341,
      "saí": 1342,
      "futu": 1343,
      "passado": 1344,
      "achar": 1345,
      "passou": 1346,
      "acu": 1347,
      "parecer": 1348,
      "médico": 1349,
      "tância": 1350,
      "brasil": 1351,
      "ouvir": 1352,
      "pediu": 1353,
      "felicidade": 1354,
      "confia": 1355,
      "lis": 1356,
      "cí": 1357,
      "lio": 1358,
      "obs": 1359,
      "ouviu": 1360,
      "culos": 1361,
      "zo": 1362,
      "inf": 1363,
      "tira": 1364,
      "plan": 1365,
      "encontra": 1366,
      "cuida": 1367,
      "circuns": 1368,
      "sul": 1369,
      "última": 1370,
      "leito": 1371,
      "tério": 1372,
      "her": 1373,
      "esperança": 1374,
      "sões": 1375,
      "vul": 1376,
      "tavam": 1377,
      "excla": 1378,
      "meia": 1379,
      "tados": 1380,
      "disso": 1381,
      "apesar": 1382,
      "tuna": 1383,
      "pés": 1384,
      "alegre": 1385,
      "crer": 1386,
      "assis": 1387,
      "oliver": 1388,
      "ques": 1389,
      "lução": 1390,
      "consigo": 1391,
      "nha": 1392,
      "vés": 1393,
      "doutor": 1394,
      "cumpri": 1395,
      "público": 1396,
      "tirou": 1397,
      "gus": 1398,
      "bene": 1399,
      "tantes": 1400,
      "quarto": 1401,
      "afir": 1402,
      "caminho": 1403,
      "ciosa": 1404,
      "dinheiro": 1405,
      "embora": 1406,
      "passe": 1407,
      "pelos": 1408,
      "acres": 1409,
      "negó": 1410,
      "ing": 1411,
      "conta": 1412,
      "lé": 1413,
      "ismo": 1414,
      "motivo": 1415,
      "lau": 1416,
      "dando": 1417,
      "sidade": 1418,
      "começou": 1419,
      "fina": 1420,
      "rique": 1421,
      "cala": 1422,
      "carlo": 1423,
      "edu": 1424,
      "dir": 1425,
      "dí": 1426,
      "nou": 1427,
      "gular": 1428,
      "len": 1429,
      "pan": 1430,
      "esia": 1431,
      "verdadeira": 1432,
      "daquele": 1433,
      "iro": 1434,
      "quad": 1435,
      "corpo": 1436,
      "câmara": 1437,
      "povo": 1438,
      "praz": 1439,
      "cação": 1440,
      "medo": 1441,
      "umas": 1442,
      "parou": 1443,
      "tom": 1444,
      "liber": 1445,
      "acre": 1446,
      "interrom": 1447,
      "imi": 1448,
      "conso": 1449,
      "memó": 1450,
      "primeiros": 1451,
      "espa": 1452,
      "esses": 1453,
      "prima": 1454,
      "mina": 1455,
      "vidade": 1456,
      "cartas": 1457,
      "tista": 1458,
      "levantou": 1459,
      "nal": 1460,
      "daquela": 1461,
      "jú": 1462,
      "tivesse": 1463,
      "tência": 1464,
      "prome": 1465,
      "flores": 1466,
      "roman": 1467,
      "nor": 1468,
      "final": 1469,
      "figura": 1470,
      "exemplo": 1471,
      "produz": 1472,
      "contrário": 1473,
      "visto": 1474,
      "mir": 1475,
      "terá": 1476,
      "igre": 1477,
      "tex": 1478,
      "sorri": 1479,
      "morrer": 1480,
      "gló": 1481,
      "veja": 1482,
      "senão": 1483,
      "impossível": 1484,
      "tino": 1485,
      "lín": 1486,
      "oito": 1487,
      "cedo": 1488,
      "et": 1489,
      "mur": 1490,
      "segunda": 1491,
      "ticas": 1492,
      "corte": 1493,
      "voltar": 1494,
      "têm": 1495,
      "fortuna": 1496,
      "nidade": 1497,
      "carro": 1498,
      "paixão": 1499,
      "xo": 1500,
      "contemp": 1501,
      "gada": 1502,
      "carlota": 1503,
      "chão": 1504,
      "vela": 1505,
      "publica": 1506,
      "gens": 1507,
      "desejo": 1508,
      "sando": 1509,
      "momento": 1510,
      "inspi": 1511,
      "sí": 1512,
      "futuro": 1513,
      "ais": 1514,
      "excel": 1515,
      "ordem": 1516,
      "particular": 1517,
      "gava": 1518,
      "braços": 1519,
      "mulheres": 1520,
      "aber": 1521,
      "ai": 1522,
      "cama": 1523,
      "inhos": 1524,
      "assunto": 1525,
      "tina": 1526,
      "deram": 1527,
      "tempos": 1528,
      "talento": 1529,
      "último": 1530,
      "achava": 1531,
      "ren": 1532,
      "diver": 1533,
      "acabou": 1534,
      "abor": 1535,
      "ide": 1536,
      "ur": 1537,
      "ontem": 1538,
      "trin": 1539,
      "ocupa": 1540,
      "sobr": 1541,
      "espé": 1542,
      "cava": 1543,
      "letra": 1544,
      "possu": 1545,
      "rela": 1546,
      "reconhe": 1547,
      "semel": 1548,
      "chapé": 1549,
      "feição": 1550,
      "tivamente": 1551,
      "hei": 1552,
      "diu": 1553,
      "soli": 1554,
      "torna": 1555,
      "sentiu": 1556,
      "pública": 1557,
      "mero": 1558,
      "realmente": 1559,
      "turas": 1560,
      "direito": 1561,
      "elho": 1562,
      "tasse": 1563,
      "qüi": 1564,
      "devo": 1565,
      "socie": 1566,
      "exis": 1567,
      "estácio": 1568,
      "naquele": 1569,
      "principal": 1570,
      "gir": 1571,
      "lix": 1572,
      "coron": 1573,
      "dição": 1574,
      "feita": 1575,
      "ticos": 1576,
      "pec": 1577,
      "fere": 1578,
      "falta": 1579,
      "falou": 1580,
      "governo": 1581,
      "super": 1582,
      "mia": 1583,
      "seis": 1584,
      "peça": 1585,
      "vento": 1586,
      "sangue": 1587,
      "eis": 1588,
      "igreja": 1589,
      "cres": 1590,
      "expressão": 1591,
      "pelas": 1592,
      "tranqüi": 1593,
      "contar": 1594,
      "coronel": 1595,
      "brou": 1596,
      "emília": 1597,
      "aus": 1598,
      "abra": 1599,
      "chá": 1600,
      "espan": 1601,
      "alguém": 1602,
      "186": 1603,
      "gando": 1604,
      "toma": 1605,
      "tito": 1606,
      "costume": 1607,
      "poesia": 1608,
      "naquela": 1609,
      "fan": 1610,
      "don": 1611,
      "cerca": 1612,
      "maneira": 1613,
      "canto": 1614,
      "dentes": 1615,
      "din": 1616,
      "confi": 1617,
      "vor": 1618,
      "peri": 1619,
      "trás": 1620,
      "chegar": 1621,
      "nú": 1622,
      "daqui": 1623,
      "repres": 1624,
      "fecha": 1625,
      "amiga": 1626,
      "depressa": 1627,
      "cabel": 1628,
      "atenção": 1629,
      "xa": 1630,
      "moral": 1631,
      "rico": 1632,
      "dizem": 1633,
      "viagem": 1634,
      "sra": 1635,
      "depu": 1636,
      "taram": 1637,
      "sentia": 1638,
      "resol": 1639,
      "cendo": 1640,
      "glória": 1641,
      "az": 1642,
      "cando": 1643,
      "diabo": 1644,
      "reflex": 1645,
      "obje": 1646,
      "movi": 1647,
      "conde": 1648,
      "paulo": 1649,
      "acredi": 1650,
      "espécie": 1651,
      "reira": 1652,
      "memória": 1653,
      "pequeno": 1654,
      "âni": 1655,
      "sentimentos": 1656,
      "origin": 1657,
      "medi": 1658,
      "podem": 1659,
      "justi": 1660,
      "ador": 1661,
      "amanhã": 1662,
      "presi": 1663,
      "impor": 1664,
      "poucos": 1665,
      "domin": 1666,
      "trazia": 1667,
      "igual": 1668,
      "dê": 1669,
      "mere": 1670,
      "riam": 1671,
      "félix": 1672,
      "texto": 1673,
      "alto": 1674,
      "contos": 1675,
      "comenda": 1676,
      "tório": 1677,
      "bai": 1678,
      "minhas": 1679,
      "consciência": 1680,
      "aba": 1681,
      "tima": 1682,
      "bilidade": 1683,
      "escrever": 1684,
      "viver": 1685,
      "irmã": 1686,
      "criança": 1687,
      "geral": 1688,
      "ví": 1689,
      "encon": 1690,
      "ventura": 1691,
      "semelh": 1692,
      "vin": 1693,
      "õe": 1694,
      "cair": 1695,
      "alegria": 1696,
      "basta": 1697,
      "demo": 1698,
      "criado": 1699,
      "esca": 1700,
      "servi": 1701,
      "língua": 1702,
      "distin": 1703,
      "longa": 1704,
      "virtu": 1705,
      "mú": 1706,
      "defin": 1707,
      "livros": 1708,
      "suspi": 1709,
      "nais": 1710,
      "velmente": 1711,
      "vale": 1712,
      "augus": 1713,
      "edade": 1714,
      "indifer": 1715,
      "interesse": 1716,
      "rica": 1717,
      "eiras": 1718,
      "fern": 1719,
      "pla": 1720,
      "século": 1721,
      "olhou": 1722,
      "cansa": 1723,
      "festa": 1724,
      "tera": 1725,
      "sociedade": 1726,
      "difí": 1727,
      "réis": 1728,
      "numa": 1729,
      "testa": 1730,
      "major": 1731,
      "capaz": 1732,
      "cadeira": 1733,
      "perto": 1734,
      "poder": 1735,
      "acabar": 1736,
      "apar": 1737,
      "troux": 1738,
      "separa": 1739,
      "justamente": 1740,
      "questão": 1741,
      "recor": 1742,
      "necessidade": 1743,
      "aborre": 1744,
      "fro": 1745,
      "cabo": 1746,
      "pede": 1747,
      "dúvida": 1748,
      "cora": 1749,
      "satis": 1750,
      "resul": 1751,
      "pensamento": 1752,
      "recebeu": 1753,
      "desem": 1754,
      "enrique": 1755,
      "sias": 1756,
      "mau": 1757,
      "única": 1758,
      "adeus": 1759,
      "apareceu": 1760,
      "pli": 1761,
      "reg": 1762,
      "espos": 1763,
      "profun": 1764,
      "posi": 1765,
      "zar": 1766,
      "temos": 1767,
      "correu": 1768,
      "nação": 1769,
      "nesta": 1770,
      "culpa": 1771,
      "pis": 1772,
      "peu": 1773,
      "eses": 1774,
      "alcan": 1775,
      "caix": 1776,
      "tive": 1777,
      "dire": 1778,
      "chu": 1779,
      "esten": 1780,
      "suspei": 1781,
      "lembran": 1782,
      "drama": 1783,
      "arti": 1784,
      "jornal": 1785,
      "sai": 1786,
      "let": 1787,
      "agrade": 1788,
      "punha": 1789,
      "chapéu": 1790,
      "dever": 1791,
      "camente": 1792,
      "sica": 1793,
      "levar": 1794,
      "abriu": 1795,
      "ouro": 1796,
      "viva": 1797,
      "fogo": 1798,
      "peda": 1799,
      "nado": 1800,
      "manda": 1801,
      "falava": 1802,
      "país": 1803,
      "sono": 1804,
      "único": 1805,
      "issão": 1806,
      "irmão": 1807,
      "conselho": 1808,
      "delas": 1809,
      "usão": 1810,
      "idos": 1811,
      "dura": 1812,
      "esa": 1813,
      "soares": 1814,
      "capitão": 1815,
      "fronte": 1816,
      "bres": 1817,
      "engan": 1818,
      "cole": 1819,
      "perder": 1820,
      "nessa": 1821,
      "ável": 1822,
      "aquilo": 1823,
      "ficava": 1824,
      "leu": 1825,
      "esfor": 1826,
      "teza": 1827,
      "tivos": 1828,
      "giu": 1829,
      "andar": 1830,
      "preten": 1831,
      "inteira": 1832,
      "liberdade": 1833,
      "mendo": 1834,
      "cional": 1835,
      "encar": 1836,
      "reco": 1837,
      "viz": 1838,
      "fato": 1839,
      "prazer": 1840,
      "vindo": 1841,
      "poe": 1842,
      "dim": 1843,
      "diri": 1844,
      "luí": 1845,
      "bilhe": 1846,
      "própri": 1847,
      "difícil": 1848,
      "pergunta": 1849,
      "comédia": 1850,
      "sário": 1851,
      "perdo": 1852,
      "terc": 1853,
      "impressão": 1854,
      "doce": 1855,
      "grave": 1856,
      "ramá": 1857,
      "ministro": 1858,
      "vei": 1859,
      "ridade": 1860,
      "luta": 1861,
      "secre": 1862,
      "pais": 1863,
      "reli": 1864,
      "trata": 1865,
      "filhos": 1866,
      "bede": 1867,
      "bera": 1868,
      "inven": 1869,
      "observa": 1870,
      "bios": 1871,
      "auto": 1872,
      "singular": 1873,
      "maio": 1874,
      "conten": 1875,
      "verso": 1876,
      "presente": 1877,
      "muda": 1878,
      "soube": 1879,
      "achei": 1880,
      "tornou": 1881,
      "rai": 1882,
      "rir": 1883,
      "hores": 1884,
      "guerra": 1885,
      "agui": 1886,
      "suj": 1887,
      "sendo": 1888,
      "morreu": 1889,
      "afe": 1890,
      "eleg": 1891,
      "cesso": 1892,
      "instante": 1893,
      "acho": 1894,
      "sombra": 1895,
      "cão": 1896,
      "vido": 1897,
      "taria": 1898,
      "pósi": 1899,
      "afinal": 1900,
      "tirar": 1901,
      "agi": 1902,
      "zas": 1903,
      "dani": 1904,
      "nossos": 1905,
      "esperar": 1906,
      "teus": 1907,
      "somente": 1908,
      "euro": 1909,
      "daniel": 1910,
      "sofia": 1911,
      "pura": 1912,
      "conselh": 1913,
      "jardim": 1914,
      "segre": 1915,
      "alu": 1916,
      "passos": 1917,
      "estilo": 1918,
      "companhia": 1919,
      "discurso": 1920,
      "ana": 1921,
      "cará": 1922,
      "tris": 1923,
      "ônia": 1924,
      "rente": 1925,
      "nomes": 1926,
      "reiro": 1927,
      "guarda": 1928,
      "põe": 1929,
      "tria": 1930,
      "remos": 1931,
      "feitos": 1932,
      "honra": 1933,
      "reso": 1934,
      "cioso": 1935,
      "quais": 1936,
      "doente": 1937,
      "tual": 1938,
      "terr": 1939,
      "braço": 1940,
      "pudesse": 1941,
      "jul": 1942,
      "âncias": 1943,
      "subs": 1944,
      "útil": 1945,
      "mada": 1946,
      "forte": 1947,
      "diferença": 1948,
      "henrique": 1949,
      "estra": 1950,
      "refer": 1951,
      "pido": 1952,
      "longo": 1953,
      "pósito": 1954,
      "esperanças": 1955,
      "beleza": 1956,
      "número": 1957,
      "colo": 1958,
      "guei": 1959,
      "crí": 1960,
      "murmu": 1961,
      "hes": 1962,
      "ant": 1963,
      "lig": 1964,
      "leg": 1965,
      "claro": 1966,
      "véspera": 1967,
      "apre": 1968,
      "respei": 1969,
      "táculo": 1970,
      "evi": 1971,
      "pequena": 1972,
      "amores": 1973,
      "iá": 1974,
      "melan": 1975,
      "descobri": 1976,
      "hão": 1977,
      "pl": 1978,
      "exclamou": 1979,
      "acaso": 1980,
      "nele": 1981,
      "ry": 1982,
      "ído": 1983,
      "ouvia": 1984,
      "faça": 1985,
      "trinta": 1986,
      "dendo": 1987,
      "bon": 1988,
      "cami": 1989,
      "conc": 1990,
      "ambas": 1991,
      "justiça": 1992,
      "resis": 1993,
      "cura": 1994,
      "subi": 1995,
      "olha": 1996,
      "santa": 1997,
      "capitu": 1998,
      "luísa": 1999,
      "umes": 2000,
      "guas": 2001,
      "lido": 2002,
      "folha": 2003,
      "concor": 2004,
      "graças": 2005,
      "bonita": 2006,
      "imaginação": 2007,
      "acrescen": 2008,
      "movimento": 2009,
      "cân": 2010,
      "ense": 2011,
      "elis": 2012,
      "gação": 2013,
      "boas": 2014,
      "prefer": 2015,
      "levou": 2016,
      "pedia": 2017,
      "sorriu": 2018,
      "cília": 2019,
      "ofere": 2020,
      "escra": 2021,
      "lava": 2022,
      "gab": 2023,
      "médio": 2024,
      "religi": 2025,
      "estela": 2026,
      "dali": 2027,
      "limi": 2028,
      "esperava": 2029,
      "fico": 2030,
      "extra": 2031,
      "chamar": 2032,
      "instantes": 2033,
      "dramá": 2034,
      "ita": 2035,
      "mava": 2036,
      "cecília": 2037,
      "pensou": 2038,
      "impres": 2039,
      "mendonça": 2040,
      "insis": 2041,
      "lembrou": 2042,
      "ata": 2043,
      "pior": 2044,
      "xx": 2045,
      "chado": 2046,
      "entu": 2047,
      "anun": 2048,
      "parar": 2049,
      "imagin": 2050,
      "confiança": 2051,
      "),": 2052,
      "ench": 2053,
      "meneses": 2054,
      "ble": 2055,
      "deli": 2056,
      "mili": 2057,
      "seman": 2058,
      "tâncias": 2059,
      "iaiá": 2060,
      "espero": 2061,
      "rcio": 2062,
      "gor": 2063,
      "tens": 2064,
      "poderia": 2065,
      "pôr": 2066,
      "teres": 2067,
      "retra": 2068,
      "berto": 2069,
      "quina": 2070,
      "importa": 2071,
      "negócio": 2072,
      "gé": 2073,
      "uso": 2074,
      "dessas": 2075,
      "adver": 2076,
      "caráter": 2077,
      "sera": 2078,
      "prov": 2079,
      "corri": 2080,
      "interro": 2081,
      "am": 2082,
      "ária": 2083,
      "realidade": 2084,
      "dessa": 2085,
      "bons": 2086,
      "sorriso": 2087,
      "gon": 2088,
      "cuja": 2089,
      "perce": 2090,
      "valen": 2091,
      "pensava": 2092,
      "favor": 2093,
      "fazendo": 2094,
      "ônio": 2095,
      "propósito": 2096,
      "certeza": 2097,
      "europa": 2098,
      "mês": 2099,
      "moças": 2100,
      "sonho": 2101,
      "intenção": 2102,
      "valentim": 2103,
      "omb": 2104,
      "ún": 2105,
      "tomar": 2106,
      "iria": 2107,
      "aliás": 2108,
      "gros": 2109,
      "lum": 2110,
      "devera": 2111,
      "sete": 2112,
      "infeliz": 2113,
      "gina": 2114,
      "ergu": 2115,
      "mol": 2116,
      "pade": 2117,
      "vicente": 2118,
      "sido": 2119,
      "tenha": 2120,
      "íamos": 2121,
      "................................": 2122,
      "semanas": 2123,
      "cui": 2124,
      "constitu": 2125,
      "cabelos": 2126,
      "destino": 2127,
      "lida": 2128,
      "gol": 2129,
      "midade": 2130,
      "pensar": 2131,
      "completa": 2132,
      "semelhante": 2133,
      "quan": 2134,
      "ern": 2135,
      "ponta": 2136,
      "lábios": 2137,
      "igno": 2138,
      "bras": 2139,
      "cês": 2140,
      "ofi": 2141,
      "elei": 2142,
      "notícias": 2143,
      "explicação": 2144,
      "augusta": 2145,
      "gabine": 2146,
      "próxi": 2147,
      "título": 2148,
      "187": 2149,
      "apo": 2150,
      "nobre": 2151,
      "podiam": 2152,
      "excelente": 2153,
      "dan": 2154,
      "comer": 2155,
      "comum": 2156,
      "hado": 2157,
      "chi": 2158,
      "bol": 2159,
      "ginas": 2160,
      "presidente": 2161,
      "ceram": 2162,
      "ários": 2163,
      "quali": 2164,
      "machado": 2165,
      "conhecia": 2166,
      "amava": 2167,
      "frio": 2168,
      "vejo": 2169,
      "páginas": 2170,
      "espaço": 2171,
      "bos": 2172,
      "chora": 2173,
      "fres": 2174,
      "debaixo": 2175,
      "conserva": 2176,
      "solu": 2177,
      "sacri": 2178,
      "peço": 2179,
      "seguiu": 2180,
      "fas": 2181,
      "vieram": 2182,
      "sorte": 2183,
      "vemos": 2184,
      "correr": 2185,
      "entusias": 2186,
      "aju": 2187,
      "lú": 2188,
      "nela": 2189,
      "ardo": 2190,
      "obras": 2191,
      "concluiu": 2192,
      "interior": 2193,
      "atrás": 2194,
      "coro": 2195,
      "consul": 2196,
      "nota": 2197,
      "venha": 2198,
      "bur": 2199,
      "faria": 2200,
      "mestre": 2201,
      "ílio": 2202,
      "decla": 2203,
      "pente": 2204,
      "fazem": 2205,
      "verdadeiro": 2206,
      "baile": 2207,
      "remédio": 2208,
      "sentido": 2209,
      "frase": 2210,
      "hesi": 2211,
      "maté": 2212,
      "estreme": 2213,
      "fácil": 2214,
      "gabinete": 2215,
      "bio": 2216,
      "ofício": 2217,
      "contava": 2218,
      "cujo": 2219,
      "sensa": 2220,
      "cô": 2221,
      "proje": 2222,
      "cruz": 2223,
      "curiosidade": 2224,
      "00": 2225,
      "real": 2226,
      "camar": 2227,
      "literá": 2228,
      "romance": 2229,
      "ódio": 2230,
      "quere": 2231,
      "conser": 2232,
      "largo": 2233,
      "visita": 2234,
      "19": 2235,
      "convida": 2236,
      "vil": 2237,
      "segredo": 2238,
      "gres": 2239,
      "dita": 2240,
      "menor": 2241,
      "leo": 2242,
      "correspon": 2243,
      "receber": 2244,
      "jornais": 2245,
      "escreveu": 2246,
      "bin": 2247,
      "cimentos": 2248,
      "muni": 2249,
      "ordin": 2250,
      "magal": 2251,
      "mandou": 2252,
      "fes": 2253,
      "morto": 2254,
      "hães": 2255,
      "conselheiro": 2256,
      "magalhães": 2257,
      "ár": 2258,
      "jas": 2259,
      "houvesse": 2260,
      "hier": 2261,
      "acima": 2262,
      "atribu": 2263,
      "ói": 2264,
      "ror": 2265,
      "desses": 2266,
      "supor": 2267,
      "troca": 2268,
      "roso": 2269,
      "costuma": 2270,
      "ame": 2271,
      "iões": 2272,
      "lera": 2273,
      "obede": 2274,
      "artista": 2275,
      "repu": 2276,
      "tanta": 2277,
      "menina": 2278,
      "folhas": 2279,
      "extre": 2280,
      "livre": 2281,
      "filos": 2282,
      "siva": 2283,
      "exce": 2284,
      "nariz": 2285,
      "buscar": 2286,
      "esquer": 2287,
      "nacional": 2288,
      "exe": 2289,
      "nossas": 2290,
      "cano": 2291,
      "aplau": 2292,
      "escrito": 2293,
      "conside": 2294,
      "mação": 2295,
      "sincer": 2296,
      "sorrindo": 2297,
      "escola": 2298,
      "ernesto": 2299,
      "sabem": 2300,
      "tristeza": 2301,
      "esposa": 2302,
      "tte": 2303,
      "caiu": 2304,
      "conto": 2305,
      "olhava": 2306,
      "rapazes": 2307,
      "deveras": 2308,
      "mado": 2309,
      "hava": 2310,
      "fonte": 2311,
      "íssimo": 2312,
      "namorado": 2313,
      "circunstâncias": 2314,
      "nisto": 2315,
      "anjo": 2316,
      "gados": 2317,
      "iii": 2318,
      "jou": 2319,
      "veram": 2320,
      "deseja": 2321,
      "tida": 2322,
      "timo": 2323,
      "viol": 2324,
      "ciais": 2325,
      "zação": 2326,
      "efe": 2327,
      "ilha": 2328,
      "vivia": 2329,
      "folhe": 2330,
      "margar": 2331,
      "francis": 2332,
      "leitores": 2333,
      "distra": 2334,
      "sentir": 2335,
      "ônica": 2336,
      "música": 2337,
      "rada": 2338,
      "alta": 2339,
      "media": 2340,
      "contudo": 2341,
      "namo": 2342,
      "dormir": 2343,
      "fossem": 2344,
      "deputado": 2345,
      "rita": 2346,
      "lua": 2347,
      "oliv": 2348,
      "th": 2349,
      "declar": 2350,
      "contou": 2351,
      "lamen": 2352,
      "sentou": 2353,
      "poucas": 2354,
      "noites": 2355,
      "saudades": 2356,
      "publicado": 2357,
      "rosas": 2358,
      "mosa": 2359,
      "cante": 2360,
      "crime": 2361,
      "passava": 2362,
      "todavia": 2363,
      "bis": 2364,
      "escon": 2365,
      "dada": 2366,
      "guio": 2367,
      "belo": 2368,
      "oliveira": 2369,
      "almoço": 2370,
      "pene": 2371,
      "orde": 2372,
      "afli": 2373,
      "trouxe": 2374,
      "estudo": 2375,
      "asas": 2376,
      "aria": 2377,
      "ero": 2378,
      "bilhete": 2379,
      "resta": 2380,
      "possa": 2381,
      "azul": 2382,
      "ér": 2383,
      "tara": 2384,
      "cidos": 2385,
      "quinze": 2386,
      "repetiu": 2387,
      "qualidades": 2388,
      "margarida": 2389,
      "pegou": 2390,
      "dissi": 2391,
      "recebi": 2392,
      "brin": 2393,
      "amente": 2394,
      "acen": 2395,
      "adiv": 2396,
      "fis": 2397,
      "exclu": 2398,
      "mani": 2399,
      "advo": 2400,
      "barão": 2401,
      "pareciam": 2402,
      "antigo": 2403,
      "humana": 2404,
      "hierry": 2405,
      "guiomar": 2406,
      "empres": 2407,
      "primo": 2408,
      "jovem": 2409,
      "pude": 2410,
      "deiro": 2411,
      "lembrança": 2412,
      "ério": 2413,
      "aspec": 2414,
      "tivas": 2415,
      "sara": 2416,
      "fazê": 2417,
      "vestido": 2418,
      "chuva": 2419,
      ").": 2420,
      "eleito": 2421,
      "cheio": 2422,
      "bate": 2423,
      "conveni": 2424,
      "dedos": 2425,
      "casti": 2426,
      "finalmente": 2427,
      "aman": 2428,
      "lias": 2429,
      "casas": 2430,
      "tinho": 2431,
      "pedido": 2432,
      "brilh": 2433,
      "antiga": 2434,
      "pol": 2435,
      "velhos": 2436,
      "capital": 2437,
      "freqü": 2438,
      "mostrar": 2439,
      "interrompeu": 2440,
      "letras": 2441,
      "quebra": 2442,
      "barb": 2443,
      "necessário": 2444,
      "acabava": 2445,
      "explicar": 2446,
      "influ": 2447,
      "eduardo": 2448,
      "pria": 2449,
      "pros": 2450,
      "respi": 2451,
      "caro": 2452,
      "primeiras": 2453,
      "eterna": 2454,
      "lethierry": 2455,
      "paciência": 2456,
      "tantas": 2457,
      "sinto": 2458,
      "sinal": 2459,
      "página": 2460,
      "lina": 2461,
      "vado": 2462,
      "esteve": 2463,
      "bonito": 2464,
      "comendador": 2465,
      "sujeito": 2466,
      "mula": 2467,
      "semos": 2468,
      "olhando": 2469,
      "forças": 2470,
      "sobretudo": 2471,
      "últimos": 2472,
      "espetáculo": 2473,
      "cavalo": 2474,
      "etc": 2475,
      "bru": 2476,
      "fria": 2477,
      "habi": 2478,
      "mesmos": 2479,
      "obser": 2480,
      "aproxi": 2481,
      "matéria": 2482,
      "pondo": 2483,
      "paga": 2484,
      "dições": 2485,
      "judeu": 2486,
      "apan": 2487,
      "fizeram": 2488,
      "crítica": 2489,
      "lumin": 2490,
      "apren": 2491,
      "nes": 2492,
      "éria": 2493,
      "ral": 2494,
      "amiza": 2495,
      "mont": 2496,
      "cau": 2497,
      "virg": 2498,
      "cina": 2499,
      "tomou": 2500,
      "mocidade": 2501,
      "perdeu": 2502,
      "perdão": 2503,
      "aqueles": 2504,
      "ouvidor": 2505,
      "sincera": 2506,
      "necessá": 2507,
      "aires": 2508,
      "resultado": 2509,
      "apare": 2510,
      "sina": 2511,
      "fech": 2512,
      "silv": 2513,
      "polícia": 2514,
      "linhas": 2515,
      "delica": 2516,
      "enfer": 2517,
      "casse": 2518,
      "gador": 2519,
      "feira": 2520,
      "juí": 2521,
      "tável": 2522,
      "tismo": 2523,
      "vanta": 2524,
      "dios": 2525,
      "conhecido": 2526,
      "estos": 2527,
      "bata": 2528,
      "grama": 2529,
      "deixe": 2530,
      "afeição": 2531,
      "dama": 2532,
      "almo": 2533,
      "ança": 2534,
      "pagar": 2535,
      "presença": 2536,
      "conhece": 2537,
      "estivesse": 2538,
      "abrir": 2539,
      "procura": 2540,
      "provavelmente": 2541,
      "depen": 2542,
      "compara": 2543,
      "perten": 2544,
      "puro": 2545,
      "elisa": 2546,
      "davam": 2547,
      "vaga": 2548,
      "prepara": 2549,
      "senhoras": 2550,
      "feições": 2551,
      "ferro": 2552,
      "reflexão": 2553,
      "resolução": 2554,
      "taman": 2555,
      "vira": 2556,
      "cência": 2557,
      "carlos": 2558,
      "execu": 2559,
      "virtude": 2560,
      "ór": 2561,
      "costumes": 2562,
      "interess": 2563,
      "sentar": 2564,
      "aze": 2565,
      "almas": 2566,
      "difi": 2567,
      "tantos": 2568,
      "ouvido": 2569,
      "apresen": 2570,
      "aspecto": 2571,
      "excia": 2572,
      "triz": 2573,
      "indig": 2574,
      "sabes": 2575,
      "lembrar": 2576,
      "principalmente": 2577,
      "clá": 2578,
      "miste": 2579,
      "sú": 2580,
      "portu": 2581,
      "melhores": 2582,
      "conheço": 2583,
      "atraves": 2584,
      "inteiramente": 2585,
      "declarou": 2586,
      "gela": 2587,
      "quia": 2588,
      "saía": 2589,
      "experi": 2590,
      "noivo": 2591,
      "cursos": 2592,
      "objeto": 2593,
      "ânimo": 2594,
      "amizade": 2595,
      "imen": 2596,
      "revo": 2597,
      "erro": 2598,
      "meno": 2599,
      "ciente": 2600,
      "sio": 2601,
      "proce": 2602,
      "acudiu": 2603,
      "vulgar": 2604,
      "molés": 2605,
      "cesse": 2606,
      "ger": 2607,
      "comuni": 2608,
      "novas": 2609,
      "promes": 2610,
      "conhecer": 2611,
      "esquerda": 2612,
      "tadas": 2613,
      "reló": 2614,
      "ansi": 2615,
      "suce": 2616,
      "aprovei": 2617,
      "igualmente": 2618,
      "frente": 2619,
      "pão": 2620,
      "asso": 2621,
      "quel": 2622,
      "popu": 2623,
      "discre": 2624,
      "fugir": 2625,
      "charu": 2626,
      "gni": 2627,
      "vesti": 2628,
      "sonhos": 2629,
      "bum": 2630,
      "sia": 2631,
      "rara": 2632,
      "queres": 2633,
      "ritos": 2634,
      "ciar": 2635,
      "vens": 2636,
      "aguiar": 2637,
      "tornar": 2638,
      "chamava": 2639,
      "misterios": 2640,
      "acerca": 2641,
      "infin": 2642,
      "meteu": 2643,
      "casos": 2644,
      "simpa": 2645,
      "garcia": 2646,
      "triun": 2647,
      "pequen": 2648,
      "entender": 2649,
      "abaixo": 2650,
      "ófi": 2651,
      "dono": 2652,
      "mun": 2653,
      "marques": 2654,
      "espi": 2655,
      "nego": 2656,
      "orgu": 2657,
      "após": 2658,
      "simplesmente": 2659,
      "praia": 2660,
      "quarenta": 2661,
      "representa": 2662,
      "adela": 2663,
      "nisso": 2664,
      "escada": 2665,
      "assem": 2666,
      "confesso": 2667,
      "sobrinho": 2668,
      "donde": 2669,
      "adelaide": 2670,
      "lê": 2671,
      "ini": 2672,
      "café": 2673,
      "confir": 2674,
      "compri": 2675,
      "perde": 2676,
      "propor": 2677,
      "dução": 2678,
      "campo": 2679,
      "cei": 2680,
      "ote": 2681,
      "olhe": 2682,
      "vaidade": 2683,
      "cun": 2684,
      "derra": 2685,
      "criatura": 2686,
      "plano": 2687,
      "'.": 2688,
      "roche": 2689,
      "fiquei": 2690,
      "perdido": 2691,
      "ausência": 2692,
      "fantas": 2693,
      "camilo": 2694,
      "adi": 2695,
      "ní": 2696,
      "saú": 2697,
      "preocupa": 2698,
      "hábi": 2699,
      "mandar": 2700,
      "falando": 2701,
      "péis": 2702,
      "santos": 2703,
      "destas": 2704,
      "destes": 2705,
      "razões": 2706,
      "andando": 2707,
      "conversação": 2708,
      "passeio": 2709,
      "amé": 2710,
      "conce": 2711,
      "tró": 2712,
      "perguntei": 2713,
      "precisa": 2714,
      "circunstância": 2715,
      "desembar": 2716,
      "munici": 2717,
      "?...": 2718,
      "papéis": 2719,
      "conci": 2720,
      "chos": 2721,
      "salva": 2722,
      "sério": 2723,
      "esquecer": 2724,
      "ombros": 2725,
      "adiante": 2726,
      "leve": 2727,
      "prová": 2728,
      "missa": 2729,
      "belas": 2730,
      "ilusão": 2731,
      "reun": 2732,
      "menino": 2733,
      "estade": 2734,
      "impera": 2735,
      "baron": 2736,
      "anterior": 2737,
      "examin": 2738,
      "poetas": 2739,
      "amea": 2740,
      "ez": 2741,
      "descan": 2742,
      "ventu": 2743,
      "retrato": 2744,
      "!...": 2745,
      "fru": 2746,
      "çando": 2747,
      "ruas": 2748,
      "tenta": 2749,
      "cença": 2750,
      "teiro": 2751,
      "íssima": 2752,
      "esforço": 2753,
      "próprios": 2754,
      "!": 2755,
      "apos": 2756,
      "santo": 2757,
      "inútil": 2758,
      "revela": 2759,
      "condição": 2760,
      "gonha": 2761,
      "sula": 2762,
      "responder": 2763,
      "carac": 2764,
      "arrepen": 2765,
      "domingo": 2766,
      "advogado": 2767,
      "baronesa": 2768,
      "terna": 2769,
      "noiva": 2770,
      "afirma": 2771,
      "negócios": 2772,
      "entusiasmo": 2773,
      "atos": 2774,
      "inimi": 2775,
      "multi": 2776,
      "eterno": 2777,
      "mamãe": 2778,
      "sava": 2779,
      "pernas": 2780,
      "joel": 2781,
      "cheia": 2782,
      "abel": 2783,
      "andava": 2784,
      "gênero": 2785,
      "ições": 2786,
      "demora": 2787,
      "diminu": 2788,
      "famili": 2789,
      "institu": 2790,
      "188": 2791,
      "admiração": 2792,
      "obrigado": 2793,
      "murmurou": 2794,
      "zon": 2795,
      "sona": 2796,
      "gaz": 2797,
      "expri": 2798,
      "mostrou": 2799,
      "trê": 2800,
      "outrora": 2801,
      "185": 2802,
      "admira": 2803,
      "superior": 2804,
      "inos": 2805,
      "poé": 2806,
      "embar": 2807,
      "rido": 2808,
      "tidão": 2809,
      "portas": 2810,
      "joana": 2811,
      "algi": 2812,
      "estás": 2813,
      "beijo": 2814,
      "gru": 2815,
      "ãos": 2816,
      "defen": 2817,
      "mad": 2818,
      "vergonha": 2819,
      "prá": 2820,
      "ilustre": 2821,
      "adivinh": 2822,
      "coch": 2823,
      "caminha": 2824,
      "délia": 2825,
      "lingua": 2826,
      "piano": 2827,
      "agu": 2828,
      ",": 2829,
      "imou": 2830,
      "indiferença": 2831,
      "anuncia": 2832,
      "provín": 2833,
      "grito": 2834,
      "iza": 2835,
      "tário": 2836,
      "queix": 2837,
      "desgraça": 2838,
      "face": 2839,
      "diam": 2840,
      "pedra": 2841,
      "gênio": 2842,
      "digno": 2843,
      "linguagem": 2844,
      "atre": 2845,
      "beira": 2846,
      "dona": 2847,
      "col": 2848,
      "roda": 2849,
      "tividade": 2850,
      "ponha": 2851,
      "gostava": 2852,
      "quadro": 2853,
      "damas": 2854,
      "crição": 2855,
      "entrada": 2856,
      "salvo": 2857,
      "mariana": 2858,
      "direita": 2859,
      "saúde": 2860,
      "bia": 2861,
      "dro": 2862,
      "fê": 2863,
      "remo": 2864,
      "alvo": 2865,
      "vidas": 2866,
      "leão": 2867,
      "disseram": 2868,
      "palha": 2869,
      "existência": 2870,
      "ães": 2871,
      "infer": 2872,
      "caus": 2873,
      "usos": 2874,
      "mesmas": 2875,
      "impé": 2876,
      "quisera": 2877,
      "valor": 2878,
      "juli": 2879,
      "ficaram": 2880,
      "flora": 2881,
      "banco": 2882,
      "vier": 2883,
      "restitu": 2884,
      "partido": 2885,
      "relações": 2886,
      "imedia": 2887,
      "tum": 2888,
      "decerto": 2889,
      "dimento": 2890,
      "fale": 2891,
      "césar": 2892,
      "univer": 2893,
      "juntos": 2894,
      "obscu": 2895,
      "defini": 2896,
      "elegante": 2897,
      "prosa": 2898,
      "assen": 2899,
      "int": 2900,
      "divi": 2901,
      "çado": 2902,
      "caste": 2903,
      "gosta": 2904,
      "visitas": 2905,
      "levava": 2906,
      "juízo": 2907,
      "ófilo": 2908,
      ".": 2909,
      "enter": 2910,
      "diplo": 2911,
      "exer": 2912,
      "ramos": 2913,
      "falo": 2914,
      "cesa": 2915,
      "branco": 2916,
      "lenço": 2917,
      "originalmente": 2918,
      "terceiro": 2919,
      "daria": 2920,
      "tias": 2921,
      "bara": 2922,
      "penso": 2923,
      "relógio": 2924,
      "confor": 2925,
      "navio": 2926,
      "litera": 2927,
      "exi": 2928,
      "pátria": 2929,
      "histó": 2930,
      "cólera": 2931,
      "provável": 2932,
      "kes": 2933,
      "cados": 2934,
      "capri": 2935,
      "tib": 2936,
      "leis": 2937,
      "comoção": 2938,
      "gios": 2939,
      "melanco": 2940,
      "querer": 2941,
      "raquel": 2942,
      "remor": 2943,
      "vive": 2944,
      "perigo": 2945,
      "faço": 2946,
      "exig": 2947,
      "impren": 2948,
      "larga": 2949,
      "observação": 2950,
      "imprensa": 2951,
      "viesse": 2952,
      "despre": 2953,
      "paris": 2954,
      "gam": 2955,
      "fazenda": 2956,
      "gica": 2957,
      "fur": 2958,
      "deiras": 2959,
      "vossa": 2960,
      "bastante": 2961,
      "clubin": 2962,
      "fri": 2963,
      "reali": 2964,
      "vii": 2965,
      "verde": 2966,
      "escolha": 2967,
      "aceitou": 2968,
      "desenvol": 2969,
      "tristão": 2970,
      "golpe": 2971,
      "amá": 2972,
      "bria": 2973,
      "defun": 2974,
      "sikes": 2975,
      "profundo": 2976,
      "dumont": 2977,
      "costas": 2978,
      "missão": 2979,
      "gonç": 2980,
      "__": 2981,
      "teófilo": 2982,
      "ouvindo": 2983,
      "vocação": 2984,
      "meios": 2985,
      "candida": 2986,
      "breve": 2987,
      "deixava": 2988,
      "gasse": 2989,
      "vinham": 2990,
      "aberta": 2991,
      "moléstia": 2992,
      "cção": 2993,
      "zinha": 2994,
      "teo": 2995,
      "paro": 2996,
      "perfei": 2997,
      "bota": 2998,
      "carre": 2999,
      "batista": 3000,
      "pida": 3001,
      "visse": 3002,
      "séculos": 3003,
      "sobrinha": 3004,
      "namoro": 3005,
      "ácio": 3006,
      "úr": 3007,
      "çada": 3008,
      "estrei": 3009,
      "sente": 3010,
      "absolu": 3011,
      "organ": 3012,
      "últimas": 3013,
      "compreendeu": 3014,
      "extraordin": 3015,
      "bolso": 3016,
      "efetivamente": 3017,
      "abre": 3018,
      "del": 3019,
      "assus": 3020,
      "seio": 3021,
      "mole": 3022,
      "cai": 3023,
      "haja": 3024,
      "vivo": 3025,
      "fidélia": 3026,
      "bado": 3027,
      "mistério": 3028,
      "fizesse": 3029,
      "ministério": 3030,
      "cavalos": 3031,
      "sse": 3032,
      "águas": 3033,
      "doença": 3034,
      "arg": 3035,
      "matar": 3036,
      "reti": 3037,
      "elem": 3038,
      "berta": 3039,
      "censu": 3040,
      "estima": 3041,
      "fenô": 3042,
      "gonçalves": 3043,
      "at": 3044,
      "iv": 3045,
      "queza": 3046,
      "república": 3047,
      "caí": 3048,
      "umento": 3049,
      "ruche": 3050,
      "gá": 3051,
      "dedi": 3052,
      "delí": 3053,
      "alvar": 3054,
      "despedi": 3055,
      "déruche": 3056,
      "cinqü": 3057,
      "amado": 3058,
      "cinqüenta": 3059,
      "ara": 3060,
      "apaix": 3061,
      "pus": 3062,
      "zia": 3063,
      "notas": 3064,
      "hori": 3065,
      "desas": 3066,
      "estando": 3067,
      "estro": 3068,
      "espanto": 3069,
      "cuidado": 3070,
      "filoso": 3071,
      "déruchette": 3072,
      "siste": 3073,
      "ílias": 3074,
      "sepul": 3075,
      "ton": 3076,
      "meter": 3077,
      "persona": 3078,
      "ternu": 3079,
      "janelas": 3080,
      "ficação": 3081,
      "ingles": 3082,
      "epis": 3083,
      "cova": 3084,
      "mode": 3085,
      "prote": 3086,
      "daqueles": 3087,
      "humano": 3088,
      "azeve": 3089,
      "império": 3090,
      "pru": 3091,
      "sequer": 3092,
      "vitória": 3093,
      "desespero": 3094,
      "eulá": 3095,
      "pouca": 3096,
      "máxi": 3097,
      "acordo": 3098,
      "henriqueta": 3099,
      "eulália": 3100,
      "dres": 3101,
      "devem": 3102,
      "istas": 3103,
      "mago": 3104,
      "lico": 3105,
      "servir": 3106,
      "leitura": 3107,
      "justo": 3108,
      "especial": 3109,
      "recente": 3110,
      "interessante": 3111,
      ".,": 3112,
      "vest": 3113,
      "dados": 3114,
      "inqui": 3115,
      "sado": 3116,
      "rasse": 3117,
      "maneiras": 3118,
      "imagem": 3119,
      "promessa": 3120,
      "bumble": 3121,
      "ade": 3122,
      "filó": 3123,
      "chamou": 3124,
      "aquelas": 3125,
      "constru": 3126,
      "culdade": 3127,
      "levantar": 3128,
      "durande": 3129,
      "cruel": 3130,
      "oficial": 3131,
      "municipal": 3132,
      "cele": 3133,
      "ura": 3134,
      "mata": 3135,
      "vagar": 3136,
      "sacu": 3137,
      "pronto": 3138,
      "preto": 3139,
      "entrava": 3140,
      "cilmente": 3141,
      "esperou": 3142,
      "artigo": 3143,
      "ergueu": 3144,
      "ane": 3145,
      "milh": 3146,
      "permi": 3147,
      "estamos": 3148,
      "estabele": 3149,
      "carmo": 3150,
      "senado": 3151,
      "lulu": 3152,
      "bachar": 3153,
      "ilde": 3154,
      "escolh": 3155,
      "ternura": 3156,
      "cro": 3157,
      "diria": 3158,
      "comen": 3159,
      "hada": 3160,
      "tratava": 3161,
      "desceu": 3162,
      "destru": 3163,
      "çava": 3164,
      "bater": 3165,
      "ponho": 3166,
      "abismo": 3167,
      "celos": 3168,
      "procurou": 3169,
      "repeti": 3170,
      "afas": 3171,
      "suspeita": 3172,
      "virgília": 3173,
      "hu": 3174,
      "cula": 3175,
      "diss": 3176,
      "bido": 3177,
      "valia": 3178,
      "visão": 3179,
      "teira": 3180,
      "acabado": 3181,
      "subir": 3182,
      "perfeitamente": 3183,
      "gro": 3184,
      "comissão": 3185,
      "sofre": 3186,
      "signi": 3187,
      "mulo": 3188,
      "chas": 3189,
      "termo": 3190,
      "morta": 3191,
      "pito": 3192,
      "dormi": 3193,
      "fizera": 3194,
      "benedita": 3195,
      "profunda": 3196,
      "filóso": 3197,
      "flumin": 3198,
      "gr": 3199,
      "pção": 3200,
      "âne": 3201,
      "arras": 3202,
      "loja": 3203,
      "rumor": 3204,
      "parede": 3205,
      "publi": 3206,
      "zado": 3207,
      "magní": 3208,
      "espíritos": 3209,
      "começava": 3210,
      "chácara": 3211,
      "substitu": 3212,
      "acrescentou": 3213,
      "projeto": 3214,
      "província": 3215,
      "15": 3216,
      "frei": 3217,
      "deci": 3218,
      "osos": 3219,
      "enx": 3220,
      "regi": 3221,
      "social": 3222,
      "lheu": 3223,
      "fatos": 3224,
      "sós": 3225,
      "gener": 3226,
      "trazer": 3227,
      "hipó": 3228,
      "desembargador": 3229,
      "hum": 3230,
      "àque": 3231,
      "ridí": 3232,
      "fação": 3233,
      "certos": 3234,
      "pira": 3235,
      "perguntar": 3236,
      "silen": 3237,
      "felizes": 3238,
      "aceitar": 3239,
      "saudade": 3240,
      "terrível": 3241,
      "horizon": 3242,
      "zan": 3243,
      "isse": 3244,
      "novos": 3245,
      "parentes": 3246,
      "rui": 3247,
      "fugi": 3248,
      "dável": 3249,
      "pálida": 3250,
      "trabalhos": 3251,
      "reflexões": 3252,
      "posições": 3253,
      "despeito": 3254,
      "subli": 3255,
      "ciam": 3256,
      "costa": 3257,
      "longos": 3258,
      "pessoal": 3259,
      "calor": 3260,
      "tomás": 3261,
      "possuía": 3262,
      "resolveu": 3263,
      "pedaço": 3264,
      "terceira": 3265,
      "polis": 3266,
      "padr": 3267,
      "cont": 3268,
      "sapa": 3269,
      "ciou": 3270,
      "profer": 3271,
      "faziam": 3272,
      "chefe": 3273,
      "político": 3274,
      "camões": 3275,
      "original": 3276,
      "familiar": 3277,
      "bacharel": 3278,
      "amas": 3279,
      "lusão": 3280,
      "mí": 3281,
      "vala": 3282,
      "vós": 3283,
      "repente": 3284,
      "lição": 3285,
      "pron": 3286,
      "durou": 3287,
      "voltando": 3288,
      "lívia": 3289,
      "bastava": 3290,
      "inclina": 3291,
      "continuar": 3292,
      "narração": 3293,
      "acontecimentos": 3294,
      "divina": 3295,
      "teresa": 3296,
      "fechou": 3297,
      "econ": 3298,
      "eza": 3299,
      "stia": 3300,
      "coelho": 3301,
      "inu": 3302,
      "erva": 3303,
      "tratou": 3304,
      "licença": 3305,
      "respondia": 3306,
      "ouvidos": 3307,
      "serviço": 3308,
      "penetra": 3309,
      "imperador": 3310,
      "festas": 3311,
      "plá": 3312,
      "sagra": 3313,
      "musa": 3314,
      "chei": 3315,
      "piedade": 3316,
      "quiser": 3317,
      "cheguei": 3318,
      "jura": 3319,
      "vascon": 3320,
      "aventura": 3321,
      "cú": 3322,
      "jes": 3323,
      "jei": 3324,
      "arma": 3325,
      "emin": 3326,
      "consegu": 3327,
      "vim": 3328,
      "viii": 3329,
      "lamento": 3330,
      "gomes": 3331,
      "perdi": 3332,
      "tente": 3333,
      "deixando": 3334,
      "soub": 3335,
      "inclin": 3336,
      "conseqü": 3337,
      "comércio": 3338,
      "solidão": 3339,
      "fernanda": 3340,
      "recorda": 3341,
      "orgulho": 3342,
      "anedo": 3343,
      "adia": 3344,
      "acer": 3345,
      "pali": 3346,
      "tações": 3347,
      "roma": 3348,
      "moder": 3349,
      "lim": 3350,
      "distância": 3351,
      "contras": 3352,
      "junto": 3353,
      "recolh": 3354,
      "ados": 3355,
      "íveis": 3356,
      "diá": 3357,
      "portanto": 3358,
      "mila": 3359,
      "extin": 3360,
      "formas": 3361,
      "auro": 3362,
      "passaram": 3363,
      "famílias": 3364,
      "aconteceu": 3365,
      "simpatia": 3366,
      "fera": 3367,
      "lendo": 3368,
      "iado": 3369,
      "natividade": 3370,
      "termin": 3371,
      "abando": 3372,
      "corações": 3373,
      "acan": 3374,
      "glo": 3375,
      "encan": 3376,
      "serem": 3377,
      "inti": 3378,
      "compensa": 3379,
      "cito": 3380,
      "disto": 3381,
      "tária": 3382,
      "apla": 3383,
      "estrelas": 3384,
      "clarinha": 3385,
      "indiferente": 3386,
      "esforços": 3387,
      "literária": 3388,
      "vasconcelos": 3389,
      "atriz": 3390,
      "cent": 3391,
      "idas": 3392,
      "tolo": 3393,
      "cadá": 3394,
      "discu": 3395,
      "março": 3396,
      "cessos": 3397,
      "continua": 3398,
      "pedindo": 3399,
      "opiniões": 3400,
      "tranqüila": 3401,
      "represen": 3402,
      "encontro": 3403,
      "próprias": 3404,
      "inas": 3405,
      "metade": 3406,
      "leon": 3407,
      "juiz": 3408,
      "funda": 3409,
      "genera": 3410,
      "exemp": 3411,
      "encontrar": 3412,
      "cumprimen": 3413,
      "cadáver": 3414,
      "raro": 3415,
      "dobra": 3416,
      "tocar": 3417,
      "poli": 3418,
      "patr": 3419,
      "tuas": 3420,
      "meri": 3421,
      "estendeu": 3422,
      "árvo": 3423,
      "filosofia": 3424,
      "sistema": 3425,
      "azevedo": 3426,
      "hando": 3427,
      "ensin": 3428,
      "sever": 3429,
      "tela": 3430,
      "tele": 3431,
      "isabel": 3432,
      "descul": 3433,
      "pers": 3434,
      "minas": 3435,
      "nasceu": 3436,
      "ambição": 3437,
      "aplica": 3438,
      "confessou": 3439,
      "verdadeiramente": 3440,
      "inspiração": 3441,
      "antônia": 3442,
      "reis": 3443,
      "aldo": 3444,
      "ciú": 3445,
      "vili": 3446,
      "petró": 3447,
      "falei": 3448,
      "crianças": 3449,
      "quisesse": 3450,
      "custa": 3451,
      "convicção": 3452,
      "contente": 3453,
      "beu": 3454,
      "clas": 3455,
      "ges": 3456,
      "osas": 3457,
      "reci": 3458,
      "rival": 3459,
      "vais": 3460,
      "nove": 3461,
      "destina": 3462,
      "dur": 3463,
      "mortal": 3464,
      "estevão": 3465,
      "cré": 3466,
      "vozes": 3467,
      "desejos": 3468,
      "emprego": 3469,
      "espiri": 3470,
      "universal": 3471,
      "petrópolis": 3472,
      "gü": 3473,
      "ocul": 3474,
      "descer": 3475,
      "febre": 3476,
      "cristão": 3477,
      "brasileira": 3478,
      "calado": 3479,
      "adivinha": 3480,
      "edi": 3481,
      "inver": 3482,
      "riu": 3483,
      "tivera": 3484,
      "libera": 3485,
      "lados": 3486,
      "cunha": 3487,
      "podemos": 3488,
      "nega": 3489,
      "passag": 3490,
      "conversar": 3491,
      "sabendo": 3492,
      "melancolia": 3493,
      "cadas": 3494,
      "saint": 3495,
      "ham": 3496,
      "civili": 3497,
      "firo": 3498,
      "disposto": 3499,
      "carreira": 3500,
      "teste": 3501,
      "velhas": 3502,
      "cortes": 3503,
      "cana": 3504,
      "cuidados": 3505,
      "norte": 3506,
      "aprecia": 3507,
      "estremeceu": 3508,
      "linha": 3509,
      "zinho": 3510,
      "éis": 3511,
      "sob": 3512,
      "fique": 3513,
      "postas": 3514,
      "pensando": 3515,
      "baixa": 3516,
      "antônio": 3517,
      "gresso": 3518,
      "aparecer": 3519,
      "gão": 3520,
      "ventos": 3521,
      "decis": 3522,
      "tel": 3523,
      "alfre": 3524,
      "batia": 3525,
      "formosa": 3526,
      "douv": 3527,
      "longas": 3528,
      "passagem": 3529,
      "insistiu": 3530,
      "jó": 3531,
      "relação": 3532,
      "condições": 3533,
      "disfar": 3534,
      "mess": 3535,
      "faltava": 3536,
      "gico": 3537,
      "juro": 3538,
      "ful": 3539,
      "começar": 3540,
      "máquina": 3541,
      "haverá": 3542,
      "apertou": 3543,
      "mudança": 3544,
      "evidente": 3545,
      "fluminense": 3546,
      "lena": 3547,
      "mamente": 3548,
      "andr": 3549,
      "tiveram": 3550,
      "partes": 3551,
      "torn": 3552,
      "pux": 3553,
      "cenas": 3554,
      "sejam": 3555,
      "daquelas": 3556,
      "légio": 3557,
      "prometeu": 3558,
      "apon": 3559,
      "ofen": 3560,
      "dolo": 3561,
      "andra": 3562,
      "dirá": 3563,
      "discursos": 3564,
      "processo": 3565,
      "eleva": 3566,
      "espelho": 3567,
      "manu": 3568,
      "cére": 3569,
      "cemi": 3570,
      "chegava": 3571,
      "nuvens": 3572,
      "recusa": 3573,
      "cristia": 3574,
      "namorados": 3575,
      "encontrou": 3576,
      "madalena": 3577,
      "sensação": 3578,
      "charuto": 3579,
      "alfredo": 3580,
      "ator": 3581,
      "cli": 3582,
      "lus": 3583,
      "ásio": 3584,
      "ardente": 3585,
      "repli": 3586,
      "composição": 3587,
      "som": 3588,
      "fome": 3589,
      "pari": 3590,
      "irri": 3591,
      "mortos": 3592,
      "negar": 3593,
      "neves": 3594,
      "crê": 3595,
      "borba": 3596,
      "ciosamente": 3597,
      "dissesse": 3598,
      "aurora": 3599,
      "avis": 3600,
      "dri": 3601,
      "preço": 3602,
      "onda": 3603,
      "amigas": 3604,
      "corredor": 3605,
      "felizmente": 3606,
      "osamente": 3607,
      "receio": 3608,
      "amante": 3609,
      "pás": 3610,
      "fiel": 3611,
      "eugên": 3612,
      "martin": 3613,
      "vessem": 3614,
      "deputados": 3615,
      "subiu": 3616,
      "sacrifício": 3617,
      "revolução": 3618,
      "úrsula": 3619,
      "eugênia": 3620,
      "aparece": 3621,
      "decre": 3622,
      "enfa": 3623,
      "dança": 3624,
      "tea": 3625,
      "romu": 3626,
      "modos": 3627,
      "novidade": 3628,
      "cidas": 3629,
      "guia": 3630,
      "tratar": 3631,
      "corr": 3632,
      "primi": 3633,
      "casaca": 3634,
      "parecem": 3635,
      "roupa": 3636,
      "abal": 3637,
      "direção": 3638,
      "impressões": 3639,
      "apaixo": 3640,
      "tores": 3641,
      "presa": 3642,
      "imper": 3643,
      "deixei": 3644,
      "morava": 3645,
      "políticos": 3646,
      "estudos": 3647,
      "finado": 3648,
      "desempen": 3649,
      "brilhante": 3650,
      "ações": 3651,
      "vé": 3652,
      "data": 3653,
      "tic": 3654,
      "timos": 3655,
      "mental": 3656,
      "ficando": 3657,
      "sivo": 3658,
      "leto": 3659,
      "confessa": 3660,
      "campos": 3661,
      "quincas": 3662,
      "satisfação": 3663,
      "declaração": 3664,
      "ordens": 3665,
      "súbi": 3666,
      "romualdo": 3667,
      "10": 3668,
      "ameri": 3669,
      "gestos": 3670,
      "más": 3671,
      "pele": 3672,
      "pinheiro": 3673,
      "arris": 3674,
      "inv": 3675,
      "repara": 3676,
      "moe": 3677,
      "serão": 3678,
      "luto": 3679,
      "esteja": 3680,
      "monia": 3681,
      "paixões": 3682,
      "escravo": 3683,
      "dramática": 3684,
      "',": 3685,
      "igua": 3686,
      "pobres": 3687,
      "tração": 3688,
      "expres": 3689,
      "jogo": 3690,
      "més": 3691,
      "demia": 3692,
      "aum": 3693,
      "lês": 3694,
      "are": 3695,
      "rever": 3696,
      "trado": 3697,
      "preci": 3698,
      "randa": 3699,
      "tese": 3700,
      "intelig": 3701,
      "verdadei": 3702,
      "praça": 3703,
      "deviam": 3704,
      "humanidade": 3705,
      "tornava": 3706,
      "observou": 3707,
      "94": 3708,
      "atirou": 3709,
      "bun": 3710,
      "gala": 3711,
      "domés": 3712,
      "encos": 3713,
      "alte": 3714,
      "roça": 3715,
      "diziam": 3716,
      "voltava": 3717,
      "entrando": 3718,
      "escreve": 3719,
      "compreende": 3720,
      "herói": 3721,
      "melancó": 3722,
      "necessária": 3723,
      "aplausos": 3724,
      "gel": 3725,
      "ner": 3726,
      "ntes": 3727,
      "deser": 3728,
      "rapari": 3729,
      "math": 3730,
      "catar": 3731,
      "conju": 3732,
      "entas": 3733,
      "rosinha": 3734,
      "pios": 3735,
      "comprar": 3736,
      "apresenta": 3737,
      "bond": 3738,
      "cocheiro": 3739,
      "opera": 3740,
      "seri": 3741,
      "dal": 3742,
      "inveja": 3743,
      "moda": 3744,
      "papai": 3745,
      "jamais": 3746,
      "fino": 3747,
      "leitora": 3748,
      "estrada": 3749,
      "cláu": 3750,
      "cérebro": 3751,
      "anc": 3752,
      "compre": 3753,
      "viram": 3754,
      "estação": 3755,
      "venân": 3756,
      "respondi": 3757,
      "haviam": 3758,
      "espec": 3759,
      "completamente": 3760,
      "através": 3761,
      "curioso": 3762,
      "dirigiu": 3763,
      "popular": 3764,
      "durval": 3765,
      "venâncio": 3766,
      "fras": 3767,
      "querem": 3768,
      "sex": 3769,
      "aná": 3770,
      "fatal": 3771,
      "terror": 3772,
      "existe": 3773,
      "certamente": 3774,
      "corda": 3775,
      "passando": 3776,
      "chegando": 3777,
      "sosse": 3778,
      "políticas": 3779,
      "partida": 3780,
      "compreender": 3781,
      "benefício": 3782,
      "caixa": 3783,
      "influência": 3784,
      "algibeira": 3785,
      "alvarez": 3786,
      "horizonte": 3787,
      "madr": 3788,
      "merece": 3789,
      "bates": 3790,
      "onze": 3791,
      "java": 3792,
      "esqueceu": 3793,
      "geração": 3794,
      "descobrir": 3795,
      "dom": 3796,
      "dante": 3797,
      "ouve": 3798,
      "porto": 3799,
      "lam": 3800,
      "perí": 3801,
      "usar": 3802,
      "irá": 3803,
      "venho": 3804,
      "orador": 3805,
      "paula": 3806,
      "tristes": 3807,
      "legí": 3808,
      "afa": 3809,
      "beli": 3810,
      "vên": 3811,
      "colh": 3812,
      "ingra": 3813,
      "rea": 3814,
      "emen": 3815,
      "tulos": 3816,
      "loca": 3817,
      "perpé": 3818,
      "trina": 3819,
      "francamente": 3820,
      "chegaram": 3821,
      "animal": 3822,
      "explicou": 3823,
      "cândido": 3824,
      "lamentar": 3825,
      "vantagem": 3826,
      "imediatamente": 3827,
      "cemitério": 3828,
      "ital": 3829,
      "odo": 3830,
      "vina": 3831,
      "armas": 3832,
      "regular": 3833,
      "alberto": 3834,
      "fita": 3835,
      "chior": 3836,
      "rante": 3837,
      "postos": 3838,
      "sasse": 3839,
      "séria": 3840,
      "ginásio": 3841,
      "tempestade": 3842,
      "acompanhou": 3843,
      "acordou": 3844,
      "francisco": 3845,
      "madrinha": 3846,
      "av": 3847,
      "atual": 3848,
      "blé": 3849,
      "trio": 3850,
      "espre": 3851,
      "revista": 3852,
      "timas": 3853,
      "citar": 3854,
      "pará": 3855,
      "mico": 3856,
      "carne": 3857,
      "vencer": 3858,
      "talentos": 3859,
      "pur": 3860,
      "ângela": 3861,
      "rison": 3862,
      "lance": 3863,
      "belos": 3864,
      "procurar": 3865,
      "saíram": 3866,
      "próximo": 3867,
      "sincero": 3868,
      "assemblé": 3869,
      "rochedo": 3870,
      "intimidade": 3871,
      "mathilde": 3872,
      "dências": 3873,
      "linda": 3874,
      "árias": 3875,
      "domina": 3876,
      "queda": 3877,
      "anún": 3878,
      "desper": 3879,
      "termos": 3880,
      "termina": 3881,
      "graves": 3882,
      "tindo": 3883,
      "aban": 3884,
      "confissão": 3885,
      "francês": 3886,
      "estrela": 3887,
      "eternidade": 3888,
      "fisio": 3889,
      "filósofo": 3890,
      "diálogo": 3891,
      "crava": 3892,
      "teto": 3893,
      "regra": 3894,
      "reduz": 3895,
      "despediu": 3896,
      "mio": 3897,
      "peças": 3898,
      "semin": 3899,
      "cantar": 3900,
      "crise": 3901,
      "ficara": 3902,
      "partir": 3903,
      "mistura": 3904,
      "religião": 3905,
      "ópera": 3906,
      "engen": 3907,
      "cerim": 3908,
      "dizê": 3909,
      "entraram": 3910,
      "continuava": 3911,
      "franqueza": 3912,
      "origem": 3913,
      "demons": 3914,
      "eleição": 3915,
      "apa": 3916,
      "agar": 3917,
      "ete": 3918,
      "flu": 3919,
      "zes": 3920,
      "çam": 3921,
      "parente": 3922,
      "tempera": 3923,
      "adqui": 3924,
      "lembrava": 3925,
      "assina": 3926,
      "virtudes": 3927,
      "conveniente": 3928,
      "moleque": 3929,
      "fenômeno": 3930,
      "italia": 3931,
      "ore": 3932,
      "deia": 3933,
      "dares": 3934,
      "contas": 3935,
      "viria": 3936,
      "viam": 3937,
      "casado": 3938,
      "olho": 3939,
      "cantos": 3940,
      "valença": 3941,
      "doutrina": 3942,
      "ficam": 3943,
      "montan": 3944,
      "ilusões": 3945,
      "tranqüilo": 3946,
      "legis": 3947,
      "portugu": 3948,
      "literatura": 3949,
      "xe": 3950,
      "óis": 3951,
      "rapi": 3952,
      "qualidade": 3953,
      "queira": 3954,
      "compe": 3955,
      "nau": 3956,
      "lav": 3957,
      "vermel": 3958,
      "hás": 3959,
      "grava": 3960,
      "céle": 3961,
      "prata": 3962,
      "busca": 3963,
      "abril": 3964,
      "eloqü": 3965,
      "possui": 3966,
      "multidão": 3967,
      "bento": 3968,
      "jando": 3969,
      "suma": 3970,
      "tên": 3971,
      "eng": 3972,
      "macedo": 3973,
      "reparou": 3974,
      "vig": 3975,
      "casal": 3976,
      "profes": 3977,
      "senhores": 3978,
      "deitou": 3979,
      "incidente": 3980,
      "aceita": 3981,
      "pulso": 3982,
      "confessar": 3983,
      "ck": 3984,
      "equi": 3985,
      "lmente": 3986,
      "mpa": 3987,
      "reforma": 3988,
      "retirou": 3989,
      "alencar": 3990,
      "caía": 3991,
      "sibilidade": 3992,
      "mica": 3993,
      "facilmente": 3994,
      "espal": 3995,
      "dissera": 3996,
      "lírico": 3997,
      "salvar": 3998,
      "educação": 3999,
      "ape": 4000,
      "nestas": 4001,
      "tás": 4002,
      "quim": 4003,
      "vaz": 4004,
      "desconhecido": 4005,
      "sup": 4006,
      "dasse": 4007,
      "gido": 4008,
      "pesco": 4009,
      "volun": 4010,
      "189": 4011,
      "escritor": 4012,
      "recusou": 4013,
      "companheiro": 4014,
      "estrang": 4015,
      "fernando": 4016,
      "autoridade": 4017,
      "manifesta": 4018,
      "caracteres": 4019,
      "defunto": 4020,
      "valadares": 4021,
      "bris": 4022,
      "dém": 4023,
      "indis": 4024,
      "podes": 4025,
      "novem": 4026,
      "desdém": 4027,
      "exten": 4028,
      "pretexto": 4029,
      "riores": 4030,
      "passei": 4031,
      "trá": 4032,
      "volume": 4033,
      "palpi": 4034,
      "ganhar": 4035,
      "firme": 4036,
      "estranho": 4037,
      "obstante": 4038,
      "gélica": 4039,
      "sublime": 4040,
      "adas": 4041,
      "cela": 4042,
      "cles": 4043,
      "hós": 4044,
      "ál": 4045,
      "raio": 4046,
      "robus": 4047,
      "capa": 4048,
      "nomia": 4049,
      "gues": 4050,
      "lada": 4051,
      "voto": 4052,
      "entrei": 4053,
      "alien": 4054,
      "melchior": 4055,
      "academia": 4056,
      "cál": 4057,
      "lágrima": 4058,
      "brasileiro": 4059,
      "inglês": 4060,
      "pança": 4061,
      "síveis": 4062,
      "respeitos": 4063,
      "conclusão": 4064,
      "chorar": 4065,
      "barbeiro": 4066,
      "pássar": 4067,
      "vinho": 4068,
      "êvão": 4069,
      "esquina": 4070,
      "doido": 4071,
      "quete": 4072,
      "repou": 4073,
      "rodri": 4074,
      "modé": 4075,
      "motivos": 4076,
      "tipo": 4077,
      "ditos": 4078,
      "estêvão": 4079,
      "nascer": 4080,
      "perguntava": 4081,
      "pedras": 4082,
      "cór": 4083,
      "engano": 4084,
      "absolutamente": 4085,
      "adian": 4086,
      "andrade": 4087,
      "manuel": 4088,
      "novembro": 4089,
      "tú": 4090,
      "ída": 4091,
      "reproduz": 4092,
      "somos": 4093,
      "vivos": 4094,
      "laterra": 4095,
      "pertur": 4096,
      "distribu": 4097,
      "profe": 4098,
      "gravidade": 4099,
      "cável": 4100,
      "entendeu": 4101,
      "cavalh": 4102,
      "inglaterra": 4103,
      "profundamente": 4104,
      "poema": 4105,
      "julião": 4106,
      "conforme": 4107,
      "modéstia": 4108,
      "plica": 4109,
      "enor": 4110,
      "rocha": 4111,
      "porção": 4112,
      "persegu": 4113,
      "discus": 4114,
      "proposta": 4115,
      "casada": 4116,
      "neto": 4117,
      "obsé": 4118,
      "melo": 4119,
      "crito": 4120,
      "sino": 4121,
      "criaturas": 4122,
      "solen": 4123,
      "interval": 4124,
      "varia": 4125,
      "minuto": 4126,
      "sábado": 4127,
      "aguilar": 4128,
      "afeto": 4129,
      "1994": 4130,
      "desejava": 4131,
      "teatros": 4132,
      "dinha": 4133,
      "ício": 4134,
      "coi": 4135,
      "arru": 4136,
      "rida": 4137,
      "doso": 4138,
      "grafia": 4139,
      "seriam": 4140,
      "trabalhar": 4141,
      "estaria": 4142,
      "ideal": 4143,
      "separação": 4144,
      "aborrecido": 4145,
      "próxima": 4146,
      "dificuldade": 4147,
      "pescoço": 4148,
      "radas": 4149,
      "essen": 4150,
      "pausa": 4151,
      "contando": 4152,
      "fio": 4153,
      "gadas": 4154,
      "luc": 4155,
      "pensei": 4156,
      "fechar": 4157,
      "ouvira": 4158,
      "lemente": 4159,
      "começo": 4160,
      "levantando": 4161,
      "convite": 4162,
      "silvestre": 4163,
      "padrinho": 4164,
      "catarina": 4165,
      "ofe": 4166,
      "essem": 4167,
      "infor": 4168,
      "modes": 4169,
      "liar": 4170,
      "dará": 4171,
      "tadores": 4172,
      "gaspar": 4173,
      "adoe": 4174,
      "lançou": 4175,
      "fícios": 4176,
      "curta": 4177,
      "hesitou": 4178,
      "francisca": 4179,
      "desastre": 4180,
      "assomb": 4181,
      "arro": 4182,
      "monte": 4183,
      "compor": 4184,
      "resig": 4185,
      "terno": 4186,
      "bias": 4187,
      "beatriz": 4188,
      "lhado": 4189,
      "responde": 4190,
      "esperado": 4191,
      "correram": 4192,
      "crônica": 4193,
      "levado": 4194,
      "grupo": 4195,
      "alvoro": 4196,
      "tibério": 4197,
      "brio": 4198,
      "fuma": 4199,
      "lhar": 4200,
      "conti": 4201,
      "conquanto": 4202,
      "despes": 4203,
      "fol": 4204,
      "programa": 4205,
      "duvida": 4206,
      "feitas": 4207,
      "insinu": 4208,
      "rável": 4209,
      "antigos": 4210,
      "chegada": 4211,
      "divino": 4212,
      "acompanhar": 4213,
      "fernan": 4214,
      "descobriu": 4215,
      "quantos": 4216,
      "consideração": 4217,
      "dissimu": 4218,
      "jesus": 4219,
      "evan": 4220,
      "gindo": 4221,
      "empali": 4222,
      "parlamentar": 4223,
      "preta": 4224,
      "serve": 4225,
      "bateu": 4226,
      "corria": 4227,
      "chave": 4228,
      "podendo": 4229,
      "correio": 4230,
      "pensamentos": 4231,
      "idades": 4232,
      "escrita": 4233,
      "escrivão": 4234,
      "ocasiões": 4235,
      "diferente": 4236,
      "escravos": 4237,
      "precipi": 4238,
      "assembléia": 4239,
      "engenh": 4240,
      "bina": 4241,
      "eco": 4242,
      "irei": 4243,
      "vém": 4244,
      "defeito": 4245,
      "rados": 4246,
      "colégio": 4247,
      "teis": 4248,
      "indepen": 4249,
      "revel": 4250,
      "recomenda": 4251,
      "didas": 4252,
      "traduz": 4253,
      "propri": 4254,
      "inteiro": 4255,
      "obter": 4256,
      "amada": 4257,
      "caminhou": 4258,
      "afron": 4259,
      "crist": 4260,
      "prazo": 4261,
      "sivamente": 4262,
      "inimigo": 4263,
      "tumul": 4264,
      "elementos": 4265,
      "ilu": 4266,
      "ssi": 4267,
      "tões": 4268,
      "tentar": 4269,
      "ím": 4270,
      "esqui": 4271,
      "vapor": 4272,
      "reserva": 4273,
      "certas": 4274,
      "térios": 4275,
      "reiros": 4276,
      "ísse": 4277,
      "deitar": 4278,
      "pálido": 4279,
      "tisse": 4280,
      "tistas": 4281,
      "várias": 4282,
      "interesses": 4283,
      "cavalcante": 4284,
      "digna": 4285,
      "estranha": 4286,
      "dramático": 4287,
      "manif": 4288,
      "madru": 4289,
      "martins": 4290,
      "setem": 4291,
      "ial": 4292,
      "paciente": 4293,
      "estados": 4294,
      "produ": 4295,
      "juca": 4296,
      "adminis": 4297,
      "querendo": 4298,
      "morais": 4299,
      "duzentos": 4300,
      "acontecer": 4301,
      "infância": 4302,
      "maiores": 4303,
      "experiência": 4304,
      "procedimento": 4305,
      "empalide": 4306,
      "setembro": 4307,
      "abo": 4308,
      "frá": 4309,
      "nio": 4310,
      "quinh": 4311,
      "seram": 4312,
      "terior": 4313,
      "talidade": 4314,
      "recurso": 4315,
      "anjos": 4316,
      "conquis": 4317,
      "sobra": 4318,
      "pega": 4319,
      "duro": 4320,
      "moso": 4321,
      "paredes": 4322,
      "expan": 4323,
      "trabalha": 4324,
      "dantes": 4325,
      "joelhos": 4326,
      "remorso": 4327,
      "enxu": 4328,
      "belião": 4329,
      "ego": 4330,
      "hera": 4331,
      "seabra": 4332,
      "logia": 4333,
      "senta": 4334,
      "--,": 4335,
      "deixo": 4336,
      "repetir": 4337,
      "xavier": 4338,
      "cansado": 4339,
      "folhetim": 4340,
      "castelo": 4341,
      "rapariga": 4342,
      "frases": 4343,
      ".°": 4344,
      "ati": 4345,
      "bros": 4346,
      "evo": 4347,
      "fú": 4348,
      "iram": 4349,
      "ww": 4350,
      "def": 4351,
      "altar": 4352,
      "conduz": 4353,
      "desvi": 4354,
      "supunha": 4355,
      "mudar": 4356,
      "cargo": 4357,
      "piter": 4358,
      "prestes": 4359,
      "pulo": 4360,
      "cosme": 4361,
      "visível": 4362,
      "virgem": 4363,
      "palmas": 4364,
      "frança": 4365,
      "bordo": 4366,
      "lisboa": 4367,
      "lentamente": 4368,
      "sorrir": 4369,
      "distinto": 4370,
      "barbosa": 4371,
      "gazeta": 4372,
      "sapatos": 4373,
      "inteligência": 4374,
      "vênus": 4375,
      "córdia": 4376,
      "ajus": 4377,
      "iar": 4378,
      "nia": 4379,
      "osco": 4380,
      "docum": 4381,
      "conosco": 4382,
      "veri": 4383,
      "pecado": 4384,
      "marcel": 4385,
      "valério": 4386,
      "chamado": 4387,
      "deixara": 4388,
      "empregado": 4389,
      "vulto": 4390,
      "espada": 4391,
      "camila": 4392,
      "hábitos": 4393,
      "episódio": 4394,
      "civilização": 4395,
      "mônica": 4396,
      "épo": 4397,
      "cores": 4398,
      "sel": 4399,
      "redo": 4400,
      "alcova": 4401,
      "rola": 4402,
      "desconfi": 4403,
      "tardou": 4404,
      "bigo": 4405,
      "valem": 4406,
      "complica": 4407,
      "aceito": 4408,
      "calças": 4409,
      "mágo": 4410,
      "mostrava": 4411,
      "princípios": 4412,
      "descoberta": 4413,
      "dignidade": 4414,
      "escuro": 4415,
      "bispo": 4416,
      "contraste": 4417,
      "atitu": 4418,
      "eto": 4419,
      "rí": 4420,
      "defronte": 4421,
      "assin": 4422,
      "encer": 4423,
      "cobri": 4424,
      "total": 4425,
      "altura": 4426,
      "ang": 4427,
      "descre": 4428,
      "musas": 4429,
      "virá": 4430,
      "sessão": 4431,
      "harmonia": 4432,
      "júpiter": 4433,
      "adorme": 4434,
      "almoçar": 4435,
      "pertence": 4436,
      "tamanho": 4437,
      "causas": 4438,
      "sepultura": 4439,
      "celebra": 4440,
      "douvres": 4441,
      "replicou": 4442,
      "marcelina": 4443,
      "anôni": 4444,
      "outu": 4445,
      "fix": 4446,
      "supre": 4447,
      "estô": 4448,
      "trona": 4449,
      "barba": 4450,
      "bura": 4451,
      "calou": 4452,
      "curto": 4453,
      "andam": 4454,
      "diogo": 4455,
      "falavam": 4456,
      "narra": 4457,
      "ministros": 4458,
      "passear": 4459,
      "consolação": 4460,
      "apresentou": 4461,
      "discussão": 4462,
      "outubro": 4463,
      "16": 4464,
      "20": 4465,
      "bando": 4466,
      "ulti": 4467,
      "dedo": 4468,
      "severa": 4469,
      "maj": 4470,
      "solução": 4471,
      "paraí": 4472,
      "cuido": 4473,
      "miú": 4474,
      "marte": 4475,
      "ruí": 4476,
      "fazen": 4477,
      "pris": 4478,
      "precisava": 4479,
      "francesa": 4480,
      "vários": 4481,
      "conselhos": 4482,
      "recusar": 4483,
      "obrigação": 4484,
      "blema": 4485,
      "coroa": 4486,
      "infinito": 4487,
      "fantasia": 4488,
      "frou": 4489,
      "itá": 4490,
      "ná": 4491,
      "raras": 4492,
      "assa": 4493,
      "quio": 4494,
      "ardor": 4495,
      "mano": 4496,
      "caras": 4497,
      "cadeiras": 4498,
      "confun": 4499,
      "sofá": 4500,
      "cidades": 4501,
      "levo": 4502,
      "suponha": 4503,
      "parlamento": 4504,
      "ceder": 4505,
      "senador": 4506,
      "nico": 4507,
      "absur": 4508,
      "seguir": 4509,
      "criação": 4510,
      "incum": 4511,
      "escrevi": 4512,
      "partidos": 4513,
      "achado": 4514,
      "mergu": 4515,
      "escolher": 4516,
      "humanas": 4517,
      "repetia": 4518,
      "acontece": 4519,
      "acontecimento": 4520,
      "obriga": 4521,
      "alegres": 4522,
      "acompanha": 4523,
      "segundos": 4524,
      "aberto": 4525,
      "vilela": 4526,
      "trêmula": 4527,
      "ridículo": 4528,
      "andré": 4529,
      "agosto": 4530,
      "oce": 4531,
      "rs": 4532,
      "tres": 4533,
      "quí": 4534,
      "aro": 4535,
      "tiver": 4536,
      "convém": 4537,
      "lima": 4538,
      "liter": 4539,
      "sui": 4540,
      "cedeu": 4541,
      "...": 4542,
      "irmãos": 4543,
      "graciosa": 4544,
      "tinas": 4545,
      "chegado": 4546,
      "instin": 4547,
      "fará": 4548,
      "figuras": 4549,
      "lison": 4550,
      "invenção": 4551,
      "conservar": 4552,
      "leonor": 4553,
      "empresa": 4554,
      "batalha": 4555,
      "personagens": 4556,
      "econo": 4557,
      "rapidamente": 4558,
      "alienista": 4559,
      "contigo": 4560,
      "aparecia": 4561,
      "epi": 4562,
      "gante": 4563,
      "vês": 4564,
      "zou": 4565,
      "demas": 4566,
      "raça": 4567,
      "mat": 4568,
      "povos": 4569,
      "emo": 4570,
      "desconfia": 4571,
      "entina": 4572,
      "favo": 4573,
      "estré": 4574,
      "sentado": 4575,
      "duo": 4576,
      "duras": 4577,
      "tinhos": 4578,
      "conhecimento": 4579,
      "aux": 4580,
      "passam": 4581,
      "salto": 4582,
      "rápido": 4583,
      "necessi": 4584,
      "cópio": 4585,
      "transforma": 4586,
      "hice": 4587,
      "completo": 4588,
      "concluir": 4589,
      "desengan": 4590,
      "aparente": 4591,
      "sujei": 4592,
      "hipótese": 4593,
      "compreendo": 4594,
      "egoís": 4595,
      "literário": 4596,
      "avam": 4597,
      "sum": 4598,
      "trei": 4599,
      "art": 4600,
      "artistas": 4601,
      "rep": 4602,
      "conje": 4603,
      "notar": 4604,
      "lito": 4605,
      "fidal": 4606,
      "entí": 4607,
      "luiza": 4608,
      "vence": 4609,
      "fortes": 4610,
      "feio": 4611,
      "absor": 4612,
      "ciosas": 4613,
      "deuses": 4614,
      "cádia": 4615,
      "genro": 4616,
      "apli": 4617,
      "aprox": 4618,
      "refletiu": 4619,
      "agradável": 4620,
      "afirmar": 4621,
      "perigos": 4622,
      "objetos": 4623,
      "colega": 4624,
      "!'": 4625,
      "defeitos": 4626,
      "assas": 4627,
      "enca": 4628,
      "cador": 4629,
      "timento": 4630,
      "combina": 4631,
      "lama": 4632,
      "leta": 4633,
      "expi": 4634,
      "bair": 4635,
      "pontos": 4636,
      "lares": 4637,
      "inteli": 4638,
      "trez": 4639,
      "chegara": 4640,
      "unidos": 4641,
      "guardar": 4642,
      "públicas": 4643,
      "custo": 4644,
      "arrancar": 4645,
      "importante": 4646,
      "constituição": 4647,
      "amélia": 4648,
      "prática": 4649,
      "17": 4650,
      "aven": 4651,
      "pê": 4652,
      "rível": 4653,
      "ús": 4654,
      "doze": 4655,
      "envol": 4656,
      "cogi": 4657,
      "incomo": 4658,
      "reta": 4659,
      "cató": 4660,
      "labo": 4661,
      "ficasse": 4662,
      "sucessos": 4663,
      "luxo": 4664,
      "velhice": 4665,
      "entregue": 4666,
      "escolho": 4667,
      "recuou": 4668,
      "alcançar": 4669,
      "plena": 4670,
      "cuidar": 4671,
      "repug": 4672,
      "indignação": 4673,
      "reunião": 4674,
      "delírio": 4675,
      "centro": 4676,
      "engenho": 4677,
      "essencial": 4678,
      "ave": 4679,
      "efa": 4680,
      "rainha": 4681,
      "angélica": 4682,
      "embro": 4683,
      "vagas": 4684,
      "tragé": 4685,
      "despedir": 4686,
      "prof": 4687,
      "pensá": 4688,
      "grau": 4689,
      "pulos": 4690,
      "entregou": 4691,
      "instru": 4692,
      "malvina": 4693,
      "passara": 4694,
      "levanta": 4695,
      "entende": 4696,
      "fregu": 4697,
      "governa": 4698,
      "consola": 4699,
      "000": 4700,
      "censura": 4701,
      "soubesse": 4702,
      "iguais": 4703,
      "ire": 4704,
      "nde": 4705,
      "ener": 4706,
      "cações": 4707,
      "lhão": 4708,
      "lhou": 4709,
      "soma": 4710,
      "sam": 4711,
      "vila": 4712,
      "vivas": 4713,
      "casou": 4714,
      "perfeição": 4715,
      "esté": 4716,
      "propria": 4717,
      "procópio": 4718,
      "união": 4719,
      "prê": 4720,
      "grav": 4721,
      "aben": 4722,
      "lembro": 4723,
      "magro": 4724,
      "mérito": 4725,
      "dezembro": 4726,
      "celest": 4727,
      "antigas": 4728,
      "dúzia": 4729,
      "reconheceu": 4730,
      "espantado": 4731,
      "vizinh": 4732,
      "sinais": 4733,
      "comparação": 4734,
      "cunda": 4735,
      "seminário": 4736,
      "madrugada": 4737,
      "aproximou": 4738,
      "dó": 4739,
      "it": 4740,
      "pano": 4741,
      "repel": 4742,
      "reconci": 4743,
      "emi": 4744,
      "pado": 4745,
      "tijuca": 4746,
      "conseguiu": 4747,
      "sobera": 4748,
      "verá": 4749,
      "aonde": 4750,
      "perna": 4751,
      "simão": 4752,
      "preso": 4753,
      "falemos": 4754,
      "tível": 4755,
      "escobar": 4756,
      "galo": 4757,
      "bengala": 4758,
      "junho": 4759,
      "assun": 4760,
      "cumprir": 4761,
      "contemplar": 4762,
      "inspira": 4763,
      "medicina": 4764,
      "geralmente": 4765,
      "pretendente": 4766,
      "vizinho": 4767,
      "autores": 4768,
      "sabemos": 4769,
      "herança": 4770,
      "clemente": 4771,
      "declara": 4772,
      "seca": 4773,
      "maras": 4774,
      "sabo": 4775,
      "perfeita": 4776,
      "viana": 4777,
      "bida": 4778,
      "segura": 4779,
      "barca": 4780,
      "esperando": 4781,
      "passada": 4782,
      "vasto": 4783,
      "ciosos": 4784,
      "lança": 4785,
      "már": 4786,
      "indiví": 4787,
      "prati": 4788,
      "lugares": 4789,
      "cumpria": 4790,
      "considera": 4791,
      "bonitas": 4792,
      "animais": 4793,
      "júlia": 4794,
      "imaginar": 4795,
      "quantas": 4796,
      "enfermo": 4797,
      "misteriosa": 4798,
      "misterioso": 4799,
      "célebre": 4800,
      "época": 4801,
      "propriamente": 4802,
      "ajoel": 4803,
      "lando": 4804,
      "mbo": 4805,
      "áveis": 4806,
      "ódios": 4807,
      "esmo": 4808,
      "tador": 4809,
      "rega": 4810,
      "filhas": 4811,
      "verão": 4812,
      "verdes": 4813,
      "disposição": 4814,
      "prés": 4815,
      "prín": 4816,
      "vales": 4817,
      "conheci": 4818,
      "miséria": 4819,
      "cristo": 4820,
      "campan": 4821,
      "unicamente": 4822,
      "desapare": 4823,
      "recei": 4824,
      "saída": 4825,
      "platé": 4826,
      "................................................................": 4827,
      "imenso": 4828,
      "oceano": 4829,
      "abenço": 4830,
      "vizinhança": 4831,
      "prínci": 4832,
      "vando": 4833,
      "engo": 4834,
      "dalo": 4835,
      "mateus": 4836,
      "rel": 4837,
      "retor": 4838,
      "rejei": 4839,
      "meta": 4840,
      "medida": 4841,
      "hol": 4842,
      "vios": 4843,
      "votos": 4844,
      "eusé": 4845,
      "prot": 4846,
      "dormia": 4847,
      "peso": 4848,
      "voltei": 4849,
      "trecho": 4850,
      "ínio": 4851,
      "íntima": 4852,
      "loucura": 4853,
      "cidadão": 4854,
      "diferentes": 4855,
      "testamento": 4856,
      "referiu": 4857,
      "concei": 4858,
      "tamanha": 4859,
      "instituição": 4860,
      "capricho": 4861,
      "véu": 4862,
      "enorme": 4863,
      "estômago": 4864,
      "assaz": 4865,
      "11": 4866,
      "aco": 4867,
      "ey": 4868,
      "nestes": 4869,
      "wal": 4870,
      "cate": 4871,
      "saindo": 4872,
      "tras": 4873,
      "desgosto": 4874,
      "vede": 4875,
      "fada": 4876,
      "tará": 4877,
      "judi": 4878,
      "levando": 4879,
      "ficado": 4880,
      "lemos": 4881,
      "constante": 4882,
      "suspen": 4883,
      "superio": 4884,
      "esposo": 4885,
      "leocádia": 4886,
      "execução": 4887,
      "representação": 4888,
      "inglesa": 4889,
      "milagre": 4890,
      "fisionomia": 4891,
      "centar": 4892,
      "hia": 4893,
      "pir": 4894,
      "esquis": 4895,
      "escrava": 4896,
      "ismos": 4897,
      "alex": 4898,
      "ouço": 4899,
      "fide": 4900,
      "ficas": 4901,
      "vocês": 4902,
      "parei": 4903,
      "protes": 4904,
      "trocar": 4905,
      "valéria": 4906,
      "instr": 4907,
      "passados": 4908,
      "ambi": 4909,
      "dezesse": 4910,
      "lógica": 4911,
      "admirar": 4912,
      "quinta": 4913,
      "beijou": 4914,
      "acrescentar": 4915,
      "produziu": 4916,
      "suspiro": 4917,
      "artigos": 4918,
      "sinceridade": 4919,
      "pequenos": 4920,
      "inicia": 4921,
      "ameaça": 4922,
      "máximo": 4923,
      "período": 4924,
      "centos": 4925,
      "efeitos": 4926,
      "índo": 4927,
      "espon": 4928,
      "aspi": 4929,
      "sacer": 4930,
      "lidas": 4931,
      "verti": 4932,
      "mias": 4933,
      "miseri": 4934,
      "perdida": 4935,
      "faci": 4936,
      "provi": 4937,
      "exposição": 4938,
      "caridade": 4939,
      "abrindo": 4940,
      "conhecida": 4941,
      "londres": 4942,
      "lembre": 4943,
      "lançar": 4944,
      "brando": 4945,
      "ficaria": 4946,
      "beijos": 4947,
      "visitar": 4948,
      "reconhecer": 4949,
      "vítima": 4950,
      "augusto": 4951,
      "regres": 4952,
      "resistir": 4953,
      "nervos": 4954,
      "fernandes": 4955,
      "iás": 4956,
      "lbu": 4957,
      "mó": 4958,
      "umo": 4959,
      "seix": 4960,
      "tobias": 4961,
      "recla": 4962,
      "rie": 4963,
      "contei": 4964,
      "nava": 4965,
      "nave": 4966,
      "sobe": 4967,
      "desmen": 4968,
      "dosa": 4969,
      "perdia": 4970,
      "botas": 4971,
      "andou": 4972,
      "lutar": 4973,
      "luiz": 4974,
      "velas": 4975,
      "valsa": 4976,
      "abs": 4977,
      "bernar": 4978,
      "vistas": 4979,
      "tílbu": 4980,
      "táveis": 4981,
      "guai": 4982,
      "naturais": 4983,
      "clare": 4984,
      "nuvem": 4985,
      "transpor": 4986,
      "sombras": 4987,
      "numer": 4988,
      "riqueza": 4989,
      "suspirou": 4990,
      "ofereceu": 4991,
      "enterro": 4992,
      "ímpe": 4993,
      "apressa": 4994,
      "acostuma": 4995,
      "cências": 4996,
      "ecles": 4997,
      "lên": 4998,
      "ório": 4999,
      "esbo": 5000,
      "intes": 5001,
      "cientí": 5002,
      "fon": 5003,
      "goz": 5004,
      "ciante": 5005,
      "perdera": 5006,
      "possíveis": 5007,
      "esplên": 5008,
      "feve": 5009,
      "horror": 5010,
      "seguro": 5011,
      "achá": 5012,
      "soltou": 5013,
      "pintura": 5014,
      "borges": 5015,
      "galer": 5016,
      "român": 5017,
      "rompeu": 5018,
      "exatamente": 5019,
      "anima": 5020,
      "fechada": 5021,
      "lembranças": 5022,
      "pedaços": 5023,
      "bilhetes": 5024,
      "agitação": 5025,
      "cuidou": 5026,
      "silveira": 5027,
      "imensa": 5028,
      "botafogo": 5029,
      "testemun": 5030,
      "moeda": 5031,
      ".)": 5032,
      "oposição": 5033,
      "maus": 5034,
      "hotel": 5035,
      "loteria": 5036,
      "desculpa": 5037,
      "fomos": 5038,
      "vex": 5039,
      "poderá": 5040,
      "fero": 5041,
      "lím": 5042,
      "tários": 5043,
      "sorria": 5044,
      "simpli": 5045,
      "escritos": 5046,
      "aprova": 5047,
      "estudar": 5048,
      "assistir": 5049,
      "solici": 5050,
      "exceção": 5051,
      "____": 5052,
      "teoria": 5053,
      "inclinou": 5054,
      "suplí": 5055,
      "fevereiro": 5056,
      "flá": 5057,
      "indiscre": 5058,
      "didos": 5059,
      "meninos": 5060,
      "naval": 5061,
      "sobres": 5062,
      "tuário": 5063,
      "trago": 5064,
      "traves": 5065,
      "cey": 5066,
      "rança": 5067,
      "joa": 5068,
      "abria": 5069,
      "estávamos": 5070,
      "conhecem": 5071,
      "vestir": 5072,
      "recebe": 5073,
      "frances": 5074,
      "surpresa": 5075,
      "cídio": 5076,
      "escapar": 5077,
      "raiva": 5078,
      "examinar": 5079,
      "candidato": 5080,
      "cerimônia": 5081,
      "aves": 5082,
      "aventu": 5083,
      "bé": 5084,
      "fór": 5085,
      "nessas": 5086,
      "úteis": 5087,
      "escr": 5088,
      "serei": 5089,
      "alfa": 5090,
      "embaixo": 5091,
      "dice": 5092,
      "compro": 5093,
      "sada": 5094,
      "locu": 5095,
      "ceia": 5096,
      "provas": 5097,
      "problema": 5098,
      "bahia": 5099,
      "cordia": 5100,
      "tenente": 5101,
      "canta": 5102,
      "larcey": 5103,
      "passavam": 5104,
      "magis": 5105,
      "correia": 5106,
      "houver": 5107,
      "vêm": 5108,
      "desapareceu": 5109,
      "públicos": 5110,
      "mirto": 5111,
      "1864": 5112,
      "donz": 5113,
      "preferia": 5114,
      "fresca": 5115,
      "lúcia": 5116,
      "sucedeu": 5117,
      "vestidos": 5118,
      "comprido": 5119,
      "poética": 5120,
      "adivinhar": 5121,
      "general": 5122,
      "liberal": 5123,
      "quinhentos": 5124,
      "gê": 5125,
      "grá": 5126,
      "ios": 5127,
      "nanc": 5128,
      "zer": 5129,
      "ère": 5130,
      "cote": 5131,
      "colher": 5132,
      "ingên": 5133,
      "alhei": 5134,
      "emílio": 5135,
      "comun": 5136,
      "napo": 5137,
      "ladr": 5138,
      "fitou": 5139,
      "entendo": 5140,
      "discí": 5141,
      "gaze": 5142,
      "estões": 5143,
      "propôs": 5144,
      "exterior": 5145,
      "tempor": 5146,
      "venera": 5147,
      "noivos": 5148,
      "grandeza": 5149,
      "franco": 5150,
      "branca": 5151,
      "demônio": 5152,
      "escritório": 5153,
      "recebia": 5154,
      "câmaras": 5155,
      "arranjar": 5156,
      "obstáculo": 5157,
      "hero": 5158,
      "camargo": 5159,
      "américa": 5160,
      "diploma": 5161,
      "professor": 5162,
      "nancy": 5163,
      "bí": 5164,
      "dindo": 5165,
      "dinho": 5166,
      "raí": 5167,
      "quês": 5168,
      "encanto": 5169,
      "pava": 5170,
      "tiram": 5171,
      "combate": 5172,
      "mentira": 5173,
      "sacristão": 5174,
      "vimento": 5175,
      "lidos": 5176,
      "lace": 5177,
      "fama": 5178,
      "prelado": 5179,
      "duvi": 5180,
      "servia": 5181,
      "calar": 5182,
      "salão": 5183,
      "culto": 5184,
      "fácio": 5185,
      "contemplação": 5186,
      "terreno": 5187,
      "percebeu": 5188,
      "dançar": 5189,
      "obedecer": 5190,
      "bairro": 5191,
      "índole": 5192,
      "flávio": 5193,
      "ingênu": 5194,
      "chor": 5195,
      "eva": 5196,
      "seda": 5197,
      "toca": 5198,
      "repreen": 5199,
      "repito": 5200,
      "massa": 5201,
      "carros": 5202,
      "marquês": 5203,
      "velo": 5204,
      "tentou": 5205,
      "impulso": 5206,
      "ondas": 5207,
      "torre": 5208,
      "torno": 5209,
      "bibli": 5210,
      "feiço": 5211,
      "escrevo": 5212,
      "esquece": 5213,
      "monó": 5214,
      "íntimo": 5215,
      "exato": 5216,
      "situações": 5217,
      "hipo": 5218,
      "síl": 5219,
      "perdoar": 5220,
      "infelizmente": 5221,
      "literárias": 5222,
      "costumava": 5223,
      "castigo": 5224,
      "triunfo": 5225,
      "fruto": 5226,
      "míni": 5227,
      "compensação": 5228,
      "inverno": 5229,
      "orelhas": 5230,
      "matreiro": 5231,
      "escrú": 5232,
      "12": 5233,
      "afia": 5234,
      "dina": 5235,
      "tâni": 5236,
      "vín": 5237,
      "xxi": 5238,
      "seco": 5239,
      "tamento": 5240,
      "malo": 5241,
      "cap": 5242,
      "tirava": 5243,
      "sabor": 5244,
      "resi": 5245,
      "porventura": 5246,
      "lidades": 5247,
      "gato": 5248,
      "ceis": 5249,
      "progresso": 5250,
      "seren": 5251,
      "pie": 5252,
      "algar": 5253,
      "anteontem": 5254,
      "finas": 5255,
      "gança": 5256,
      "esqueça": 5257,
      "procurava": 5258,
      "guernes": 5259,
      "tribuna": 5260,
      "vício": 5261,
      "magnífico": 5262,
      "cavalheiro": 5263,
      "guernesey": 5264,
      "**": 5265,
      "lxx": 5266,
      "devagar": 5267,
      "reminis": 5268,
      "moços": 5269,
      "metia": 5270,
      "hadas": 5271,
      "gueiro": 5272,
      "porquanto": 5273,
      "desma": 5274,
      "parado": 5275,
      "cujos": 5276,
      "muro": 5277,
      "chin": 5278,
      "marcha": 5279,
      "corrente": 5280,
      "impedir": 5281,
      "beber": 5282,
      "deixá": 5283,
      "levá": 5284,
      "ambições": 5285,
      "gentil": 5286,
      "ilum": 5287,
      "mercú": 5288,
      "novamente": 5289,
      "cumpre": 5290,
      "projetos": 5291,
      "camarote": 5292,
      "dedicação": 5293,
      "prudência": 5294,
      "anedotas": 5295,
      "anúncio": 5296,
      "legisla": 5297,
      "tílburi": 5298,
      "mercúrio": 5299,
      "aram": 5300,
      "apu": 5301,
      "lista": 5302,
      "oração": 5303,
      "óculos": 5304,
      "asi": 5305,
      "enfi": 5306,
      "entado": 5307,
      "inve": 5308,
      "reto": 5309,
      "retira": 5310,
      "pom": 5311,
      "embru": 5312,
      "tiro": 5313,
      "contribu": 5314,
      "latim": 5315,
      "lec": 5316,
      "petu": 5317,
      "terras": 5318,
      "provar": 5319,
      "produção": 5320,
      "prefiro": 5321,
      "rosos": 5322,
      "batendo": 5323,
      "venção": 5324,
      "vender": 5325,
      "bil": 5326,
      "feres": 5327,
      "segue": 5328,
      "adje": 5329,
      "barra": 5330,
      "títulos": 5331,
      "trim": 5332,
      "genu": 5333,
      "esquecido": 5334,
      "pratica": 5335,
      "exame": 5336,
      "bonitos": 5337,
      "maravi": 5338,
      "importância": 5339,
      "satisfeito": 5340,
      "burro": 5341,
      "amável": 5342,
      "recordações": 5343,
      "árvores": 5344,
      "expressões": 5345,
      "lucinda": 5346,
      "itália": 5347,
      "assuntos": 5348,
      "misericórdia": 5349,
      ".'": 5350,
      "24": 5351,
      "acomo": 5352,
      "flamen": 5353,
      "vente": 5354,
      "raros": 5355,
      "escas": 5356,
      "dam": 5357,
      "dans": 5358,
      "tavo": 5359,
      "taine": 5360,
      "emente": 5361,
      "note": 5362,
      "homero": 5363,
      "viveu": 5364,
      "trada": 5365,
      "sucesso": 5366,
      "perda": 5367,
      "gara": 5368,
      "templo": 5369,
      "mari": 5370,
      "dua": 5371,
      "simpá": 5372,
      "venceu": 5373,
      "grace": 5374,
      "gostar": 5375,
      "berço": 5376,
      "rioso": 5377,
      "vasta": 5378,
      "estive": 5379,
      "baixinho": 5380,
      "escura": 5381,
      "convidou": 5382,
      "quadros": 5383,
      "movimentos": 5384,
      "alcance": 5385,
      "raios": 5386,
      "bondade": 5387,
      "concordou": 5388,
      "cônego": 5389,
      "vantagens": 5390,
      "modelo": 5391,
      "vestí": 5392,
      "telegrama": 5393,
      "ciúmes": 5394,
      "necessidades": 5395,
      "fidelidade": 5396,
      "bên": 5397,
      "dote": 5398,
      "arqui": 5399,
      "investi": 5400,
      "alferes": 5401,
      "ouça": 5402,
      "comuns": 5403,
      "soneto": 5404,
      "lise": 5405,
      "masse": 5406,
      "miloca": 5407,
      "carteira": 5408,
      "unha": 5409,
      "morro": 5410,
      "inado": 5411,
      "conhecidos": 5412,
      "esperada": 5413,
      "pús": 5414,
      "escritura": 5415,
      "custó": 5416,
      "acompanhado": 5417,
      "namorada": 5418,
      "estranhos": 5419,
      "curiosa": 5420,
      "empregar": 5421,
      "saiba": 5422,
      "perdoe": 5423,
      "raimundo": 5424,
      "reputação": 5425,
      "histórias": 5426,
      "despedida": 5427,
      "obséquio": 5428,
      "paraíso": 5429,
      "inteligente": 5430,
      "celestina": 5431,
      "\".": 5432,
      "25": 5433,
      "?": 5434,
      "ãs": 5435,
      "ôs": 5436,
      "escân": 5437,
      "oswal": 5438,
      "ens": 5439,
      "tero": 5440,
      "alia": 5441,
      "anac": 5442,
      "emenda": 5443,
      "ricas": 5444,
      "mete": 5445,
      "vimos": 5446,
      "casta": 5447,
      "perfeito": 5448,
      "terão": 5449,
      "exces": 5450,
      "gracioso": 5451,
      "nevo": 5452,
      "nascimento": 5453,
      "tuais": 5454,
      "criada": 5455,
      "confusão": 5456,
      "pale": 5457,
      "cabeças": 5458,
      "bens": 5459,
      "negro": 5460,
      "rosamente": 5461,
      "começaram": 5462,
      "cuidava": 5463,
      "relativamente": 5464,
      "existia": 5465,
      "acredita": 5466,
      "bailes": 5467,
      "colete": 5468,
      "recolheu": 5469,
      "autori": 5470,
      "evitar": 5471,
      "recebido": 5472,
      "eleitoral": 5473,
      "inferno": 5474,
      "anedota": 5475,
      "deserto": 5476,
      "majestade": 5477,
      "suplício": 5478,
      "asilo": 5479,
      "oswald": 5480,
      "bala": 5481,
      "evar": 5482,
      "gentes": 5483,
      "lento": 5484,
      "mrs": 5485,
      "tâne": 5486,
      "mato": 5487,
      "recursos": 5488,
      "more": 5489,
      "mori": 5490,
      "mons": 5491,
      "momentos": 5492,
      "conter": 5493,
      "mudou": 5494,
      "disper": 5495,
      "gave": 5496,
      "cario": 5497,
      "intelec": 5498,
      "julho": 5499,
      "palestra": 5500,
      "escrevia": 5501,
      "serviços": 5502,
      "maioria": 5503,
      "julgar": 5504,
      "deliciosa": 5505,
      "interroga": 5506,
      "obscuro": 5507,
      "pronta": 5508,
      "tranqüilamente": 5509,
      "decisi": 5510,
      "montanha": 5511,
      "tragédia": 5512,
      "príncipe": 5513,
      "custódio": 5514,
      "sê": 5515,
      "uti": 5516,
      "inácio": 5517,
      "toli": 5518,
      "alum": 5519,
      "empen": 5520,
      "diversos": 5521,
      "composições": 5522,
      "notou": 5523,
      "sico": 5524,
      "leal": 5525,
      "paró": 5526,
      "vial": 5527,
      "presentes": 5528,
      "creia": 5529,
      "pontas": 5530,
      "tédio": 5531,
      "crimin": 5532,
      "sentidos": 5533,
      "cismo": 5534,
      "leite": 5535,
      "série": 5536,
      "briga": 5537,
      "acharam": 5538,
      "chorou": 5539,
      "sários": 5540,
      "radores": 5541,
      "cionar": 5542,
      "obrigada": 5543,
      "intenções": 5544,
      "quadri": 5545,
      "primavera": 5546,
      "resistiu": 5547,
      "conjugal": 5548,
      "abanou": 5549,
      "infort": 5550,
      "defesa": 5551,
      "suicídio": 5552,
      "prêmio": 5553,
      "simplicidade": 5554,
      "flamengo": 5555,
      "paletó": 5556,
      "gência": 5557,
      "jeito": 5558,
      "pto": 5559,
      "éramos": 5560,
      "õem": 5561,
      "doces": 5562,
      "dadas": 5563,
      "informa": 5564,
      "camis": 5565,
      "paj": 5566,
      "contí": 5567,
      "conden": 5568,
      "natal": 5569,
      "resumo": 5570,
      "gueira": 5571,
      "parasi": 5572,
      "foro": 5573,
      "miserá": 5574,
      "provis": 5575,
      "excesso": 5576,
      "trono": 5577,
      "marinha": 5578,
      "postura": 5579,
      "gratidão": 5580,
      "membros": 5581,
      "fumo": 5582,
      "acabo": 5583,
      "tábu": 5584,
      "acabada": 5585,
      "íssimos": 5586,
      "alegremente": 5587,
      "cumprimento": 5588,
      "distingu": 5589,
      "ombro": 5590,
      "desprezo": 5591,
      "personagem": 5592,
      "dormiu": 5593,
      "indispensá": 5594,
      "cálculo": 5595,
      "alvoroço": 5596,
      "escândalo": 5597,
      "atin": 5598,
      "lala": 5599,
      "ove": 5600,
      "pran": 5601,
      "debate": 5602,
      "copi": 5603,
      "tabelião": 5604,
      "redar": 5605,
      "pater": 5606,
      "lopes": 5607,
      "leza": 5608,
      "fagin": 5609,
      "china": 5610,
      "mbu": 5611,
      "mande": 5612,
      "jado": 5613,
      "pér": 5614,
      "olhares": 5615,
      "belezas": 5616,
      "claramente": 5617,
      "publicação": 5618,
      "renan": 5619,
      "diversas": 5620,
      "acreditava": 5621,
      "encontrei": 5622,
      "encher": 5623,
      "preocupação": 5624,
      "remorsos": 5625,
      "àquela": 5626,
      "plácida": 5627,
      "classe": 5628,
      "abalo": 5629,
      "vigário": 5630,
      "tumulto": 5631,
      "lalau": 5632,
      "30": 5633,
      "oper": 5634,
      "deza": 5635,
      "osidade": 5636,
      "aspira": 5637,
      "sexo": 5638,
      "toa": 5639,
      "camb": 5640,
      "cadeia": 5641,
      "pata": 5642,
      "paquete": 5643,
      "havendo": 5644,
      "vieira": 5645,
      "liga": 5646,
      "cupido": 5647,
      "botic": 5648,
      "tarefa": 5649,
      "dize": 5650,
      "nica": 5651,
      "seguida": 5652,
      "acham": 5653,
      "celeste": 5654,
      "entendia": 5655,
      "apresentar": 5656,
      "saído": 5657,
      "gustavo": 5658,
      "excelentes": 5659,
      "agradeceu": 5660,
      "secreta": 5661,
      "elegância": 5662,
      "conceito": 5663,
      "lúgu": 5664,
      "brilhantes": 5665,
      "pequenas": 5666,
      "patrão": 5667,
      "análise": 5668,
      "hóspede": 5669,
      "pássaros": 5670,
      "despesas": 5671,
      "boticário": 5672,
      "!)": 5673,
      "aterra": 5674,
      "ajun": 5675,
      "lfo": 5676,
      "enças": 5677,
      "ará": 5678,
      "cata": 5679,
      "varanda": 5680,
      "compa": 5681,
      "nados": 5682,
      "cigar": 5683,
      "resum": 5684,
      "tude": 5685,
      "descansa": 5686,
      "lições": 5687,
      "verbo": 5688,
      "faces": 5689,
      "cebo": 5690,
      "fecho": 5691,
      "hortên": 5692,
      "acabas": 5693,
      "partiu": 5694,
      "conversando": 5695,
      "achavam": 5696,
      "romper": 5697,
      "examina": 5698,
      "bené": 5699,
      "amaro": 5700,
      "refletir": 5701,
      "ocupar": 5702,
      "principais": 5703,
      "júlio": 5704,
      "particulares": 5705,
      "afetu": 5706,
      "grosso": 5707,
      "cuidei": 5708,
      "eleições": 5709,
      "instituições": 5710,
      "árvore": 5711,
      "apaixonado": 5712,
      "sexta": 5713,
      "intervalo": 5714,
      "platéia": 5715,
      "gême": 5716,
      "hortênsia": 5717,
      "xí": 5718,
      "rais": 5719,
      "moreira": 5720,
      "saia": 5721,
      "cita": 5722,
      "low": 5723,
      "casu": 5724,
      "persua": 5725,
      "fabri": 5726,
      "prolon": 5727,
      "expor": 5728,
      "irão": 5729,
      "inau": 5730,
      "cionais": 5731,
      "valer": 5732,
      "juventu": 5733,
      "grego": 5734,
      "ganha": 5735,
      "falam": 5736,
      "universo": 5737,
      "desagra": 5738,
      "beijar": 5739,
      "haveria": 5740,
      "renas": 5741,
      "crescer": 5742,
      "abraço": 5743,
      "domingos": 5744,
      "colegas": 5745,
      "bedel": 5746,
      "padecer": 5747,
      "menores": 5748,
      "crédito": 5749,
      "perpétua": 5750,
      "seixas": 5751,
      "redargü": 5752,
      "juventude": 5753,
      "atu": 5754,
      "jer": 5755,
      "palma": 5756,
      "ensina": 5757,
      "maci": 5758,
      "alhe": 5759,
      "ricos": 5760,
      "dessem": 5761,
      "desden": 5762,
      "lira": 5763,
      "legi": 5764,
      "mul": 5765,
      "mira": 5766,
      "perf": 5767,
      "lutas": 5768,
      "manus": 5769,
      "prin": 5770,
      "bradou": 5771,
      "seguintes": 5772,
      "orden": 5773,
      "criou": 5774,
      "perguntas": 5775,
      "levante": 5776,
      "anteriores": 5777,
      "adolfo": 5778,
      "vari": 5779,
      "genove": 5780,
      "rápida": 5781,
      "esquecimento": 5782,
      "estudante": 5783,
      "exclama": 5784,
      "dívida": 5785,
      "vejamos": 5786,
      "vingança": 5787,
      "militar": 5788,
      "hesitação": 5789,
      "aprender": 5790,
      "sinceramente": 5791,
      "revelação": 5792,
      "proferiu": 5793,
      "acanha": 5794,
      "ultimamente": 5795,
      "trezentos": 5796,
      "eclesiás": 5797,
      "genoveva": 5798,
      "13": 5799,
      "bár": 5800,
      "cães": 5801,
      "cleon": 5802,
      "fusão": 5803,
      "devemos": 5804,
      "enfei": 5805,
      "enér": 5806,
      "envergonha": 5807,
      "intro": 5808,
      "poeira": 5809,
      "alis": 5810,
      "meti": 5811,
      "diário": 5812,
      "saem": 5813,
      "trar": 5814,
      "gozo": 5815,
      "boce": 5816,
      "procla": 5817,
      "duarte": 5818,
      "nier": 5819,
      "ponde": 5820,
      "bicho": 5821,
      "tinos": 5822,
      "deixasse": 5823,
      "fugiu": 5824,
      "conheceu": 5825,
      "método": 5826,
      "inocente": 5827,
      "queriam": 5828,
      "negros": 5829,
      "surpreen": 5830,
      "recebera": 5831,
      "companheiros": 5832,
      "desenlace": 5833,
      "chapéus": 5834,
      "coragem": 5835,
      "recolher": 5836,
      "população": 5837,
      "tibú": 5838,
      "frieza": 5839,
      "sofrer": 5840,
      "cortesia": 5841,
      "jóias": 5842,
      "súbito": 5843,
      "verdadeiros": 5844,
      "cláudia": 5845,
      "buraco": 5846,
      "napoleão": 5847,
      "14": 5848,
      "eze": 5849,
      "vre": 5850,
      "enco": 5851,
      "querida": 5852,
      "intima": 5853,
      "cais": 5854,
      "med": 5855,
      "gula": 5856,
      "ficos": 5857,
      "pedes": 5858,
      "pregui": 5859,
      "pré": 5860,
      "gramas": 5861,
      "meias": 5862,
      "inheiros": 5863,
      "vemente": 5864,
      "salas": 5865,
      "leio": 5866,
      "lances": 5867,
      "justa": 5868,
      "falaram": 5869,
      "sonha": 5870,
      "exata": 5871,
      "cópia": 5872,
      "cidad": 5873,
      "laura": 5874,
      "promete": 5875,
      "tranqüilidade": 5876,
      "pleno": 5877,
      "aplauso": 5878,
      "eleitores": 5879,
      "exigir": 5880,
      "conseqüências": 5881,
      "decreto": 5882,
      "lisonje": 5883,
      "repentina": 5884,
      "retorqui": 5885,
      "anacleto": 5886,
      "tibúrcio": 5887,
      "ezequi": 5888,
      "opor": 5889,
      "pando": 5890,
      "rus": 5891,
      "deteve": 5892,
      "astro": 5893,
      "teridade": 5894,
      "rev": 5895,
      "pole": 5896,
      "titia": 5897,
      "vice": 5898,
      "restava": 5899,
      "laço": 5900,
      "fixa": 5901,
      "cujas": 5902,
      "vere": 5903,
      "lex": 5904,
      "supõe": 5905,
      "suponho": 5906,
      "pegar": 5907,
      "usas": 5908,
      "pronun": 5909,
      "duelo": 5910,
      "serra": 5911,
      "bati": 5912,
      "olhei": 5913,
      "mandei": 5914,
      "feia": 5915,
      "puseram": 5916,
      "jada": 5917,
      "canos": 5918,
      "canti": 5919,
      "faltam": 5920,
      "liação": 5921,
      "estátua": 5922,
      "fuga": 5923,
      "estivera": 5924,
      "amam": 5925,
      "juntas": 5926,
      "deixaram": 5927,
      "custou": 5928,
      "memórias": 5929,
      "cabelo": 5930,
      "resistência": 5931,
      "sensações": 5932,
      "rochedos": 5933,
      "evidentemente": 5934,
      "imperial": 5935,
      "ezequiel": 5936,
      "ay": 5937,
      "agem": 5938,
      "wn": 5939,
      "çá": 5940,
      "úmi": 5941,
      "ossos": 5942,
      "injú": 5943,
      "rede": 5944,
      "alem": 5945,
      "moi": 5946,
      "caça": 5947,
      "umentos": 5948,
      "vago": 5949,
      "tunes": 5950,
      "gura": 5951,
      "desce": 5952,
      "curar": 5953,
      "castro": 5954,
      "carrua": 5955,
      "unas": 5956,
      "marães": 5957,
      "serena": 5958,
      "posse": 5959,
      "impaciência": 5960,
      "falasse": 5961,
      "entregar": 5962,
      "chegasse": 5963,
      "orça": 5964,
      "ística": 5965,
      "culdades": 5966,
      "mercês": 5967,
      "trazem": 5968,
      "galante": 5969,
      "busto": 5970,
      "ficará": 5971,
      "sentença": 5972,
      "humani": 5973,
      "sombrio": 5974,
      "guimarães": 5975,
      "convencido": 5976,
      "fechado": 5977,
      "encarre": 5978,
      "aflição": 5979,
      "julieta": 5980,
      "conseqüência": 5981,
      "ciúme": 5982,
      "independência": 5983,
      "atitude": 5984,
      "aposto": 5985,
      "né": 5986,
      "çu": 5987,
      "daram": 5988,
      "inde": 5989,
      "indí": 5990,
      "ingenu": 5991,
      "tamos": 5992,
      "maca": 5993,
      "elim": 5994,
      "ril": 5995,
      "confu": 5996,
      "concerto": 5997,
      "notur": 5998,
      "viera": 5999,
      "trato": 6000,
      "desig": 6001,
      "sufi": 6002,
      "entá": 6003,
      "fati": 6004,
      "fatalidade": 6005,
      "quitan": 6006,
      "valho": 6007,
      "lembras": 6008,
      "razo": 6009,
      "trem": 6010,
      "trevas": 6011,
      "comecei": 6012,
      "incô": 6013,
      "franca": 6014,
      "imagine": 6015,
      "gritos": 6016,
      "galho": 6017,
      "buscá": 6018,
      "procurando": 6019,
      "voltaram": 6020,
      "cír": 6021,
      "calada": 6022,
      "correspondente": 6023,
      "exceto": 6024,
      "conveniência": 6025,
      "caute": 6026,
      "colunas": 6027,
      "delfina": 6028,
      "inquieta": 6029,
      "humilha": 6030,
      "cheias": 6031,
      "operação": 6032,
      "esprei": 6033,
      "brisa": 6034,
      "empalideceu": 6035,
      "energia": 6036,
      "campanha": 6037,
      "providência": 6038,
      "bibliote": 6039,
      "carioca": 6040,
      "paróquia": 6041,
      "cidadãos": 6042,
      "22": 6043,
      "cler": 6044,
      "imortal": 6045,
      "pisto": 6046,
      "sha": 6047,
      "esclare": 6048,
      "copo": 6049,
      "reuni": 6050,
      "pousar": 6051,
      "alca": 6052,
      "algo": 6053,
      "moni": 6054,
      "pação": 6055,
      "convales": 6056,
      "navios": 6057,
      "tradução": 6058,
      "foge": 6059,
      "fado": 6060,
      "prece": 6061,
      "rantaine": 6062,
      "sentada": 6063,
      "marcela": 6064,
      "viagens": 6065,
      "impaciente": 6066,
      "formar": 6067,
      "faltar": 6068,
      "entrevista": 6069,
      "gida": 6070,
      "lísias": 6071,
      "gastou": 6072,
      "pício": 6073,
      "teiros": 6074,
      "adoles": 6075,
      "boato": 6076,
      "miss": 6077,
      "mistérios": 6078,
      "indivi": 6079,
      "brown": 6080,
      "íntimos": 6081,
      "direitos": 6082,
      "bancos": 6083,
      "transmi": 6084,
      "deixam": 6085,
      "divul": 6086,
      "médios": 6087,
      "planos": 6088,
      "oferecer": 6089,
      "obedeceu": 6090,
      "violência": 6091,
      "descansar": 6092,
      "àquele": 6093,
      "terminou": 6094,
      "verdadeiras": 6095,
      "repouso": 6096,
      "economia": 6097,
      "demasiado": 6098,
      "facilidade": 6099,
      "afilha": 6100,
      "gelo": 6101,
      "kespe": 6102,
      "ola": 6103,
      "esfera": 6104,
      "ind": 6105,
      "intu": 6106,
      "alar": 6107,
      "anças": 6108,
      "congresso": 6109,
      "contempor": 6110,
      "sogro": 6111,
      "sion": 6112,
      "maré": 6113,
      "luar": 6114,
      "bada": 6115,
      "rupção": 6116,
      "casados": 6117,
      "quime": 6118,
      "zava": 6119,
      "abala": 6120,
      "nascido": 6121,
      "juven": 6122,
      "deiros": 6123,
      "táculos": 6124,
      "vares": 6125,
      "mister": 6126,
      "franz": 6127,
      "fraque": 6128,
      "diversa": 6129,
      "aborrecida": 6130,
      "secreto": 6131,
      "religiosa": 6132,
      "consultar": 6133,
      "acendeu": 6134,
      "experimen": 6135,
      "ansioso": 6136,
      "definitiva": 6137,
      "exemplar": 6138,
      "modesto": 6139,
      "prisão": 6140,
      "alexan": 6141,
      "alheia": 6142,
      "shakespe": 6143,
      "contemporâne": 6144,
      "fins": 6145,
      "femin": 6146,
      "tentes": 6147,
      "deno": 6148,
      "esgo": 6149,
      "seduz": 6150,
      "tocava": 6151,
      "remédios": 6152,
      "mono": 6153,
      "catás": 6154,
      "convinha": 6155,
      "consentiu": 6156,
      "noé": 6157,
      "rial": 6158,
      "ciado": 6159,
      "gabri": 6160,
      "estri": 6161,
      "mante": 6162,
      "mancebo": 6163,
      "ferra": 6164,
      "abun": 6165,
      "absol": 6166,
      "balde": 6167,
      "baixou": 6168,
      "quarta": 6169,
      "amarela": 6170,
      "beiras": 6171,
      "merecia": 6172,
      "agradecer": 6173,
      "apreciar": 6174,
      "convidados": 6175,
      "clássi": 6176,
      "adequ": 6177,
      "rodrigo": 6178,
      "auxílio": 6179,
      "sabore": 6180,
      "donzela": 6181,
      "nevoeiro": 6182,
      "xícara": 6183,
      "individu": 6184,
      "shakespeare": 6185,
      "catástro": 6186,
      "21": 6187,
      "iras": 6188,
      "neles": 6189,
      "tém": 6190,
      "tências": 6191,
      "ôo": 6192,
      "reparo": 6193,
      "recomen": 6194,
      "alh": 6195,
      "emprés": 6196,
      "caram": 6197,
      "tivessem": 6198,
      "descia": 6199,
      "levam": 6200,
      "mulas": 6201,
      "perver": 6202,
      "toso": 6203,
      "impre": 6204,
      "ney": 6205,
      "falso": 6206,
      "nasce": 6207,
      "pérola": 6208,
      "auxi": 6209,
      "usava": 6210,
      "bron": 6211,
      "gências": 6212,
      "luzes": 6213,
      "íssimas": 6214,
      "zomb": 6215,
      "demorou": 6216,
      "separar": 6217,
      "puramente": 6218,
      "fresco": 6219,
      "assentado": 6220,
      "severo": 6221,
      "espiritual": 6222,
      "cristã": 6223,
      "egoísmo": 6224,
      "miserável": 6225,
      "indispensável": 6226,
      "benta": 6227,
      "ceiro": 6228,
      "dões": 6229,
      "edição": 6230,
      "lân": 6231,
      "nó": 6232,
      "veste": 6233,
      "enfia": 6234,
      "arra": 6235,
      "composto": 6236,
      "sofri": 6237,
      "travou": 6238,
      "voa": 6239,
      "carnaval": 6240,
      "dul": 6241,
      "pensas": 6242,
      "mandava": 6243,
      "quios": 6244,
      "mães": 6245,
      "ístico": 6246,
      "interpre": 6247,
      "184": 6248,
      "borbo": 6249,
      "ignor": 6250,
      "animação": 6251,
      "descoberto": 6252,
      "teriam": 6253,
      "contato": 6254,
      "voltarete": 6255,
      "contemplava": 6256,
      "tomava": 6257,
      "abatido": 6258,
      "perdoa": 6259,
      "enchia": 6260,
      "apolo": 6261,
      "cômico": 6262,
      "extremamente": 6263,
      "restau": 6264,
      "restabele": 6265,
      "exclusivamente": 6266,
      "delicada": 6267,
      "aproveitou": 6268,
      "proporção": 6269,
      "proporções": 6270,
      "eminente": 6271,
      "atordo": 6272,
      "desempenho": 6273,
      "naufrá": 6274,
      "gravata": 6275,
      "solene": 6276,
      "fúne": 6277,
      "mágoa": 6278,
      "instrumento": 6279,
      "comprou": 6280,
      "ladrão": 6281,
      "moribun": 6282,
      "aspirações": 6283,
      "brownlow": 6284,
      ".\"": 6285,
      "id": 6286,
      "lindo": 6287,
      "zelo": 6288,
      "demos": 6289,
      "racio": 6290,
      "cochi": 6291,
      "tabu": 6292,
      "roch": 6293,
      "antunes": 6294,
      "embe": 6295,
      "digas": 6296,
      "noti": 6297,
      "sozinho": 6298,
      "porfí": 6299,
      "mudo": 6300,
      "discrição": 6301,
      "senho": 6302,
      "rude": 6303,
      "mania": 6304,
      "quilo": 6305,
      "gostou": 6306,
      "alimen": 6307,
      "compôs": 6308,
      "criados": 6309,
      "pensativo": 6310,
      "andaraí": 6311,
      "lógico": 6312,
      "íntimas": 6313,
      "chamam": 6314,
      "compreendia": 6315,
      "honesto": 6316,
      "vane": 6317,
      "convivas": 6318,
      "estranhas": 6319,
      "saíra": 6320,
      "particularmente": 6321,
      "azu": 6322,
      "acreditar": 6323,
      "escapou": 6324,
      "capazes": 6325,
      "aparência": 6326,
      "observações": 6327,
      "delicado": 6328,
      "charutos": 6329,
      "algibeiras": 6330,
      "elemento": 6331,
      "ingleses": 6332,
      "correndo": 6333,
      "inventar": 6334,
      "evang": 6335,
      "fazendeiro": 6336,
      "retorquiu": 6337,
      "porfírio": 6338,
      ".-": 6339,
      "bes": 6340,
      "ceira": 6341,
      "of": 6342,
      "opa": 6343,
      "reno": 6344,
      "âmpa": 6345,
      "ídos": 6346,
      "rafa": 6347,
      "enig": 6348,
      "cobi": 6349,
      "tomo": 6350,
      "tono": 6351,
      "tomé": 6352,
      "tomando": 6353,
      "reda": 6354,
      "refiro": 6355,
      "pada": 6356,
      "patrio": 6357,
      "condes": 6358,
      "concen": 6359,
      "notável": 6360,
      "saio": 6361,
      "laran": 6362,
      "fil": 6363,
      "disser": 6364,
      "morria": 6365,
      "mortais": 6366,
      "ruim": 6367,
      "dizes": 6368,
      "forta": 6369,
      "roux": 6370,
      "roupas": 6371,
      "abas": 6372,
      "lícito": 6373,
      "sinhá": 6374,
      "constran": 6375,
      "curva": 6376,
      "dezoito": 6377,
      "inoc": 6378,
      "levaram": 6379,
      "cruza": 6380,
      "tinoco": 6381,
      "terríveis": 6382,
      "extremo": 6383,
      "saíam": 6384,
      "freitas": 6385,
      "passageiros": 6386,
      "profeta": 6387,
      "oferece": 6388,
      "profissão": 6389,
      "indivíduo": 6390,
      "púsculo": 6391,
      "lúgubre": 6392,
      "ignorância": 6393,
      "amou": 6394,
      "ica": 6395,
      "oi": 6396,
      "oposto": 6397,
      "tíssimo": 6398,
      "ático": 6399,
      "queir": 6400,
      "arca": 6401,
      "tocou": 6402,
      "modi": 6403,
      "meda": 6404,
      "dilho": 6405,
      "nações": 6406,
      "cimo": 6407,
      "tradição": 6408,
      "fiéis": 6409,
      "botâni": 6410,
      "tosa": 6411,
      "luvas": 6412,
      "êndio": 6413,
      "primir": 6414,
      "venda": 6415,
      "puer": 6416,
      "puder": 6417,
      "gargal": 6418,
      "horrível": 6419,
      "melhora": 6420,
      "orna": 6421,
      "derro": 6422,
      "derru": 6423,
      "cousa": 6424,
      "ficavam": 6425,
      "tiam": 6426,
      "trito": 6427,
      "calça": 6428,
      "adores": 6429,
      "física": 6430,
      "çoso": 6431,
      "primeiramente": 6432,
      "trabalhava": 6433,
      "chegam": 6434,
      "gerais": 6435,
      "encontrado": 6436,
      "romances": 6437,
      "produzir": 6438,
      "substan": 6439,
      "gordo": 6440,
      "descanso": 6441,
      "extraordinário": 6442,
      "econô": 6443,
      "aplicação": 6444,
      "português": 6445,
      "lavra": 6446,
      "eloqüente": 6447,
      "bigode": 6448,
      "absurdo": 6449,
      "aventuras": 6450,
      "reminiscências": 6451,
      "camisa": 6452,
      "maciel": 6453,
      "biblioteca": 6454,
      "cron": 6455,
      "fão": 6456,
      "imento": 6457,
      "wer": 6458,
      "ávamos": 6459,
      "questões": 6460,
      "anel": 6461,
      "vara": 6462,
      "confer": 6463,
      "saco": 6464,
      "mus": 6465,
      "peti": 6466,
      "tron": 6467,
      "baga": 6468,
      "pidos": 6469,
      "mancha": 6470,
      "garnier": 6471,
      "sócio": 6472,
      "cantil": 6473,
      "costu": 6474,
      "viste": 6475,
      "risco": 6476,
      "fundos": 6477,
      "tribun": 6478,
      "cár": 6479,
      "brancos": 6480,
      "esquecia": 6481,
      "mostrando": 6482,
      "recebê": 6483,
      "explicações": 6484,
      "línguas": 6485,
      "abraçou": 6486,
      "presidência": 6487,
      "freqüen": 6488,
      "apanhar": 6489,
      "hábito": 6490,
      "trêmulo": 6491,
      "1859": 6492,
      "defender": 6493,
      "inferior": 6494,
      "diplomá": 6495,
      "prudente": 6496,
      "aviso": 6497,
      "avó": 6498,
      "túmulo": 6499,
      "suponhamos": 6500,
      "quadrilha": 6501,
      "princesa": 6502,
      "alexandre": 6503,
      "queirós": 6504,
      "aguar": 6505,
      "ebene": 6506,
      "idio": 6507,
      "nelas": 6508,
      "ode": 6509,
      "deso": 6510,
      "esva": 6511,
      "coz": 6512,
      "querido": 6513,
      "matrona": 6514,
      "rez": 6515,
      "reino": 6516,
      "reparar": 6517,
      "paço": 6518,
      "sociais": 6519,
      "eras": 6520,
      "desesperado": 6521,
      "liqui": 6522,
      "famoso": 6523,
      "exér": 6524,
      "serás": 6525,
      "vende": 6526,
      "criar": 6527,
      "cintura": 6528,
      "explos": 6529,
      "apó": 6530,
      "pinto": 6531,
      "xiii": 6532,
      "levantava": 6533,
      "recuar": 6534,
      "transcre": 6535,
      "compreendi": 6536,
      "nhamos": 6537,
      "vejam": 6538,
      "tranqüili": 6539,
      "1862": 6540,
      "merecer": 6541,
      "abatimento": 6542,
      "semelhança": 6543,
      "estendendo": 6544,
      "vizinha": 6545,
      "ignora": 6546,
      "fascina": 6547,
      "esconder": 6548,
      "associa": 6549,
      "tentativa": 6550,
      "poético": 6551,
      "obscuridade": 6552,
      "episódios": 6553,
      "milhões": 6554,
      "cunhado": 6555,
      "mentalmente": 6556,
      "súbita": 6557,
      "doméstica": 6558,
      "melancólico": 6559,
      "ruínas": 6560,
      "protestos": 6561,
      "ebenezer": 6562,
      "cto": 6563,
      "frí": 6564,
      "ossí": 6565,
      "enses": 6566,
      "enterra": 6567,
      "releu": 6568,
      "anas": 6569,
      "aninha": 6570,
      "modesta": 6571,
      "cavam": 6572,
      "rigo": 6573,
      "mediante": 6574,
      "pago": 6575,
      "tivemos": 6576,
      "contanto": 6577,
      "comida": 6578,
      "sois": 6579,
      "guel": 6580,
      "lor": 6581,
      "despe": 6582,
      "euvre": 6583,
      "mudado": 6584,
      "miranda": 6585,
      "chim": 6586,
      "provin": 6587,
      "preparou": 6588,
      "temer": 6589,
      "vencido": 6590,
      "compra": 6591,
      "compõe": 6592,
      "jante": 6593,
      "antero": 6594,
      "entrara": 6595,
      "basílio": 6596,
      "sessenta": 6597,
      "xii": 6598,
      "farei": 6599,
      "acusa": 6600,
      "acredito": 6601,
      "contempla": 6602,
      "camacho": 6603,
      "suspiros": 6604,
      "suspeitas": 6605,
      "quaisquer": 6606,
      "crítico": 6607,
      "extrava": 6608,
      "ataque": 6609,
      "eleitor": 6610,
      "bolsa": 6611,
      "declarar": 6612,
      "quebrar": 6613,
      "confirmou": 6614,
      "exprime": 6615,
      "desenvolvimento": 6616,
      "vestia": 6617,
      "hugo": 6618,
      "destinado": 6619,
      "edifício": 6620,
      "considerações": 6621,
      "joaquim": 6622,
      "parasita": 6623,
      "suficiente": 6624,
      "aconselh": 6625,
      "gás": 6626,
      "pson": 6627,
      "águia": 6628,
      "enos": 6629,
      "ell": 6630,
      "empur": 6631,
      "padres": 6632,
      "diram": 6633,
      "respec": 6634,
      "lobo": 6635,
      "libras": 6636,
      "vergueiro": 6637,
      "suces": 6638,
      "pecu": 6639,
      "care": 6640,
      "pense": 6641,
      "grafo": 6642,
      "graus": 6643,
      "liana": 6644,
      "volto": 6645,
      "deixemos": 6646,
      "audi": 6647,
      "acla": 6648,
      "achando": 6649,
      "achasse": 6650,
      "correm": 6651,
      "admirável": 6652,
      "frade": 6653,
      "bandeira": 6654,
      "louvor": 6655,
      "acompanhá": 6656,
      "arreba": 6657,
      "queiro": 6658,
      "heróis": 6659,
      "imitar": 6660,
      "consolar": 6661,
      "confidente": 6662,
      "confidência": 6663,
      "escadas": 6664,
      "afetos": 6665,
      "encheu": 6666,
      "adversários": 6667,
      "chorava": 6668,
      "revolu": 6669,
      "infini": 6670,
      "exige": 6671,
      "extraordinária": 6672,
      "destruir": 6673,
      "recordação": 6674,
      "exemplos": 6675,
      "desculpe": 6676,
      "apreciação": 6677,
      "duvidar": 6678,
      "documento": 6679,
      "totalmente": 6680,
      "gaveta": 6681,
      "evangelho": 6682,
      "cali": 6683,
      "ímen": 6684,
      "esconde": 6685,
      "encomen": 6686,
      "artes": 6687,
      "inúteis": 6688,
      "iada": 6689,
      "alterna": 6690,
      "umar": 6691,
      "metido": 6692,
      "tirando": 6693,
      "trava": 6694,
      "parava": 6695,
      "gota": 6696,
      "pero": 6697,
      "usto": 6698,
      "faculdade": 6699,
      "expedi": 6700,
      "unhas": 6701,
      "duque": 6702,
      "serviu": 6703,
      "possibilidade": 6704,
      "jovial": 6705,
      "pieuvre": 6706,
      "prestar": 6707,
      "impede": 6708,
      "gargan": 6709,
      "dorme": 6710,
      "largas": 6711,
      "responsa": 6712,
      "conflito": 6713,
      "pára": 6714,
      "xiv": 6715,
      "transi": 6716,
      "mercado": 6717,
      "inocência": 6718,
      "estará": 6719,
      "aperfeiço": 6720,
      "afirmo": 6721,
      "quadra": 6722,
      "excelência": 6723,
      "possuir": 6724,
      "solitário": 6725,
      "merecimento": 6726,
      "cansada": 6727,
      "regímen": 6728,
      "agradeço": 6729,
      "retratos": 6730,
      "únio": 6731,
      "observar": 6732,
      "necessárias": 6733,
      "depende": 6734,
      "portugal": 6735,
      "atravessou": 6736,
      "exercí": 6737,
      "organiza": 6738,
      "cheios": 6739,
      "cristiana": 6740,
      "nicolau": 6741,
      "instinto": 6742,
      "eusébio": 6743,
      "superioridade": 6744,
      "infortúnio": 6745,
      "redargüiu": 6746,
      "acanhamento": 6747,
      "pções": 6748,
      "denun": 6749,
      "dotes": 6750,
      "iné": 6751,
      "inse": 6752,
      "intri": 6753,
      "incons": 6754,
      "indú": 6755,
      "tape": 6756,
      "reparti": 6757,
      "ande": 6758,
      "morar": 6759,
      "concer": 6760,
      "concurso": 6761,
      "sober": 6762,
      "habilidade": 6763,
      "vidos": 6764,
      "local": 6765,
      "letas": 6766,
      "sufo": 6767,
      "case": 6768,
      "faca": 6769,
      "diana": 6770,
      "senso": 6771,
      "sentando": 6772,
      "corriam": 6773,
      "parecendo": 6774,
      "meiga": 6775,
      "cantando": 6776,
      "largos": 6777,
      "tinta": 6778,
      "valente": 6779,
      "coutinho": 6780,
      "lasti": 6781,
      "foste": 6782,
      "ticamente": 6783,
      "bulo": 6784,
      "calma": 6785,
      "sales": 6786,
      "céus": 6787,
      "soldados": 6788,
      "estiver": 6789,
      "susto": 6790,
      "crença": 6791,
      "falamos": 6792,
      "brinc": 6793,
      "frau": 6794,
      "entendi": 6795,
      "caminhar": 6796,
      "acompanhava": 6797,
      "apertar": 6798,
      "contemplou": 6799,
      "abertas": 6800,
      "distinção": 6801,
      "regis": 6802,
      "alcançou": 6803,
      "vizinhos": 6804,
      "religioso": 6805,
      "limites": 6806,
      "distração": 6807,
      "eternamente": 6808,
      "madras": 6809,
      "adivinhou": 6810,
      "humor": 6811,
      "assombro": 6812,
      "propriedade": 6813,
      "franceses": 6814,
      "indús": 6815,
      "aver": 6816,
      "cx": 6817,
      "díssimo": 6818,
      "festi": 6819,
      "iense": 6820,
      "ização": 6821,
      "rinha": 6822,
      "sti": 6823,
      "étri": 6824,
      "escan": 6825,
      "quinhas": 6826,
      "coma": 6827,
      "seres": 6828,
      "invisível": 6829,
      "iso": 6830,
      "retirar": 6831,
      "relevo": 6832,
      "mores": 6833,
      "pache": 6834,
      "despen": 6835,
      "paraguai": 6836,
      "culti": 6837,
      "vege": 6838,
      "veremos": 6839,
      "dissol": 6840,
      "disposta": 6841,
      "une": 6842,
      "...'": 6843,
      "corro": 6844,
      "joaninha": 6845,
      "tré": 6846,
      "formu": 6847,
      "formos": 6848,
      "credores": 6849,
      "zada": 6850,
      "pesade": 6851,
      "fugia": 6852,
      "cento": 6853,
      "audá": 6854,
      "risos": 6855,
      "contrato": 6856,
      "nunes": 6857,
      "bastou": 6858,
      "cinho": 6859,
      "ráveis": 6860,
      "traziam": 6861,
      "férias": 6862,
      "escritas": 6863,
      "buscava": 6864,
      "pessoais": 6865,
      "subia": 6866,
      "banho": 6867,
      "nua": 6868,
      "amarelo": 6869,
      "animado": 6870,
      "alegrias": 6871,
      "cumprimentos": 6872,
      "rendas": 6873,
      "longamente": 6874,
      "caixão": 6875,
      "países": 6876,
      "fastio": 6877,
      "filosó": 6878,
      "violenta": 6879,
      "ariamente": 6880,
      "polca": 6881,
      "preparava": 6882,
      "ansiedade": 6883,
      "cunho": 6884,
      "candidatos": 6885,
      "fenômenos": 6886,
      "máxima": 6887,
      "região": 6888,
      "encantado": 6889,
      "liberais": 6890,
      "melancólica": 6891,
      "risonho": 6892,
      "protesto": 6893,
      "sílvia": 6894,
      "senhoria": 6895,
      "madrasta": 6896,
      "pacheco": 6897,
      "//": 6898,
      "://": 6899,
      "apal": 6900,
      "gré": 6901,
      "hal": 6902,
      "histo": 6903,
      "htt": 6904,
      "obe": 6905,
      "rendo": 6906,
      "the": 6907,
      "coinci": 6908,
      "sequi": 6909,
      "maço": 6910,
      "redon": 6911,
      "rigor": 6912,
      "metá": 6913,
      "papa": 6914,
      "compaixão": 6915,
      "tuno": 6916,
      "destro": 6917,
      "destinos": 6918,
      "param": 6919,
      "leque": 6920,
      "entário": 6921,
      "boi": 6922,
      "mares": 6923,
      "marcado": 6924,
      "dula": 6925,
      "dutor": 6926,
      "bacamar": 6927,
      "formi": 6928,
      "bravo": 6929,
      "mindo": 6930,
      "girar": 6931,
      "ferida": 6932,
      "berry": 6933,
      "líqui": 6934,
      "adria": 6935,
      "auda": 6936,
      "vosso": 6937,
      "consta": 6938,
      "base": 6939,
      "bastinhos": 6940,
      "vous": 6941,
      "xico": 6942,
      "imagens": 6943,
      "admitir": 6944,
      "prato": 6945,
      "atenu": 6946,
      "réu": 6947,
      "jantares": 6948,
      "aniver": 6949,
      "honrado": 6950,
      "cionário": 6951,
      "dúvidas": 6952,
      "explicável": 6953,
      "acorda": 6954,
      "acordar": 6955,
      "escuta": 6956,
      "obscura": 6957,
      "urso": 6958,
      "supersti": 6959,
      "cresceu": 6960,
      "condenado": 6961,
      "definição": 6962,
      "aborrecimento": 6963,
      "singulares": 6964,
      "burles": 6965,
      "atribuir": 6966,
      "extrema": 6967,
      "aproxima": 6968,
      "atmos": 6969,
      "moderna": 6970,
      "passageiro": 6971,
      "alheias": 6972,
      "intelectual": 6973,
      "acabasse": 6974,
      "brincando": 6975,
      "http": 6976,
      "amento": 6977,
      "avar": 6978,
      "afeições": 6979,
      "eça": 6980,
      "ovo": 6981,
      "delei": 6982,
      "sede": 6983,
      "infa": 6984,
      "males": 6985,
      "materia": 6986,
      "regu": 6987,
      "rebel": 6988,
      "erguer": 6989,
      "alha": 6990,
      "elvira": 6991,
      "rochas": 6992,
      "animou": 6993,
      "caindo": 6994,
      "sower": 6995,
      "sabido": 6996,
      "despo": 6997,
      "cubas": 6998,
      "verei": 6999,
      "pereg": 7000,
      "pecados": 7001,
      "cheiro": 7002,
      "diabos": 7003,
      "garam": 7004,
      "duvido": 7005,
      "tassem": 7006,
      "cortar": 7007,
      "morti": 7008,
      "ruidos": 7009,
      "mbio": 7010,
      "pasmo": 7011,
      "pires": 7012,
      "quieta": 7013,
      "ferido": 7014,
      "fura": 7015,
      "adão": 7016,
      "vestiu": 7017,
      "riste": 7018,
      "tórios": 7019,
      "conspi": 7020,
      "intervenção": 7021,
      "justina": 7022,
      "francos": 7023,
      "meros": 7024,
      "morrem": 7025,
      "fizeste": 7026,
      "espere": 7027,
      "fraco": 7028,
      "fraqueza": 7029,
      "interessa": 7030,
      "guardou": 7031,
      "desejar": 7032,
      "sombria": 7033,
      "câmbio": 7034,
      "urna": 7035,
      "1866": 7036,
      "originalidade": 7037,
      "recordar": 7038,
      "grossa": 7039,
      "ajuda": 7040,
      "empresário": 7041,
      "interessantes": 7042,
      "salvador": 7043,
      "definitivamente": 7044,
      "estreito": 7045,
      "milhares": 7046,
      "sagrado": 7047,
      "legítima": 7048,
      "ingrato": 7049,
      "italiano": 7050,
      "extensão": 7051,
      "passeios": 7052,
      "rodrigues": 7053,
      "www": 7054,
      "sujeitos": 7055,
      "ilumina": 7056,
      "gêmeos": 7057,
      "inaugu": 7058,
      "bacamarte": 7059,
      "sowerberry": 7060,
      "peregr": 7061,
      "23": 7062,
      "afo": 7063,
      "agre": 7064,
      "bent": 7065,
      "centen": 7066,
      "fou": 7067,
      "giam": 7068,
      "iriam": 7069,
      "linhos": 7070,
      "ts": 7071,
      "uol": 7072,
      "deassis": 7073,
      "enga": 7074,
      "cobra": 7075,
      "toque": 7076,
      "iano": 7077,
      "recer": 7078,
      "rode": 7079,
      "anci": 7080,
      "cato": 7081,
      "cachor": 7082,
      "ditas": 7083,
      "nadas": 7084,
      "saísse": 7085,
      "descu": 7086,
      "desfor": 7087,
      "desvai": 7088,
      "gozar": 7089,
      "mulos": 7090,
      "estatura": 7091,
      "preparar": 7092,
      "rosina": 7093,
      "cordo": 7094,
      "puderam": 7095,
      "ponte": 7096,
      "feitic": 7097,
      "suave": 7098,
      "segurança": 7099,
      "barbas": 7100,
      "levasse": 7101,
      "ficamos": 7102,
      "tínhamos": 7103,
      "receava": 7104,
      "méxico": 7105,
      "palácio": 7106,
      "incré": 7107,
      "brás": 7108,
      "chorando": 7109,
      "monta": 7110,
      "admirado": 7111,
      "exagera": 7112,
      "atenções": 7113,
      "louros": 7114,
      "visitá": 7115,
      "concluía": 7116,
      "elogio": 7117,
      "glórias": 7118,
      "inspirar": 7119,
      "síla": 7120,
      "escapa": 7121,
      "cansaço": 7122,
      "caixeiro": 7123,
      "coleção": 7124,
      "inventou": 7125,
      "limitou": 7126,
      "anunciou": 7127,
      "advertiu": 7128,
      "machadodeassis": 7129,
      "comunicar": 7130,
      "queixo": 7131,
      "caprichos": 7132,
      "argumento": 7133,
      "especialmente": 7134,
      "significação": 7135,
      "moderno": 7136,
      "cumprimentou": 7137,
      "perspi": 7138,
      "arriscar": 7139,
      "administra": 7140,
      "selva": 7141,
      "suprema": 7142,
      "repugn": 7143,
      "sampson": 7144,
      "magistrado": 7145,
      "algarismos": 7146,
      "repentinamente": 7147,
      "denomina": 7148,
      "ossímil": 7149,
      "garganta": 7150,
      "indústria": 7151,
      "obedi": 7152,
      "www2": 7153,
      "28": 7154,
      "aces": 7155,
      "díssima": 7156,
      "hô": 7157,
      "uru": 7158,
      "esma": 7159,
      "esfre": 7160,
      "cobre": 7161,
      "mala": 7162,
      "maquin": 7163,
      "madeira": 7164,
      "recado": 7165,
      "alo": 7166,
      "alvi": 7167,
      "rodas": 7168,
      "embria": 7169,
      "rima": 7170,
      "vação": 7171,
      "pací": 7172,
      "sobran": 7173,
      "tuo": 7174,
      "voca": 7175,
      "dispensa": 7176,
      "prefácio": 7177,
      "unidade": 7178,
      "tesouro": 7179,
      "jogar": 7180,
      "trun": 7181,
      "faze": 7182,
      "impas": 7183,
      "veneno": 7184,
      "indagar": 7185,
      "voltasse": 7186,
      "deixado": 7187,
      "ceno": 7188,
      "pergunto": 7189,
      "couro": 7190,
      "acum": 7191,
      "interlocu": 7192,
      "amaral": 7193,
      "partici": 7194,
      "índice": 7195,
      "amorosa": 7196,
      "médicos": 7197,
      "ônias": 7198,
      "lendor": 7199,
      "solitária": 7200,
      "espanha": 7201,
      "tomado": 7202,
      "fantás": 7203,
      "confiou": 7204,
      "vivamente": 7205,
      "ligeira": 7206,
      "quantia": 7207,
      "conservador": 7208,
      "cruzeiro": 7209,
      "respirou": 7210,
      "procurador": 7211,
      "caracter": 7212,
      "sacudiu": 7213,
      "juramento": 7214,
      "romano": 7215,
      "americano": 7216,
      "aumen": 7217,
      "risonha": 7218,
      "eloqüência": 7219,
      "galeria": 7220,
      "testemunhas": 7221,
      "fórmula": 7222,
      "carruagem": 7223,
      "naufrágio": 7224,
      "rochinha": 7225,
      "atira": 7226,
      "iário": 7227,
      "lpe": 7228,
      "uras": 7229,
      "çura": 7230,
      "devas": 7231,
      "assentou": 7232,
      "dol": 7233,
      "engraça": 7234,
      "erros": 7235,
      "altera": 7236,
      "alusão": 7237,
      "ouvisse": 7238,
      "paci": 7239,
      "pagou": 7240,
      "dit": 7241,
      "consó": 7242,
      "tratado": 7243,
      "descrição": 7244,
      "fios": 7245,
      "çados": 7246,
      "dista": 7247,
      "disposições": 7248,
      "cere": 7249,
      "elevado": 7250,
      "carn": 7251,
      "pico": 7252,
      "pidas": 7253,
      "imperi": 7254,
      "fortu": 7255,
      "negou": 7256,
      "ânde": 7257,
      "anteci": 7258,
      "pálpe": 7259,
      "escrevendo": 7260,
      "mercantil": 7261,
      "trazendo": 7262,
      "naqueles": 7263,
      "louren": 7264,
      "conversava": 7265,
      "prende": 7266,
      "convento": 7267,
      "planta": 7268,
      "plantas": 7269,
      "júri": 7270,
      "abertura": 7271,
      "diverso": 7272,
      "espantada": 7273,
      "chegaria": 7274,
      "objeção": 7275,
      "merecem": 7276,
      "demorar": 7277,
      "diretamente": 7278,
      "resoluto": 7279,
      "elisiário": 7280,
      "imaginou": 7281,
      "interrogou": 7282,
      "apresentado": 7283,
      "discreto": 7284,
      "preocupações": 7285,
      "conciliar": 7286,
      "salvação": 7287,
      "realizar": 7288,
      "estrofes": 7289,
      "penetrar": 7290,
      "plácido": 7291,
      "tornei": 7292,
      "elevada": 7293,
      "reveren": 7294,
      "emendou": 7295,
      "assinatura": 7296,
      "encerra": 7297,
      "estréia": 7298,
      "regaço": 7299,
      "sacerdote": 7300,
      "ímpetos": 7301,
      "vínculo": 7302,
      "serenidade": 7303,
      "enfiou": 7304,
      "levantei": 7305,
      "introduz": 7306,
      "círculo": 7307,
      "catástrofe": 7308,
      "bronze": 7309,
      "audácia": 7310,
      "lourenço": 7311,
      "aval": 7312,
      "bó": 7313,
      "fla": 7314,
      "gantes": 7315,
      "iou": 7316,
      "ocorreu": 7317,
      "ence": 7318,
      "colar": 7319,
      "armar": 7320,
      "inva": 7321,
      "erre": 7322,
      "alho": 7323,
      "altos": 7324,
      "vigo": 7325,
      "tratando": 7326,
      "desconso": 7327,
      "desfecho": 7328,
      "parabé": 7329,
      "verás": 7330,
      "fadiga": 7331,
      "cego": 7332,
      "cardo": 7333,
      "troco": 7334,
      "passasse": 7335,
      "puras": 7336,
      "bico": 7337,
      "beco": 7338,
      "faltou": 7339,
      "tinhas": 7340,
      "temporal": 7341,
      "chefes": 7342,
      "valha": 7343,
      "gostos": 7344,
      "seguia": 7345,
      "seguiram": 7346,
      "lhava": 7347,
      "loso": 7348,
      "ouviram": 7349,
      "autos": 7350,
      "acadê": 7351,
      "ficamente": 7352,
      "antonio": 7353,
      "tími": 7354,
      "gastar": 7355,
      "buenos": 7356,
      "treze": 7357,
      "criador": 7358,
      "balbu": 7359,
      "sussur": 7360,
      "homenagem": 7361,
      "peral": 7362,
      "fraca": 7363,
      "viúvo": 7364,
      "chegamos": 7365,
      "ônicas": 7366,
      "contrária": 7367,
      "elogios": 7368,
      "acudir": 7369,
      "sociedades": 7370,
      "fechadas": 7371,
      "plice": 7372,
      "positivamente": 7373,
      "deveres": 7374,
      "contentamento": 7375,
      "referir": 7376,
      "façam": 7377,
      "concorr": 7378,
      "impresso": 7379,
      "proveito": 7380,
      "apoio": 7381,
      "ajudar": 7382,
      "examinou": 7383,
      "inimigos": 7384,
      "negativa": 7385,
      "cláusula": 7386,
      "resignação": 7387,
      "vencedor": 7388,
      "assassina": 7389,
      "alfaia": 7390,
      "exercício": 7391,
      "atmosfera": 7392,
      "parabéns": 7393,
      "brito": 7394,
      "ds": 7395,
      "epí": 7396,
      "fante": 7397,
      "nhas": 7398,
      "ípro": 7399,
      "inesperada": 7400,
      "tolos": 7401,
      "tolera": 7402,
      "reú": 7403,
      "alter": 7404,
      "anu": 7405,
      "ouri": 7406,
      "sopra": 7407,
      "vivem": 7408,
      "desfazer": 7409,
      "ligar": 7410,
      "ficá": 7411,
      "sicas": 7412,
      "veí": 7413,
      "leia": 7414,
      "casá": 7415,
      "casco": 7416,
      "terói": 7417,
      "lucro": 7418,
      "espinhos": 7419,
      "impetu": 7420,
      "fecunda": 7421,
      "niterói": 7422,
      "bral": 7423,
      "jaz": 7424,
      "cantava": 7425,
      "lábio": 7426,
      "abran": 7427,
      "vidades": 7428,
      "sinis": 7429,
      "sinta": 7430,
      "riosa": 7431,
      "consci": 7432,
      "solteira": 7433,
      "cinto": 7434,
      "boatos": 7435,
      "esperei": 7436,
      "peixe": 7437,
      "sábio": 7438,
      "código": 7439,
      "recípro": 7440,
      "companheira": 7441,
      "desenho": 7442,
      "acharia": 7443,
      "plane": 7444,
      "herdeiro": 7445,
      "calados": 7446,
      "satisfazer": 7447,
      "diretor": 7448,
      "pretendentes": 7449,
      "secretário": 7450,
      "delito": 7451,
      "ignorava": 7452,
      "aproximava": 7453,
      "promessas": 7454,
      "orgulh": 7455,
      "diminuir": 7456,
      "restituir": 7457,
      "atôni": 7458,
      "publicar": 7459,
      "jóia": 7460,
      "tornando": 7461,
      "puxou": 7462,
      "espectadores": 7463,
      "portuguesa": 7464,
      "administração": 7465,
      "aparentemente": 7466,
      "quitanda": 7467,
      "azuis": 7468,
      "tribunal": 7469,
      "girardin": 7470,
      "26": 7471,
      "by": 7472,
      "bram": 7473,
      "cên": 7474,
      "equí": 7475,
      "neu": 7476,
      "odi": 7477,
      "vência": 7478,
      "xvi": 7479,
      "doçura": 7480,
      "colu": 7481,
      "comeu": 7482,
      "reter": 7483,
      "revol": 7484,
      "metro": 7485,
      "mencionar": 7486,
      "vigor": 7487,
      "resse": 7488,
      "portão": 7489,
      "despa": 7490,
      "lière": 7491,
      "sir": 7492,
      "sug": 7493,
      "sura": 7494,
      "volo": 7495,
      "castan": 7496,
      "parável": 7497,
      "gavam": 7498,
      "promo": 7499,
      "procis": 7500,
      "comovido": 7501,
      "posteridade": 7502,
      "cortinas": 7503,
      "tendências": 7504,
      "espuma": 7505,
      "vian": 7506,
      "tanilha": 7507,
      "quieto": 7508,
      "bili": 7509,
      "cantes": 7510,
      "poderiam": 7511,
      "negra": 7512,
      "membro": 7513,
      "estável": 7514,
      "compunha": 7515,
      "achas": 7516,
      "solta": 7517,
      "solteiro": 7518,
      "interveio": 7519,
      "farmá": 7520,
      "falara": 7521,
      "brandura": 7522,
      "admirou": 7523,
      "acabaram": 7524,
      "atender": 7525,
      "campa": 7526,
      "quintanilha": 7527,
      "animar": 7528,
      "pulsos": 7529,
      "aperto": 7530,
      "exclamação": 7531,
      "léguas": 7532,
      "imitação": 7533,
      "insistência": 7534,
      "delicioso": 7535,
      "erguendo": 7536,
      "convidado": 7537,
      "delicadeza": 7538,
      "derradeiro": 7539,
      "estreita": 7540,
      "absoluto": 7541,
      "organização": 7542,
      "delícias": 7543,
      "ensinar": 7544,
      "estrangeiro": 7545,
      "cobrir": 7546,
      "miúdo": 7547,
      "fidalgo": 7548,
      "mármore": 7549,
      "catete": 7550,
      "incômodo": 7551,
      "pesadelo": 7552,
      "bentinho": 7553,
      "cachorro": 7554,
      "amei": 7555,
      "cle": 7556,
      "pós": 7557,
      "rão": 7558,
      "rús": 7559,
      "xas": 7560,
      "ína": 7561,
      "deson": 7562,
      "rapé": 7563,
      "envel": 7564,
      "ensai": 7565,
      "terem": 7566,
      "toler": 7567,
      "matou": 7568,
      "pomb": 7569,
      "alá": 7570,
      "elétri": 7571,
      "molière": 7572,
      "lhões": 7573,
      "patri": 7574,
      "comi": 7575,
      "reser": 7576,
      "restos": 7577,
      "ressur": 7578,
      "desconfiança": 7579,
      "desvane": 7580,
      "lago": 7581,
      "suí": 7582,
      "vores": 7583,
      "voil": 7584,
      "estres": 7585,
      "prejudi": 7586,
      "tarda": 7587,
      "pim": 7588,
      "lás": 7589,
      "perguntando": 7590,
      "calo": 7591,
      "guaí": 7592,
      "esqueleto": 7593,
      "tristemente": 7594,
      "rompe": 7595,
      "benja": 7596,
      "réde": 7597,
      "cavaleiro": 7598,
      "animada": 7599,
      "completar": 7600,
      "obrigar": 7601,
      "fáceis": 7602,
      "conclui": 7603,
      "guerreiro": 7604,
      "ônico": 7605,
      "arrancou": 7606,
      "digam": 7607,
      "comédias": 7608,
      "apertando": 7609,
      "1863": 7610,
      "dominar": 7611,
      "cabocla": 7612,
      "elegantes": 7613,
      "adversário": 7614,
      "golpes": 7615,
      "conservou": 7616,
      "dificilmente": 7617,
      "atravessar": 7618,
      "ansiosa": 7619,
      "negociante": 7620,
      "remoto": 7621,
      "silenciosamente": 7622,
      "dolorosa": 7623,
      "manifestação": 7624,
      "revelou": 7625,
      "documentos": 7626,
      "esmola": 7627,
      "ingênua": 7628,
      "alheio": 7629,
      "responsabilidade": 7630,
      "consórcio": 7631,
      "voilà": 7632,
      "?'": 7633,
      "acompanh": 7634,
      "gramá": 7635,
      "hé": 7636,
      "irem": 7637,
      "leste": 7638,
      "olím": 7639,
      "ró": 7640,
      "xes": 7641,
      "debates": 7642,
      "determina": 7643,
      "degraus": 7644,
      "ester": 7645,
      "cozinha": 7646,
      "invá": 7647,
      "iando": 7648,
      "alf": 7649,
      "alfin": 7650,
      "romeu": 7651,
      "rolas": 7652,
      "ricardo": 7653,
      "mendes": 7654,
      "tuar": 7655,
      "verdades": 7656,
      "supôs": 7657,
      "volu": 7658,
      "vocá": 7659,
      "mura": 7660,
      "mentel": 7661,
      "peguei": 7662,
      "dispôs": 7663,
      "dissemos": 7664,
      "bote": 7665,
      "bone": 7666,
      "carlinhos": 7667,
      "sensível": 7668,
      "duos": 7669,
      "sermão": 7670,
      "morrido": 7671,
      "ruído": 7672,
      "pias": 7673,
      "chamo": 7674,
      "force": 7675,
      "gravemente": 7676,
      "neve": 7677,
      "integra": 7678,
      "volte": 7679,
      "visconde": 7680,
      "baru": 7681,
      "crimes": 7682,
      "conheces": 7683,
      "çasse": 7684,
      "srs": 7685,
      "passadas": 7686,
      "calcu": 7687,
      "calçada": 7688,
      "silva": 7689,
      "conster": 7690,
      "adora": 7691,
      "bastos": 7692,
      "andavam": 7693,
      "escolheu": 7694,
      "claridade": 7695,
      "espetáculos": 7696,
      "aprovou": 7697,
      "caminhando": 7698,
      "amarga": 7699,
      "recentes": 7700,
      "cionários": 7701,
      "futuras": 7702,
      "dívidas": 7703,
      "irmãs": 7704,
      "aparências": 7705,
      "caixinha": 7706,
      "dirigi": 7707,
      "secretária": 7708,
      "subitamente": 7709,
      "acrescenta": 7710,
      "itaguaí": 7711,
      "padecia": 7712,
      "republi": 7713,
      "possam": 7714,
      "hábil": 7715,
      "caíram": 7716,
      "significa": 7717,
      "generoso": 7718,
      "canapé": 7719,
      "areia": 7720,
      "bonds": 7721,
      "espectador": 7722,
      "anúncios": 7723,
      "robusto": 7724,
      "expansão": 7725,
      "engoli": 7726,
      "dezesseis": 7727,
      "iniciativa": 7728,
      "espontâne": 7729,
      "solicitude": 7730,
      "aliança": 7731,
      "pistola": 7732,
      "empréstimo": 7733,
      "explosão": 7734,
      "acumu": 7735,
      "envelhe": 7736,
      "\",": 7737,
      ");": 7738,
      "atur": 7739,
      "avan": 7740,
      "apagar": 7741,
      "blem": 7742,
      "cível": 7743,
      "dumas": 7744,
      "iron": 7745,
      "opul": 7746,
      "zos": 7747,
      "érias": 7748,
      "íram": 7749,
      "ól": 7750,
      "det": 7751,
      "escala": 7752,
      "quinho": 7753,
      "sege": 7754,
      "davi": 7755,
      "arque": 7756,
      "tac": 7757,
      "embaix": 7758,
      "ousava": 7759,
      "capo": 7760,
      "caio": 7761,
      "cacho": 7762,
      "dile": 7763,
      "combin": 7764,
      "novidades": 7765,
      "nacionais": 7766,
      "sopro": 7767,
      "sais": 7768,
      "vidro": 7769,
      "resga": 7770,
      "deslum": 7771,
      "sig": 7772,
      "votar": 7773,
      "munha": 7774,
      "entriste": 7775,
      "pares": 7776,
      "protesta": 7777,
      "pretos": 7778,
      "carde": 7779,
      "sereno": 7780,
      "pimentel": 7781,
      "parecesse": 7782,
      "mann": 7783,
      "mandado": 7784,
      "gratu": 7785,
      "bebeu": 7786,
      "jam": 7787,
      "sousa": 7788,
      "compla": 7789,
      "furor": 7790,
      "barri": 7791,
      "jantou": 7792,
      "esperasse": 7793,
      "ássemos": 7794,
      "entram": 7795,
      "bula": 7796,
      "saltou": 7797,
      "almada": 7798,
      "adoração": 7799,
      "houvera": 7800,
      "capítulos": 7801,
      "naquelas": 7802,
      "sentindo": 7803,
      "lindos": 7804,
      "prender": 7805,
      "circular": 7806,
      "elogi": 7807,
      "convivência": 7808,
      "imaginava": 7809,
      "daquilo": 7810,
      "resolver": 7811,
      "enganar": 7812,
      "prazeres": 7813,
      "julga": 7814,
      "ouviam": 7815,
      "preferiu": 7816,
      "oferecia": 7817,
      "limite": 7818,
      "corridas": 7819,
      "grossas": 7820,
      "1878": 7821,
      "correspondência": 7822,
      "sinceros": 7823,
      "ordenado": 7824,
      "brincar": 7825,
      "friamente": 7826,
      "enferma": 7827,
      "apresentava": 7828,
      "assustado": 7829,
      "grão": 7830,
      "magnífica": 7831,
      "silenciosa": 7832,
      "americana": 7833,
      "temperamento": 7834,
      "estrangeiros": 7835,
      "pássaro": 7836,
      "narrativa": 7837,
      "governador": 7838,
      "emiliana": 7839,
      "vertigem": 7840,
      "bernardo": 7841,
      "escrúpulo": 7842,
      "mariquinhas": 7843,
      "variedade": 7844,
      "bárbar": 7845,
      "inocêncio": 7846,
      "tronco": 7847,
      "exército": 7848,
      "dollar": 7849,
      "coluna": 7850,
      "alfânde": 7851,
      "acion": 7852,
      "blas": 7853,
      "mestres": 7854,
      "nista": 7855,
      "ota": 7856,
      "vinda": 7857,
      "xix": 7858,
      "ácia": 7859,
      "deves": 7860,
      "doía": 7861,
      "entanto": 7862,
      "tez": 7863,
      "tome": 7864,
      "tamo": 7865,
      "taça": 7866,
      "reles": 7867,
      "poço": 7868,
      "almoça": 7869,
      "monar": 7870,
      "dico": 7871,
      "contá": 7872,
      "contendo": 7873,
      "sacristia": 7874,
      "tus": 7875,
      "logos": 7876,
      "descendo": 7877,
      "laços": 7878,
      "fiar": 7879,
      "fitando": 7880,
      "parenta": 7881,
      "perderam": 7882,
      "usou": 7883,
      "dissua": 7884,
      "marinheiro": 7885,
      "dulidade": 7886,
      "dupla": 7887,
      "esplendor": 7888,
      "manha": 7889,
      "imó": 7890,
      "federa": 7891,
      "credulidade": 7892,
      "pour": 7893,
      "zam": 7894,
      "feiti": 7895,
      "futura": 7896,
      "crita": 7897,
      "levemente": 7898,
      "livra": 7899,
      "livres": 7900,
      "entravam": 7901,
      "tremia": 7902,
      "calmo": 7903,
      "curá": 7904,
      "pintar": 7905,
      "borda": 7906,
      "indicar": 7907,
      "tristezas": 7908,
      "ínfi": 7909,
      "clarão": 7910,
      "desam": 7911,
      "linas": 7912,
      "lindas": 7913,
      "receberam": 7914,
      "arranjou": 7915,
      "apressou": 7916,
      "pancada": 7917,
      "reconhecimento": 7918,
      "ausente": 7919,
      "1860": 7920,
      "acreditou": 7921,
      "aparel": 7922,
      "regras": 7923,
      "pretende": 7924,
      "secretaria": 7925,
      "imaginei": 7926,
      "municí": 7927,
      "ordinário": 7928,
      "habitual": 7929,
      "dificuldades": 7930,
      "exprimir": 7931,
      "organiz": 7932,
      "escolhido": 7933,
      "repetição": 7934,
      "familiaridade": 7935,
      "amasse": 7936,
      "disfarçar": 7937,
      "elevação": 7938,
      "enfado": 7939,
      "encostado": 7940,
      "demonstra": 7941,
      "montanhas": 7942,
      "álbum": 7943,
      "reproduzir": 7944,
      "adoeceu": 7945,
      "dezessete": 7946,
      "monólogo": 7947,
      "afian": 7948,
      "trimônio": 7949,
      "preguiça": 7950,
      "fúnebre": 7951,
      "repartição": 7952,
      "aniversário": 7953,
      "incrédu": 7954,
      "ironia": 7955,
      "29": 7956,
      "atirar": 7957,
      "bir": 7958,
      "cxx": 7959,
      "dói": 7960,
      "nesses": 7961,
      "pina": 7962,
      "xviii": 7963,
      "ídas": 7964,
      "ústia": 7965,
      "desor": 7966,
      "rato": 7967,
      "quinha": 7968,
      "quanti": 7969,
      "dobrou": 7970,
      "cola": 7971,
      "danças": 7972,
      "inqu": 7973,
      "tola": 7974,
      "eru": 7975,
      "anfi": 7976,
      "medí": 7977,
      "metida": 7978,
      "menta": 7979,
      "vidra": 7980,
      "traços": 7981,
      "veia": 7982,
      "vexa": 7983,
      "lean": 7984,
      "leves": 7985,
      "legal": 7986,
      "supli": 7987,
      "supondo": 7988,
      "vora": 7989,
      "entro": 7990,
      "perdem": 7991,
      "caria": 7992,
      "espá": 7993,
      "espes": 7994,
      "pareça": 7995,
      "presas": 7996,
      "formal": 7997,
      "netos": 7998,
      "falas": 7999,
      "gicas": 8000,
      "jucunda": 8001,
      "lhada": 8002,
      "ângu": 8003,
      "geo": 8004,
      "funções": 8005,
      "moralidade": 8006,
      "hospeda": 8007,
      "escrevera": 8008,
      "seriamente": 8009,
      "escolhe": 8010,
      "sabiam": 8011,
      "subindo": 8012,
      "honras": 8013,
      "turno": 8014,
      "voltaire": 8015,
      "explicava": 8016,
      "cumpriu": 8017,
      "benevol": 8018,
      "ocupado": 8019,
      "abraçar": 8020,
      "semelhantes": 8021,
      "levaria": 8022,
      "mandara": 8023,
      "segredos": 8024,
      "julgou": 8025,
      "respeitável": 8026,
      "soluços": 8027,
      "venham": 8028,
      "violento": 8029,
      "poltrona": 8030,
      "respira": 8031,
      "respirar": 8032,
      "necessários": 8033,
      "concepção": 8034,
      "arrependimento": 8035,
      "remota": 8036,
      "exigia": 8037,
      "pusesse": 8038,
      "proteção": 8039,
      "inclinação": 8040,
      "lusbela": 8041,
      "alteração": 8042,
      "cálculos": 8043,
      "angústia": 8044,
      "esquisito": 8045,
      "esplêndida": 8046,
      "gracejo": 8047,
      "ayres": 8048,
      "injúria": 8049,
      "orçamento": 8050,
      "gabriela": 8051,
      "idên": 8052,
      "associação": 8053,
      "historia": 8054,
      "ourives": 8055,
      "medío": 8056,
      "agente": 8057,
      "ceste": 8058,
      "ep": 8059,
      "ico": 8060,
      "iremos": 8061,
      "nior": 8062,
      "xv": 8063,
      "óculo": 8064,
      "rama": 8065,
      "quo": 8066,
      "doentes": 8067,
      "covar": 8068,
      "copia": 8069,
      "involun": 8070,
      "issões": 8071,
      "alon": 8072,
      "almei": 8073,
      "ousar": 8074,
      "caço": 8075,
      "cabia": 8076,
      "pag": 8077,
      "tidade": 8078,
      "comem": 8079,
      "comparar": 8080,
      "sof": 8081,
      "soluta": 8082,
      "saram": 8083,
      "sagaz": 8084,
      "hados": 8085,
      "havê": 8086,
      "vie": 8087,
      "vias": 8088,
      "port": 8089,
      "traço": 8090,
      "lojas": 8091,
      "lacu": 8092,
      "vola": 8093,
      "fadas": 8094,
      "famosa": 8095,
      "cartório": 8096,
      "marcos": 8097,
      "servem": 8098,
      "tardes": 8099,
      "mortas": 8100,
      "jovens": 8101,
      "pasta": 8102,
      "credor": 8103,
      "pudera": 8104,
      "lário": 8105,
      "entrega": 8106,
      "absoluta": 8107,
      "nascem": 8108,
      "voltas": 8109,
      "lírica": 8110,
      "coupé": 8111,
      "vaso": 8112,
      "consti": 8113,
      "soltas": 8114,
      "inclu": 8115,
      "pensado": 8116,
      "ganho": 8117,
      "hasse": 8118,
      "imagino": 8119,
      "falado": 8120,
      "achamos": 8121,
      "admirava": 8122,
      "aceitava": 8123,
      "prendas": 8124,
      "curiosos": 8125,
      "júnior": 8126,
      "prometo": 8127,
      "produzido": 8128,
      "crescia": 8129,
      "abatida": 8130,
      "definir": 8131,
      "impressio": 8132,
      "únia": 8133,
      "tenham": 8134,
      "nobreza": 8135,
      "conservatório": 8136,
      "esquerdo": 8137,
      "folhetin": 8138,
      "érbio": 8139,
      "aparecem": 8140,
      "aproveitar": 8141,
      "desgraçado": 8142,
      "damasceno": 8143,
      "furtado": 8144,
      "testemunha": 8145,
      "douvre": 8146,
      "apaixonada": 8147,
      "intervalos": 8148,
      "enxugou": 8149,
      "aroma": 8150,
      "lembrei": 8151,
      "vexado": 8152,
      "cordial": 8153,
      "monstro": 8154,
      "cantiga": 8155,
      "confusa": 8156,
      "alvitre": 8157,
      "alfândega": 8158,
      "amu": 8159,
      "acost": 8160,
      "agres": 8161,
      "bá": 8162,
      "dário": 8163,
      "egi": 8164,
      "fel": 8165,
      "fase": 8166,
      "lun": 8167,
      "põem": 8168,
      "rés": 8169,
      "well": 8170,
      "xos": 8171,
      "xvii": 8172,
      "enfor": 8173,
      "encomenda": 8174,
      "cobria": 8175,
      "inexplicável": 8176,
      "ist": 8177,
      "mam": 8178,
      "caído": 8179,
      "vaca": 8180,
      "mex": 8181,
      "pati": 8182,
      "digi": 8183,
      "comia": 8184,
      "mendi": 8185,
      "sozinha": 8186,
      "respostas": 8187,
      "guem": 8188,
      "pormenores": 8189,
      "traga": 8190,
      "desis": 8191,
      "dose": 8192,
      "lamb": 8193,
      "gola": 8194,
      "veria": 8195,
      "sual": 8196,
      "dispunha": 8197,
      "fagun": 8198,
      "estacou": 8199,
      "cedia": 8200,
      "proi": 8201,
      "prefere": 8202,
      "ion": 8203,
      "veloso": 8204,
      "mbra": 8205,
      "chamá": 8206,
      "bebe": 8207,
      "deusa": 8208,
      "meira": 8209,
      "costura": 8210,
      "gias": 8211,
      "horácio": 8212,
      "ferreira": 8213,
      "pesado": 8214,
      "lhados": 8215,
      "orá": 8216,
      "vestuário": 8217,
      "ficações": 8218,
      "contradição": 8219,
      "almana": 8220,
      "almanaque": 8221,
      "consis": 8222,
      "soldado": 8223,
      "incêndio": 8224,
      "pádua": 8225,
      "alegra": 8226,
      "sérios": 8227,
      "apraz": 8228,
      "continuei": 8229,
      "cultura": 8230,
      "vêem": 8231,
      "harmoni": 8232,
      "romp": 8233,
      "desaparecer": 8234,
      "recém": 8235,
      "guilher": 8236,
      "afroux": 8237,
      "crates": 8238,
      "voltaria": 8239,
      "urgente": 8240,
      "tornavam": 8241,
      "1865": 8242,
      "acabaria": 8243,
      "trouxera": 8244,
      "positivo": 8245,
      "singularmente": 8246,
      "respeita": 8247,
      "oficiais": 8248,
      "lúvio": 8249,
      "viviam": 8250,
      "distraído": 8251,
      "aproximar": 8252,
      "inquieto": 8253,
      "construção": 8254,
      "estabelecimento": 8255,
      "generosidade": 8256,
      "ridícula": 8257,
      "extinta": 8258,
      "patrí": 8259,
      "persis": 8260,
      "classes": 8261,
      "domínio": 8262,
      "legítimo": 8263,
      "perpétuo": 8264,
      "afronta": 8265,
      "produto": 8266,
      "bigodes": 8267,
      "mágoas": 8268,
      "freguês": 8269,
      "relâmpa": 8270,
      "móveis": 8271,
      "feroz": 8272,
      "comunhão": 8273,
      "adjetivo": 8274,
      "vestígio": 8275,
      "ingenuidade": 8276,
      "ancião": 8277,
      "concorrência": 8278,
      "almeida": 8279,
      "fagundes": 8280,
      "avul": 8281,
      "cros": 8282,
      "centes": 8283,
      "pesta": 8284,
      "rum": 8285,
      "una": 8286,
      "veiro": 8287,
      "devol": 8288,
      "assombra": 8289,
      "damos": 8290,
      "teremos": 8291,
      "tografia": 8292,
      "alí": 8293,
      "caeta": 8294,
      "vada": 8295,
      "contes": 8296,
      "meninas": 8297,
      "havemos": 8298,
      "porte": 8299,
      "despos": 8300,
      "supri": 8301,
      "pedem": 8302,
      "pegando": 8303,
      "gais": 8304,
      "cede": 8305,
      "exci": 8306,
      "comoções": 8307,
      "carí": 8308,
      "mare": 8309,
      "martim": 8310,
      "irre": 8311,
      "tesou": 8312,
      "primas": 8313,
      "tenção": 8314,
      "mbre": 8315,
      "roubo": 8316,
      "gira": 8317,
      "valeu": 8318,
      "derre": 8319,
      "vestida": 8320,
      "aquiles": 8321,
      "acabando": 8322,
      "ânsia": 8323,
      "deitando": 8324,
      "cista": 8325,
      "tóvão": 8326,
      "calúnia": 8327,
      "portador": 8328,
      "cinta": 8329,
      "lano": 8330,
      "genti": 8331,
      "curvou": 8332,
      "amavam": 8333,
      "escrevente": 8334,
      "sessões": 8335,
      "sonhou": 8336,
      "preench": 8337,
      "acabam": 8338,
      "entendido": 8339,
      "formado": 8340,
      "banquete": 8341,
      "figurava": 8342,
      "levara": 8343,
      "cristóvão": 8344,
      "eternas": 8345,
      "punhal": 8346,
      "dirão": 8347,
      "cresce": 8348,
      "indiferentes": 8349,
      "aparelho": 8350,
      "afetação": 8351,
      "consulta": 8352,
      "consultou": 8353,
      "ville": 8354,
      "acender": 8355,
      "pertencia": 8356,
      "descanse": 8357,
      "embargo": 8358,
      "prático": 8359,
      "definitivo": 8360,
      "caprich": 8361,
      "regiões": 8362,
      "silencioso": 8363,
      "telegramas": 8364,
      "decisão": 8365,
      "apeti": 8366,
      "dissimulação": 8367,
      "independente": 8368,
      "conquista": 8369,
      "ruína": 8370,
      "náu": 8371,
      "científica": 8372,
      "gazette": 8373,
      "veneração": 8374,
      "utilidade": 8375,
      "aterrado": 8376,
      "manuscrito": 8377,
      "grécia": 8378,
      "maquinalmente": 8379,
      "benevolência": 8380,
      "almanaques": 8381,
      "guilherme": 8382,
      "caetano": 8383,
      "amos": 8384,
      "aconse": 8385,
      "eia": 8386,
      "fron": 8387,
      "gris": 8388,
      "lenta": 8389,
      "ple": 8390,
      "rinhas": 8391,
      "vário": 8392,
      "víamos": 8393,
      "ys": 8394,
      "devan": 8395,
      "deposi": 8396,
      "rabe": 8397,
      "espar": 8398,
      "ascen": 8399,
      "envolta": 8400,
      "coto": 8401,
      "terei": 8402,
      "insol": 8403,
      "injustiça": 8404,
      "insupor": 8405,
      "iava": 8406,
      "matem": 8407,
      "maran": 8408,
      "malu": 8409,
      "antro": 8410,
      "antão": 8411,
      "mota": 8412,
      "caran": 8413,
      "vaci": 8414,
      "dila": 8415,
      "conces": 8416,
      "contado": 8417,
      "consenti": 8418,
      "consol": 8419,
      "consentimento": 8420,
      "convul": 8421,
      "comendo": 8422,
      "compadre": 8423,
      "solo": 8424,
      "vic": 8425,
      "respondo": 8426,
      "tral": 8427,
      "desenh": 8428,
      "parada": 8429,
      "parando": 8430,
      "distas": 8431,
      "cheira": 8432,
      "garan": 8433,
      "prodí": 8434,
      "carinhos": 8435,
      "maridos": 8436,
      "irman": 8437,
      "teses": 8438,
      "enteada": 8439,
      "jack": 8440,
      "cantou": 8441,
      "deixem": 8442,
      "péia": 8443,
      "pérolas": 8444,
      "cessou": 8445,
      "douro": 8446,
      "finanças": 8447,
      "gasta": 8448,
      "entranhas": 8449,
      "trechos": 8450,
      "caldas": 8451,
      "saltar": 8452,
      "lande": 8453,
      "susten": 8454,
      "sérias": 8455,
      "fér": 8456,
      "negreiros": 8457,
      "amargura": 8458,
      "repete": 8459,
      "prendia": 8460,
      "acontecia": 8461,
      "fábri": 8462,
      "dignos": 8463,
      "arranjo": 8464,
      "brasileiros": 8465,
      "encontrava": 8466,
      "confiar": 8467,
      "confidências": 8468,
      "fechava": 8469,
      "resolvi": 8470,
      "aborrecer": 8471,
      "lembrando": 8472,
      "agradecimento": 8473,
      "acrescentando": 8474,
      "constitucional": 8475,
      "193": 8476,
      "distrair": 8477,
      "apanhou": 8478,
      "fechando": 8479,
      "frutos": 8480,
      "grupos": 8481,
      "caminhava": 8482,
      "colcho": 8483,
      "estrofe": 8484,
      "sagrada": 8485,
      "máscara": 8486,
      "afabilidade": 8487,
      "caíam": 8488,
      "coimbra": 8489,
      "anônima": 8490,
      "anônimo": 8491,
      "frouxa": 8492,
      "hollande": 8493,
      "***": 8494,
      "pomba": 8495,
      "tolice": 8496,
      "cigarro": 8497,
      "razoável": 8498,
      "clero": 8499,
      "adolescência": 8500,
      "sobrancel": 8501,
      "equívo": 8502,
      "inválidos": 8503,
      "egito": 8504,
      "27": 8505,
      "atado": 8506,
      "ativo": 8507,
      "ahas": 8508,
      "aposta": 8509,
      "bê": 8510,
      "efica": 8511,
      "ezas": 8512,
      "glos": 8513,
      "ime": 8514,
      "nhã": 8515,
      "oportu": 8516,
      "determinou": 8517,
      "ental": 8518,
      "coli": 8519,
      "dação": 8520,
      "teri": 8521,
      "teimou": 8522,
      "retó": 8523,
      "recreio": 8524,
      "refere": 8525,
      "altas": 8526,
      "alento": 8527,
      "elos": 8528,
      "timi": 8529,
      "tirá": 8530,
      "comba": 8531,
      "saga": 8532,
      "cies": 8533,
      "ressus": 8534,
      "descen": 8535,
      "desconhecida": 8536,
      "simu": 8537,
      "sivelmente": 8538,
      "verus": 8539,
      "çadas": 8540,
      "casto": 8541,
      "casando": 8542,
      "perfí": 8543,
      "estat": 8544,
      "proba": 8545,
      "pregar": 8546,
      "tostões": 8547,
      "carvalho": 8548,
      "rangel": 8549,
      "sensibilidade": 8550,
      "serpente": 8551,
      "...?": 8552,
      "baci": 8553,
      "corpos": 8554,
      "mandá": 8555,
      "fazes": 8556,
      "fazemos": 8557,
      "impedi": 8558,
      "implo": 8559,
      "chamas": 8560,
      "quiseram": 8561,
      "garre": 8562,
      "gicos": 8563,
      "líssi": 8564,
      "segui": 8565,
      "sing": 8566,
      "vossos": 8567,
      "explo": 8568,
      "hospício": 8569,
      "brigar": 8570,
      "sabê": 8571,
      "galinha": 8572,
      "galhar": 8573,
      "entenda": 8574,
      "tadamente": 8575,
      "chamada": 8576,
      "chegavam": 8577,
      "louco": 8578,
      "conversavam": 8579,
      "quinto": 8580,
      "quintal": 8581,
      "humanos": 8582,
      "beiços": 8583,
      "assum": 8584,
      "acordado": 8585,
      "afirmou": 8586,
      "pancadas": 8587,
      "prometia": 8588,
      "existem": 8589,
      "suspira": 8590,
      "trouxeram": 8591,
      "resulta": 8592,
      "dirigir": 8593,
      "preferência": 8594,
      "corrido": 8595,
      "convidar": 8596,
      "corresponder": 8597,
      "eleitorais": 8598,
      "freqüentes": 8599,
      "aproximando": 8600,
      "apareceram": 8601,
      "moléstias": 8602,
      "comunicou": 8603,
      "sucede": 8604,
      "aposento": 8605,
      "queixa": 8606,
      "estabelecer": 8607,
      "afastou": 8608,
      "extinto": 8609,
      "inventário": 8610,
      "emendar": 8611,
      "dominava": 8612,
      "cerimônias": 8613,
      "adquiriu": 8614,
      "perturba": 8615,
      "incumbi": 8616,
      "católico": 8617,
      "evaristo": 8618,
      "tábuas": 8619,
      "quimeras": 8620,
      "enigma": 8621,
      "laranj": 8622,
      "adriano": 8623,
      "imóvel": 8624,
      "município": 8625,
      "anfitri": 8626,
      "consolou": 8627,
      "ahasverus": 8628,
      "sagacidade": 8629,
      "ater": 8630,
      "apaga": 8631,
      "cínio": 8632,
      "grou": 8633,
      "iros": 8634,
      "ilhas": 8635,
      "imorta": 8636,
      "ny": 8637,
      "nhon": 8638,
      "ox": 8639,
      "ofícios": 8640,
      "renda": 8641,
      "íra": 8642,
      "deco": 8643,
      "esbel": 8644,
      "assemel": 8645,
      "quente": 8646,
      "enver": 8647,
      "armado": 8648,
      "matias": 8649,
      "cati": 8650,
      "capela": 8651,
      "cabal": 8652,
      "coment": 8653,
      "sacra": 8654,
      "licos": 8655,
      "pararam": 8656,
      "suger": 8657,
      "voar": 8658,
      "cassino": 8659,
      "musi": 8660,
      "mios": 8661,
      "mião": 8662,
      "midades": 8663,
      "usões": 8664,
      "chal": 8665,
      "gama": 8666,
      "bodas": 8667,
      "exal": 8668,
      "trocou": 8669,
      "durar": 8670,
      "cordas": 8671,
      "pendo": 8672,
      "joelho": 8673,
      "pitada": 8674,
      "manso": 8675,
      "tane": 8676,
      "prenda": 8677,
      "ministe": 8678,
      "bicos": 8679,
      "japão": 8680,
      "dormindo": 8681,
      "canção": 8682,
      "coste": 8683,
      "falcão": 8684,
      "reiras": 8685,
      "nasse": 8686,
      "nascera": 8687,
      "líbrio": 8688,
      "jurou": 8689,
      "jurar": 8690,
      "orques": 8691,
      "visões": 8692,
      "agonia": 8693,
      "esperavam": 8694,
      "deita": 8695,
      "vasse": 8696,
      "entrado": 8697,
      "entramos": 8698,
      "entrasse": 8699,
      "correção": 8700,
      "dáveis": 8701,
      "pátio": 8702,
      "físico": 8703,
      "sétimo": 8704,
      "orações": 8705,
      "crônicas": 8706,
      "viuvez": 8707,
      "achara": 8708,
      "morrera": 8709,
      "brancas": 8710,
      "indica": 8711,
      "sabina": 8712,
      "trazê": 8713,
      "esquecera": 8714,
      "atento": 8715,
      "animava": 8716,
      "honesta": 8717,
      "divin": 8718,
      "oriente": 8719,
      "origina": 8720,
      "companhias": 8721,
      "escutava": 8722,
      "pulsa": 8723,
      "convencer": 8724,
      "futuros": 8725,
      "inspirava": 8726,
      "tornara": 8727,
      "importantes": 8728,
      "resultados": 8729,
      "agitado": 8730,
      "respeitar": 8731,
      "concordo": 8732,
      "pediam": 8733,
      "anunciar": 8734,
      "corrida": 8735,
      "grossei": 8736,
      "conservava": 8737,
      "aparecesse": 8738,
      "vagamente": 8739,
      "munda": 8740,
      "familiares": 8741,
      "parisiense": 8742,
      "construir": 8743,
      "permite": 8744,
      "filósofos": 8745,
      "terminar": 8746,
      "globo": 8747,
      "discutir": 8748,
      "hamlet": 8749,
      "reverendo": 8750,
      "despesa": 8751,
      "revelar": 8752,
      "aboto": 8753,
      "transformação": 8754,
      "instrução": 8755,
      "soberano": 8756,
      "receios": 8757,
      "conceitos": 8758,
      "ímpeto": 8759,
      "decisiva": 8760,
      "afilhado": 8761,
      "juvenil": 8762,
      "anastá": 8763,
      "provincial": 8764,
      "inconsciente": 8765,
      "gramática": 8766,
      "nhonhô": 8767,
      "agas": 8768,
      "fle": 8769,
      "udo": 8770,
      "çan": 8771,
      "debalde": 8772,
      "rapa": 8773,
      "rapto": 8774,
      "encontr": 8775,
      "coberto": 8776,
      "queri": 8777,
      "toi": 8778,
      "mate": 8779,
      "reprodução": 8780,
      "modas": 8781,
      "catum": 8782,
      "rib": 8783,
      "mexi": 8784,
      "tirei": 8785,
      "confei": 8786,
      "desgostos": 8787,
      "cialidade": 8788,
      "pereira": 8789,
      "distrito": 8790,
      "fava": 8791,
      "cema": 8792,
      "problem": 8793,
      "expôs": 8794,
      "carol": 8795,
      "marias": 8796,
      "duros": 8797,
      "sertão": 8798,
      "pensasse": 8799,
      "privi": 8800,
      "viajante": 8801,
      "pidez": 8802,
      "impõe": 8803,
      "pusera": 8804,
      "bichos": 8805,
      "gostam": 8806,
      "pesquis": 8807,
      "volú": 8808,
      "granito": 8809,
      "barreto": 8810,
      "critos": 8811,
      "singela": 8812,
      "tremer": 8813,
      "consuma": 8814,
      "consent": 8815,
      "adotou": 8816,
      "pensativa": 8817,
      "precisas": 8818,
      "culou": 8819,
      "ínia": 8820,
      "sabeis": 8821,
      "especiais": 8822,
      "quartos": 8823,
      "chamando": 8824,
      "procurei": 8825,
      "nutri": 8826,
      "amorosas": 8827,
      "surgiu": 8828,
      "deixavam": 8829,
      "dignas": 8830,
      "escutar": 8831,
      "digamos": 8832,
      "empregados": 8833,
      "saímos": 8834,
      "assistiu": 8835,
      "interromper": 8836,
      "interrompido": 8837,
      "contemplando": 8838,
      "tornaram": 8839,
      "devoção": 8840,
      "resolvido": 8841,
      "resolu": 8842,
      "apreço": 8843,
      "advertência": 8844,
      "interrogação": 8845,
      "matérias": 8846,
      "suportar": 8847,
      "escondidas": 8848,
      "penetrou": 8849,
      "freqüente": 8850,
      "batatas": 8851,
      "fantasma": 8852,
      "fantasias": 8853,
      "aposentado": 8854,
      "humilde": 8855,
      "perdidas": 8856,
      "acanhado": 8857,
      "correntes": 8858,
      "doméstico": 8859,
      "seriedade": 8860,
      "vermelho": 8861,
      "obséquios": 8862,
      "esquiva": 8863,
      "desviar": 8864,
      "seguramente": 8865,
      "duvidoso": 8866,
      "escrúpulos": 8867,
      "evarista": 8868,
      "derrota": 8869,
      "pecuni": 8870,
      "suíças": 8871,
      "benjamim": 8872,
      "victor": 8873,
      "catumbi": 8874,
      "carolina": 8875,
      "31": 8876,
      "aci": 8877,
      "apara": 8878,
      "apode": 8879,
      "apreen": 8880,
      "dros": 8881,
      "eg": 8882,
      "lã": 8883,
      "plas": 8884,
      "deduz": 8885,
      "radi": 8886,
      "esias": 8887,
      "asno": 8888,
      "dotado": 8889,
      "teatra": 8890,
      "incu": 8891,
      "matá": 8892,
      "reper": 8893,
      "alti": 8894,
      "cativa": 8895,
      "rijo": 8896,
      "paul": 8897,
      "pagava": 8898,
      "tidos": 8899,
      "dilúvio": 8900,
      "mentir": 8901,
      "cidez": 8902,
      "tratei": 8903,
      "persevera": 8904,
      "botão": 8905,
      "cear": 8906,
      "probi": 8907,
      "cartão": 8908,
      "careta": 8909,
      "carnes": 8910,
      "temia": 8911,
      "margem": 8912,
      "duplo": 8913,
      "posti": 8914,
      "velar": 8915,
      "pendente": 8916,
      "rufina": 8917,
      "tendência": 8918,
      "casamentos": 8919,
      "presum": 8920,
      "impar": 8921,
      "vencida": 8922,
      "brado": 8923,
      "minh": 8924,
      "pudor": 8925,
      "puxa": 8926,
      "japon": 8927,
      "fugindo": 8928,
      "barco": 8929,
      "acabei": 8930,
      "doutrin": 8931,
      "sintoma": 8932,
      "bulos": 8933,
      "constan": 8934,
      "teima": 8935,
      "solto": 8936,
      "estiveram": 8937,
      "interrupção": 8938,
      "idamente": 8939,
      "entada": 8940,
      "morreram": 8941,
      "monumento": 8942,
      "claros": 8943,
      "frag": 8944,
      "ilustrada": 8945,
      "estupe": 8946,
      "afirmação": 8947,
      "romantismo": 8948,
      "abertos": 8949,
      "vícios": 8950,
      "estende": 8951,
      "suspeitou": 8952,
      "interrogar": 8953,
      "1876": 8954,
      "estremecer": 8955,
      "190": 8956,
      "atribuía": 8957,
      "trocaram": 8958,
      "escritores": 8959,
      "executar": 8960,
      "proceder": 8961,
      "discreta": 8962,
      "triunfante": 8963,
      "droga": 8964,
      "causou": 8965,
      "faleceu": 8966,
      "assentada": 8967,
      "diplomata": 8968,
      "acertado": 8969,
      "adivinhava": 8970,
      "confessava": 8971,
      "apresentação": 8972,
      "naufra": 8973,
      "desconfiar": 8974,
      "conjetura": 8975,
      "encarar": 8976,
      "consolações": 8977,
      "acostumado": 8978,
      "indiscreta": 8979,
      "retirada": 8980,
      "bênção": 8981,
      "informações": 8982,
      "perfume": 8983,
      "revól": 8984,
      "reuniões": 8985,
      "alcazar": 8986,
      "pueril": 8987,
      "costureira": 8988,
      "farmácia": 8989,
      "barulho": 8990,
      "leandro": 8991,
      "sobrancelhas": 8992,
      "comentários": 8993,
      "musical": 8994,
      "revólver": 8995,
      "!\"": 8996,
      "abaixou": 8997,
      "besta": 8998,
      "ceiros": 8999,
      "díamos": 9000,
      "ite": 9001,
      "lenda": 9002,
      "tíssima": 9003,
      "xad": 9004,
      ",": 9005,
      "demissão": 9006,
      "radiante": 9007,
      "osten": 9008,
      "envia": 9009,
      "enxo": 9010,
      "ardentes": 9011,
      "incen": 9012,
      "insensa": 9013,
      "tomei": 9014,
      "tomara": 9015,
      "mater": 9016,
      "rezas": 9017,
      "poesias": 9018,
      "alva": 9019,
      "rocio": 9020,
      "analis": 9021,
      "embara": 9022,
      "mob": 9023,
      "consentir": 9024,
      "nara": 9025,
      "portinho": 9026,
      "licas": 9027,
      "lices": 9028,
      "vocações": 9029,
      "entasse": 9030,
      "mimos": 9031,
      "precau": 9032,
      "carga": 9033,
      "marcondes": 9034,
      "cortou": 9035,
      "corney": 9036,
      "mormente": 9037,
      "casacas": 9038,
      "pasto": 9039,
      "impostos": 9040,
      "chamei": 9041,
      "forne": 9042,
      "nias": 9043,
      "canas": 9044,
      "vali": 9045,
      "pesada": 9046,
      "vissem": 9047,
      "conhecera": 9048,
      "gastava": 9049,
      "tárias": 9050,
      "virgin": 9051,
      "lançando": 9052,
      "lanterna": 9053,
      "varão": 9054,
      "gritou": 9055,
      "chamavam": 9056,
      "apropria": 9057,
      "louvores": 9058,
      "assí": 9059,
      "recesse": 9060,
      "transparente": 9061,
      "causava": 9062,
      "surdo": 9063,
      "levada": 9064,
      "apertado": 9065,
      "encontraram": 9066,
      "vulcano": 9067,
      "benefícios": 9068,
      "passeava": 9069,
      "júbi": 9070,
      "sítio": 9071,
      "ocupação": 9072,
      "tornam": 9073,
      "existir": 9074,
      "números": 9075,
      "recordou": 9076,
      "profundas": 9077,
      "tariamente": 9078,
      "olhavam": 9079,
      "úncia": 9080,
      "declarando": 9081,
      "literários": 9082,
      "amanhe": 9083,
      "confirma": 9084,
      "derradeira": 9085,
      "1887": 9086,
      "embarcar": 9087,
      "agudo": 9088,
      "histórico": 9089,
      "apaixon": 9090,
      "protetor": 9091,
      "cúm": 9092,
      "armaz": 9093,
      "ensino": 9094,
      "apontando": 9095,
      "clima": 9096,
      "ingratidão": 9097,
      "orelha": 9098,
      "álvares": 9099,
      "perturbar": 9100,
      "afrontar": 9101,
      "atitudes": 9102,
      "reconciliação": 9103,
      "eusébia": 9104,
      "esplêndido": 9105,
      "________": 9106,
      "indiscreto": 9107,
      "discípulos": 9108,
      "heroína": 9109,
      "simpático": 9110,
      "decisivo": 9111,
      "macaco": 9112,
      "infame": 9113,
      "alfinete": 9114,
      "cardeal": 9115,
      "orquestra": 9116,
      "xadrez": 9117,
      "afin": 9118,
      "ecli": 9119,
      "fô": 9120,
      "frias": 9121,
      "nesia": 9122,
      "rinho": 9123,
      "uí": 9124,
      "ventre": 9125,
      "vino": 9126,
      "deplo": 9127,
      "osso": 9128,
      "assi": 9129,
      "doria": 9130,
      "enche": 9131,
      "encara": 9132,
      "damião": 9133,
      "inal": 9134,
      "infal": 9135,
      "taci": 9136,
      "matos": 9137,
      "matrimônio": 9138,
      "reinado": 9139,
      "romana": 9140,
      "ousa": 9141,
      "cav": 9142,
      "cabos": 9143,
      "metendo": 9144,
      "dimen": 9145,
      "contasse": 9146,
      "contesta": 9147,
      "comido": 9148,
      "novela": 9149,
      "desfez": 9150,
      "descuido": 9151,
      "lata": 9152,
      "sucum": 9153,
      "castrio": 9154,
      "miu": 9155,
      "pedisse": 9156,
      "estades": 9157,
      "cete": 9158,
      "exor": 9159,
      "comovida": 9160,
      "prec": 9161,
      "rantes": 9162,
      "martí": 9163,
      "tena": 9164,
      "mantes": 9165,
      "chame": 9166,
      "credo": 9167,
      "pureza": 9168,
      "beis": 9169,
      "cantor": 9170,
      "new": 9171,
      "ferir": 9172,
      "gostei": 9173,
      "obteve": 9174,
      "furioso": 9175,
      "inspe": 9176,
      "gasto": 9177,
      "sobrecasaca": 9178,
      "cometa": 9179,
      "salvou": 9180,
      "constância": 9181,
      "ultra": 9182,
      "estivessem": 9183,
      "çosa": 9184,
      "pinta": 9185,
      "gadores": 9186,
      "usado": 9187,
      "estarei": 9188,
      "cemos": 9189,
      "bana": 9190,
      "banal": 9191,
      "guardava": 9192,
      "nutria": 9193,
      "surda": 9194,
      "gerações": 9195,
      "guernesia": 9196,
      "voltara": 9197,
      "estuda": 9198,
      "achará": 9199,
      "austera": 9200,
      "tomaram": 9201,
      "alcança": 9202,
      "estradas": 9203,
      "ensejo": 9204,
      "escravi": 9205,
      "perceber": 9206,
      "ignoro": 9207,
      "chico": 9208,
      "interiormente": 9209,
      "burros": 9210,
      "escondido": 9211,
      "freqüentar": 9212,
      "bruto": 9213,
      "cautela": 9214,
      "simpatias": 9215,
      "arrependido": 9216,
      "multiplica": 9217,
      "1855": 9218,
      "poéticas": 9219,
      "histórica": 9220,
      "publicidade": 9221,
      "patrício": 9222,
      "ensinou": 9223,
      "doloroso": 9224,
      "sossego": 9225,
      "trágica": 9226,
      "dissimular": 9227,
[...]
