{
  "version": "1.0",
  "truncation": null,
  "padding": null,
  "added_tokens": [
    {
      "id": 0,
      "content": "[PAD]",
      "single_word": false,
      "lstrip": false,
      "rstrip": false,
      "normalized": false,
      "special": true
    },
    {
      "id": 1,
      "content": "[BOS]",
      "single_word": false,
      "lstrip": false,
      "rstrip": false,
      "normalized": false,
      "special": true
    },
    {
      "id": 2,
      "content": "[EOS]",
      "single_word": false,
      "lstrip": false,
      "rstrip": false,
      "normalized": false,
      "special": true
    },
    {
      "id": 3,
      "content": "[UNK]",
      "single_word": false,
      "lstrip": false,
      "rstrip": false,
      "normalized": false,
      "special": true
    }
  ],
  "normalizer": null,
  "pre_tokenizer": {
    "type": "Whitespace"
  },
  "post_processor": null,
  "decoder": null,
  "model": {
    "type": "BPE",
    "dropout": null,
    "unk_token": "[UNK]",
    "continuing_subword_prefix": null,
    "end_of_word_suffix": null,
    "fuse_unk": false,
    "byte_fallback": false,
    "ignore_merges": false,
    "vocab": {
      "[PAD]": 0,
      "[BOS]": 1,
      "[EOS]": 2,
      "[UNK]": 3,
      "!": 4,
      "\"": 5,
      "#": 6,
      "$": 7,
      "%": 8,
      "&": 9,
      "'": 10,
      "(": 11,
      ")": 12,
      "*": 13,
      "+": 14,
      ",": 15,
      "-": 16,
      ".": 17,
      "/": 18,
      "0": 19,
      "1": 20,
      "2": 21,
      "3": 22,
      "4": 23,
      "5": 24,
      "6": 25,
      "7": 26,
      "8": 27,
      "9": 28,
      ":": 29,
      ";": 30,
      "<": 31,
      "=": 32,
      ">": 33,
      "?": 34,
      "@": 35,
      "A": 36,
      "B": 37,
      "C": 38,
      "D": 39,
      "E": 40,
      "F": 41,
      "G": 42,
      "H": 43,
      "I": 44,
      "J": 45,
      "K": 46,
      "L": 47,
      "M": 48,
      "N": 49,
      "O": 50,
      "P": 51,
      "Q": 52,
      "R": 53,
      "S": 54,
      "T": 55,
      "U": 56,
      "V": 57,
      "W": 58,
      "X": 59,
      "Y": 60,
      "Z": 61,
      "[": 62,
      "\\": 63,
      "]": 64,
      "^": 65,
      "_": 66,
      "`": 67,
      "a": 68,
      "b": 69,
      "c": 70,
      "d": 71,
      "e": 72,
      "f": 73,
      "g": 74,
      "h": 75,
      "i": 76,
      "j": 77,
      "k": 78,
      "l": 79,
      "m": 80,
      "n": 81,
      "o": 82,
      "p": 83,
      "q": 84,
      "r": 85,
      "s": 86,
      "t": 87,
      "u": 88,
      "v": 89,
      "w": 90,
      "x": 91,
      "y": 92,
      "z": 93,
      "|": 94,
      "}": 95,
      "~": 96,
      "": 97,
      "¡": 98,
      "¢": 99,
      "£": 100,
      "¤": 101,
      "¥": 102,
      "¦": 103,
      "§": 104,
      "¨": 105,
      "©": 106,
      "ª": 107,
      "«": 108,
      "¬": 109,
      "®": 110,
      "¯": 111,
      "°": 112,
      "±": 113,
      "²": 114,
      "³": 115,
      "´": 116,
      "µ": 117,
      "¶": 118,
      "·": 119,
      "¸": 120,
      "¹": 121,
      "º": 122,
      "»": 123,
      "¼": 124,
      "½": 125,
      "¾": 126,
      "¿": 127,
      "À": 128,
      "Á": 129,
      "Â": 130,
      "Ã": 131,
      "Ä": 132,
      "Å": 133,
      "Æ": 134,
      "Ç": 135,
      "È": 136,
      "É": 137,
      "Ê": 138,
      "Ë": 139,
      "Ì": 140,
      "Í": 141,
      "Î": 142,
      "Ï": 143,
      "Ð": 144,
      "Ñ": 145,
      "Ò": 146,
      "Ó": 147,
      "Ô": 148,
      "Õ": 149,
      "Ö": 150,
      "×": 151,
      "Ø": 152,
      "Ù": 153,
      "Ú": 154,
      "Û": 155,
      "Ü": 156,
      "Ý": 157,
      "Þ": 158,
      "ß": 159,
      "à": 160,
      "á": 161,
      "â": 162,
      "ã": 163,
      "ä": 164,
      "å": 165,
      "æ": 166,
      "ç": 167,
      "è": 168,
      "é": 169,
      "ê": 170,
      "ë": 171,
      "ì": 172,
      "í": 173,
      "î": 174,
      "ï": 175,
      "ð": 176,
      "ñ": 177,
      "ò": 178,
      "ó": 179,
      "ô": 180,
      "õ": 181,
      "ö": 182,
      "÷": 183,
      "ø": 184,
      "ù": 185,
      "ú": 186,
      "û": 187,
      "ü": 188,
      "ý": 189,
      "þ": 190,
      "ÿ": 191,
      "Ā": 192,
      "ā": 193,
      "Ă": 194,
      "ă": 195,
      "ą": 196,
      "Ć": 197,
      "ć": 198,
      "Ĉ": 199,
      "ĉ": 200,
      "Ċ": 201,
      "ċ": 202,
      "Č": 203,
      "č": 204,
      "Ď": 205,
      "ď": 206,
      "Đ": 207,
      "đ": 208,
      "Ē": 209,
      "ē": 210,
      "ĕ": 211,
      "Ė": 212,
      "ė": 213,
      "Ę": 214,
      "ę": 215,
      "Ě": 216,
      "ě": 217,
      "Ĝ": 218,
      "ĝ": 219,
      "Ğ": 220,
      "ğ": 221,
      "Ġ": 222,
      "ġ": 223,
      "Ģ": 224,
      "ģ": 225,
      "ħ": 226,
      "ĩ": 227,
      "Ī": 228,
      "ī": 229,
      "Ĭ": 230,
      "ĭ": 231,
      "į": 232,
      "İ": 233,
      "ı": 234,
      "Ķ": 235,
      "ķ": 236,
      "Ĺ": 237,
      "ĺ": 238,
      "ļ": 239,
      "Ľ": 240,
      "ľ": 241,
      "Ł": 242,
      "ł": 243,
      "Ń": 244,
      "ń": 245,
      "ņ": 246,
      "Ň": 247,
      "ň": 248,
      "Ŋ": 249,
      "ŋ": 250,
      "Ō": 251,
      "ō": 252,
      "ŏ": 253,
      "Ő": 254,
      "ő": 255,
      "Œ": 256,
      "œ": 257,
      "Ŕ": 258,
      "ŕ": 259,
      "ŗ": 260,
      "Ř": 261,
      "ř": 262,
      "Ś": 263,
      "ś": 264,
      "Ş": 265,
      "ş": 266,
      "Š": 267,
      "š": 268,
      "ţ": 269,
      "ť": 270,
      "Ŧ": 271,
      "ŧ": 272,
      "ũ": 273,
      "Ū": 274,
      "ū": 275,
      "ŭ": 276,
      "Ů": 277,
      "ů": 278,
      "ű": 279,
      "Ų": 280,
      "ų": 281,
      "ŵ": 282,
      "ŷ": 283,
      "Ÿ": 284,
      "Ź": 285,
      "ź": 286,
      "Ż": 287,
      "ż": 288,
      "Ž": 289,
      "ž": 290,
      "ſ": 291,
      "Ƅ": 292,
      "Ɔ": 293,
      "ƈ": 294,
      "Ə": 295,
      "Ɛ": 296,
      "ƒ": 297,
      "Ɣ": 298,
      "Ơ": 299,
      "ơ": 300,
      "Ʃ": 301,
      "ƫ": 302,
      "Ư": 303,
      "ư": 304,
      "Ƴ": 305,
      "ǀ": 306,
      "ǁ": 307,
      "ǅ": 308,
      "ǎ": 309,
      "ǐ": 310,
      "Ǒ": 311,
      "ǒ": 312,
      "ǔ": 313,
      "ǖ": 314,
      "ǘ": 315,
      "ǚ": 316,
      "ǜ": 317,
      "ǝ": 318,
      "ǣ": 319,
      "Ǧ": 320,
      "ǧ": 321,
      "ǫ": 322,
      "ǵ": 323,
      "Ǹ": 324,
      "ǽ": 325,
      "ȇ": 326,
      "ȋ": 327,
      "ȏ": 328,
      "ȗ": 329,
      "Ș": 330,
      "ș": 331,
      "Ț": 332,
      "ț": 333,
      "ȝ": 334,
      "ȟ": 335,
      "Ȧ": 336,
      "ȧ": 337,
      "ȯ": 338,
      "ȳ": 339,
      "Ɂ": 340,
      "ɐ": 341,
      "ɑ": 342,
      "ɒ": 343,
      "ɓ": 344,
      "ɔ": 345,
      "ɕ": 346,
      "ɖ": 347,
      "ɗ": 348,
      "ɘ": 349,
      "ə": 350,
      "ɚ": 351,
      "ɛ": 352,
      "ɜ": 353,
      "ɝ": 354,
      "ɟ": 355,
      "ɡ": 356,
      "ɣ": 357,
      "ɤ": 358,
      "ɥ": 359,
      "ɦ": 360,
      "ɨ": 361,
      "ɪ": 362,
      "ɫ": 363,
      "ɬ": 364,
      "ɯ": 365,
      "ɱ": 366,
      "ɲ": 367,
      "ɴ": 368,
      "ɵ": 369,
      "ɸ": 370,
      "ɹ": 371,
      "ɻ": 372,
      "ɽ": 373,
      "ɾ": 374,
      "ʀ": 375,
      "ʁ": 376,
      "ʂ": 377,
      "ʃ": 378,
      "ʄ": 379,
      "ʈ": 380,
      "ʉ": 381,
      "ʊ": 382,
      "ʋ": 383,
      "ʌ": 384,
      "ʍ": 385,
      "ʎ": 386,
      "ʐ": 387,
      "ʑ": 388,
      "ʒ": 389,
      "ʔ": 390,
      "ʕ": 391,
      "ʙ": 392,
      "ʜ": 393,
      "ʝ": 394,
      "ʟ": 395,
      "ʡ": 396,
      "ʢ": 397,
      "ʤ": 398,
      "ʧ": 399,
      "ʰ": 400,
      "ʱ": 401,
      "ʲ": 402,
      "ʷ": 403,
      "ʹ": 404,
      "ʻ": 405,
      "ʼ": 406,
      "ʽ": 407,
      "ʾ": 408,
      "ʿ": 409,
      "ˁ": 410,
      "˂": 411,
      "˅": 412,
      "ˆ": 413,
      "ˇ": 414,
      "ˈ": 415,
      "ˉ": 416,
      "ˌ": 417,
      "ː": 418,
      "ˑ": 419,
      "˒": 420,
      "˓": 421,
      "˖": 422,
      "˗": 423,
      "˘": 424,
      "˙": 425,
      "˚": 426,
      "˛": 427,
      "˜": 428,
      "˝": 429,
      "ˠ": 430,
      "ˡ": 431,
      "ˤ": 432,
      "˥": 433,
      "˦": 434,
      "˨": 435,
      "ˮ": 436,
      "˻": 437,
      "˼": 438,
      "˽": 439,
      "̀": 440,
      "́": 441,
      "̂": 442,
      "̃": 443,
      "̄": 444,
      "̅": 445,
      "̆": 446,
      "̇": 447,
      "̈": 448,
      "̊": 449,
      "̌": 450,
      "̎": 451,
      "̐": 452,
      "̓": 453,
      "̚": 454,
      "̜": 455,
      "̝": 456,
      "̞": 457,
      "̟": 458,
      "̠": 459,
      "̣": 460,
      "̥": 461,
      "̨": 462,
      "̩": 463,
      "̪": 464,
      "̬": 465,
      "̮": 466,
      "̯": 467,
      "̱": 468,
      "̲": 469,
      "̵": 470,
      "̶": 471,
      "̸": 472,
      "̼": 473,
      "͈": 474,
      "͒": 475,
      "͙": 476,
      "͞": 477,
      "͟": 478,
      "͡": 479,
      "Ͱ": 480,
      "ͱ": 481,
      "Ͳ": 482,
      "ͳ": 483,
      "͵": 484,
      "΄": 485,
      "Ά": 486,
      "Έ": 487,
      "Ί": 488,
      "Ό": 489,
      "ΐ": 490,
      "Α": 491,
      "Β": 492,
      "Γ": 493,
      "Δ": 494,
      "Ε": 495,
      "Ζ": 496,
      "Η": 497,
      "Θ": 498,
      "Ι": 499,
      "Κ": 500,
      "Λ": 501,
      "Μ": 502,
      "Ν": 503,
      "Ξ": 504,
      "Ο": 505,
      "Π": 506,
      "Ρ": 507,
      "Σ": 508,
      "Τ": 509,
      "Υ": 510,
      "Φ": 511,
      "Χ": 512,
      "Ψ": 513,
      "Ω": 514,
      "ά": 515,
      "έ": 516,
      "ή": 517,
      "ί": 518,
      "ΰ": 519,
      "α": 520,
      "β": 521,
      "γ": 522,
      "δ": 523,
      "ε": 524,
      "ζ": 525,
      "η": 526,
      "θ": 527,
      "ι": 528,
      "κ": 529,
      "λ": 530,
      "μ": 531,
      "ν": 532,
      "ξ": 533,
      "ο": 534,
      "π": 535,
      "ρ": 536,
      "ς": 537,
      "σ": 538,
      "τ": 539,
      "υ": 540,
      "φ": 541,
      "χ": 542,
      "ψ": 543,
      "ω": 544,
      "ϊ": 545,
      "ϋ": 546,
      "ό": 547,
      "ύ": 548,
      "ώ": 549,
      "ϕ": 550,
      "ϖ": 551,
      "ϗ": 552,
      "ϛ": 553,
      "Ϝ": 554,
      "ϝ": 555,
      "Ϟ": 556,
      "ϟ": 557,
      "ϲ": 558,
      "ϵ": 559,
      "Ϲ": 560,
      "Ђ": 561,
      "Є": 562,
      "І": 563,
      "Ј": 564,
      "Ћ": 565,
      "Ў": 566,
      "А": 567,
      "Б": 568,
      "В": 569,
      "Г": 570,
      "Д": 571,
      "Е": 572,
      "Ж": 573,
      "З": 574,
      "И": 575,
      "Й": 576,
      "К": 577,
      "Л": 578,
      "М": 579,
      "Н": 580,
      "О": 581,
      "П": 582,
      "Р": 583,
      "С": 584,
      "Т": 585,
      "У": 586,
      "Ф": 587,
      "Х": 588,
      "Ц": 589,
      "Ч": 590,
      "Ш": 591,
      "Щ": 592,
      "Ъ": 593,
      "Ы": 594,
      "Э": 595,
      "Ю": 596,
      "Я": 597,
      "а": 598,
      "б": 599,
      "в": 600,
      "г": 601,
      "д": 602,
      "е": 603,
      "ж": 604,
      "з": 605,
      "и": 606,
      "й": 607,
      "к": 608,
      "л": 609,
      "м": 610,
      "н": 611,
      "о": 612,
      "п": 613,
      "р": 614,
      "с": 615,
      "т": 616,
      "у": 617,
      "ф": 618,
      "х": 619,
      "ц": 620,
      "ч": 621,
      "ш": 622,
      "щ": 623,
      "ъ": 624,
      "ы": 625,
      "ь": 626,
      "э": 627,
      "ю": 628,
      "я": 629,
      "ё": 630,
      "є": 631,
      "ѕ": 632,
      "і": 633,
      "ї": 634,
      "ј": 635,
      "љ": 636,
      "њ": 637,
      "ћ": 638,
      "ќ": 639,
      "ў": 640,
      "ѣ": 641,
      "ѳ": 642,
      "ґ": 643,
      "Ғ": 644,
      "Қ": 645,
      "қ": 646,
      "ү": 647,
      "ұ": 648,
      "Ҳ": 649,
      "ҳ": 650,
      "ә": 651,
      "ӧ": 652,
      "ө": 653,
      "ӯ": 654,
      "Ա": 655,
      "Բ": 656,
      "Գ": 657,
      "Դ": 658,
      "Ե": 659,
      "Թ": 660,
      "Ի": 661,
      "Խ": 662,
      "Կ": 663,
      "Հ": 664,
      "Ղ": 665,
      "Ճ": 666,
      "Մ": 667,
      "Ն": 668,
      "Շ": 669,
      "Ո": 670,
      "Պ": 671,
      "Ս": 672,
      "Վ": 673,
      "Տ": 674,
      "Ր": 675,
      "Ց": 676,
      "Ւ": 677,
      "Ք": 678,
      "ա": 679,
      "դ": 680,
      "ե": 681,
      "թ": 682,
      "ժ": 683,
      "ի": 684,
      "լ": 685,
      "խ": 686,
      "ծ": 687,
      "կ": 688,
      "հ": 689,
      "մ": 690,
      "յ": 691,
      "ն": 692,
      "շ": 693,
      "ո": 694,
      "ջ": 695,
      "ռ": 696,
      "ս": 697,
      "վ": 698,
      "ր": 699,
      "ց": 700,
      "ւ": 701,
      "փ": 702,
      "ք": 703,
      "և": 704,
      "֑": 705,
      "֔": 706,
      "֖": 707,
      "֙": 708,
      "֛": 709,
      "֣": 710,
      "֥": 711,
      "֫": 712,
      "ְ": 713,
      "ֱ": 714,
      "ֲ": 715,
      "ִ": 716,
      "ֵ": 717,
      "ֶ": 718,
      "ַ": 719,
      "ָ": 720,
      "ֹ": 721,
      "ֺ": 722,
      "ֻ": 723,
      "ּ": 724,
      "ֽ": 725,
      "־": 726,
      "ֿ": 727,
      "ׁ": 728,
      "ׂ": 729,
      "׃": 730,
      "ׄ": 731,
      "א": 732,
      "ב": 733,
      "ג": 734,
      "ד": 735,
      "ה": 736,
      "ו": 737,
      "ז": 738,
      "ח": 739,
      "ט": 740,
      "י": 741,
      "ך": 742,
      "כ": 743,
      "ל": 744,
      "ם": 745,
      "מ": 746,
      "ן": 747,
      "נ": 748,
      "ס": 749,
      "ע": 750,
      "ף": 751,
      "פ": 752,
      "ץ": 753,
      "צ": 754,
      "ק": 755,
      "ר": 756,
      "ש": 757,
      "ת": 758,
      "װ": 759,
      "ױ": 760,
      "ײ": 761,
      "׳": 762,
      "״": 763,
      "،": 764,
      "ؕ": 765,
      "؛": 766,
      "؟": 767,
      "ء": 768,
      "آ": 769,
      "أ": 770,
      "ؤ": 771,
      "إ": 772,
      "ئ": 773,
      "ا": 774,
      "ب": 775,
      "ة": 776,
      "ت": 777,
      "ث": 778,
      "ج": 779,
      "ح": 780,
      "خ": 781,
      "د": 782,
      "ذ": 783,
      "ر": 784,
      "ز": 785,
      "س": 786,
      "ش": 787,
      "ص": 788,
      "ض": 789,
      "ط": 790,
      "ظ": 791,
      "ع": 792,
      "غ": 793,
      "ـ": 794,
      "ف": 795,
      "ق": 796,
      "ك": 797,
      "ل": 798,
      "م": 799,
      "ن": 800,
      "ه": 801,
      "و": 802,
      "ى": 803,
      "ي": 804,
      "ً": 805,
      "ٌ": 806,
      "ٍ": 807,
      "َ": 808,
      "ُ": 809,
      "ِ": 810,
      "ّ": 811,
      "ْ": 812,
      "ٓ": 813,
      "ٔ": 814,
      "ٖ": 815,
      "ٗ": 816,
      "ٚ": 817,
      "ٞ": 818,
      "٠": 819,
      "١": 820,
      "٢": 821,
      "٣": 822,
      "٤": 823,
      "٥": 824,
      "٦": 825,
      "٧": 826,
      "٨": 827,
      "٩": 828,
      "٪": 829,
      "ٮ": 830,
      "ٰ": 831,
      "ٱ": 832,
      "ٹ": 833,
      "پ": 834,
      "ځ": 835,
      "چ": 836,
      "ڈ": 837,
      "ڑ": 838,
      "ړ": 839,
      "ږ": 840,
      "ژ": 841,
      "ښ": 842,
      "ک": 843,
      "ڪ": 844,
      "ګ": 845,
      "گ": 846,
      "ں": 847,
      "ھ": 848,
      "ۀ": 849,
      "ہ": 850,
      "ۃ": 851,
      "ۇ": 852,
      "ۊ": 853,
      "ی": 854,
      "ۍ": 855,
      "ې": 856,
      "ے": 857,
      "ۓ": 858,
      "۔": 859,
      "ە": 860,
      "ۖ": 861,
      "ۗ": 862,
      "ۙ": 863,
      "ۚ": 864,
      "۞": 865,
      "۟": 866,
      "۠": 867,
      "ۡ": 868,
      "ۤ": 869,
      "ۥ": 870,
      "ۦ": 871,
      "۬": 872,
      "۰": 873,
      "۱": 874,
      "۲": 875,
      "۳": 876,
      "۴": 877,
      "۵": 878,
      "۶": 879,
      "۷": 880,
      "۸": 881,
      "۹": 882,
      "ܐ": 883,
      "ܕ": 884,
      "ܗ": 885,
      "ܚ": 886,
      "ܝ": 887,
      "ܡ": 888,
      "ܢ": 889,
      "ܣ": 890,
      "ܥ": 891,
      "ܩ": 892,
      "ܪ": 893,
      "ނ": 894,
      "ރ": 895,
      "ބ": 896,
      "ޅ": 897,
      "ކ": 898,
      "އ": 899,
      "ވ": 900,
      "މ": 901,
      "ފ": 902,
      "ތ": 903,
      "ލ": 904,
      "ސ": 905,
      "ޑ": 906,
      "ޓ": 907,
      "ޖ": 908,
      "ަ": 909,
      "ާ": 910,
      "ި": 911,
      "ު": 912,
      "ެ": 913,
      "ޭ": 914,
      "ޮ": 915,
      "ޯ": 916,
      "ް": 917,
      "ࠏ": 918,
      "ँ": 919,
      "ं": 920,
      "ः": 921,
      "अ": 922,
      "आ": 923,
      "इ": 924,
      "ई": 925,
      "उ": 926,
      "ऊ": 927,
      "ए": 928,
      "ऐ": 929,
      "ऑ": 930,
      "ओ": 931,
      "औ": 932,
      "क": 933,
      "ख": 934,
      "ग": 935,
      "घ": 936,
      "ङ": 937,
      "च": 938,
      "छ": 939,
      "ज": 940,
      "झ": 941,
      "ञ": 942,
      "ट": 943,
      "ठ": 944,
      "ड": 945,
      "ढ": 946,
      "ण": 947,
      "त": 948,
      "थ": 949,
      "द": 950,
      "ध": 951,
      "न": 952,
      "प": 953,
      "फ": 954,
      "ब": 955,
      "भ": 956,
      "म": 957,
      "य": 958,
      "र": 959,
      "ल": 960,
      "ळ": 961,
      "व": 962,
      "श": 963,
      "ष": 964,
      "स": 965,
      "ह": 966,
      "़": 967,
      "ऽ": 968,
      "ा": 969,
      "ि": 970,
      "ी": 971,
      "ु": 972,
      "ू": 973,
      "ृ": 974,
      "े": 975,
      "ै": 976,
      "ॉ": 977,
      "ॊ": 978,
      "ो": 979,
      "ौ": 980,
      "्": 981,
      "ॐ": 982,
      "।": 983,
      "॥": 984,
      "०": 985,
      "१": 986,
      "२": 987,
      "३": 988,
      "४": 989,
      "५": 990,
      "६": 991,
      "७": 992,
      "८": 993,
      "९": 994,
      "॰": 995,
      "ঃ": 996,
      "অ": 997,
      "আ": 998,
      "ই": 999,
      "এ": 1000,
      "ও": 1001,
      "ক": 1002,
      "খ": 1003,
      "গ": 1004,
      "ঙ": 1005,
      "চ": 1006,
      "ছ": 1007,
      "জ": 1008,
      "ঞ": 1009,
      "ট": 1010,
      "ঠ": 1011,
      "ত": 1012,
      "থ": 1013,
      "দ": 1014,
      "ন": 1015,
      "প": 1016,
      "ফ": 1017,
      "ব": 1018,
      "ভ": 1019,
      "ম": 1020,
      "য": 1021,
      "র": 1022,
      "ল": 1023,
      "শ": 1024,
      "স": 1025,
      "হ": 1026,
      "়": 1027,
      "া": 1028,
      "ি": 1029,
      "ী": 1030,
      "ু": 1031,
      "ূ": 1032,
      "ে": 1033,
      "ো": 1034,
      "ৌ": 1035,
      "্": 1036,
      "০": 1037,
      "১": 1038,
      "৬": 1039,
      "৭": 1040,
      "৮": 1041,
      "৯": 1042,
      "৳": 1043,
      "ਅ": 1044,
      "ਆ": 1045,
      "ਇ": 1046,
      "ਈ": 1047,
      "ਉ": 1048,
      "ਓ": 1049,
      "ਕ": 1050,
      "ਖ": 1051,
      "ਗ": 1052,
      "ਚ": 1053,
      "ਛ": 1054,
      "ਜ": 1055,
      "ਝ": 1056,
      "ਣ": 1057,
      "ਤ": 1058,
      "ਥ": 1059,
      "ਦ": 1060,
      "ਧ": 1061,
      "ਨ": 1062,
      "ਪ": 1063,
      "ਬ": 1064,
      "ਭ": 1065,
      "ਮ": 1066,
      "ਰ": 1067,
      "ਲ": 1068,
      "ਵ": 1069,
      "ਸ": 1070,
      "ਹ": 1071,
      "ਾ": 1072,
      "ਿ": 1073,
      "ੀ": 1074,
      "ੁ": 1075,
      "ੂ": 1076,
      "ੇ": 1077,
      "ੈ": 1078,
      "ੋ": 1079,
      "੍": 1080,
      "੫": 1081,
      "ੰ": 1082,
      "ં": 1083,
      "ઉ": 1084,
      "ક": 1085,
      "ગ": 1086,
      "ઘ": 1087,
      "ચ": 1088,
      "ટ": 1089,
      "ડ": 1090,
      "ણ": 1091,
      "ત": 1092,
      "દ": 1093,
      "ધ": 1094,
      "ન": 1095,
      "પ": 1096,
      "બ": 1097,
      "મ": 1098,
      "ર": 1099,
      "લ": 1100,
      "વ": 1101,
      "શ": 1102,
      "સ": 1103,
      "હ": 1104,
      "ા": 1105,
      "િ": 1106,
      "ી": 1107,
      "ુ": 1108,
      "ે": 1109,
      "ો": 1110,
      "ଗ": 1111,
      "ଜ": 1112,
      "ଦ": 1113,
      "ପ": 1114,
      "ର": 1115,
      "ା": 1116,
      "ୁ": 1117,
      "ୂ": 1118,
      "୍": 1119,
      "அ": 1120,
      "ஆ": 1121,
      "இ": 1122,
      "ஈ": 1123,
      "உ": 1124,
      "ஊ": 1125,
      "எ": 1126,
      "ஏ": 1127,
      "ஐ": 1128,
      "ஒ": 1129,
      "ஓ": 1130,
      "க": 1131,
      "ங": 1132,
      "ச": 1133,
      "ஜ": 1134,
      "ஞ": 1135,
      "ட": 1136,
      "ண": 1137,
      "த": 1138,
      "ந": 1139,
      "ன": 1140,
      "ப": 1141,
      "ம": 1142,
      "ய": 1143,
      "ர": 1144,
      "ற": 1145,
      "ல": 1146,
      "ள": 1147,
      "ழ": 1148,
      "வ": 1149,
      "ஷ": 1150,
      "ஸ": 1151,
      "ஹ": 1152,
      "ா": 1153,
      "ி": 1154,
      "ீ": 1155,
      "ு": 1156,
      "ூ": 1157,
      "ெ": 1158,
      "ே": 1159,
      "ை": 1160,
      "ொ": 1161,
      "ோ": 1162,
      "்": 1163,
      "ం": 1164,
      "ః": 1165,
      "అ": 1166,
      "ఇ": 1167,
      "ఈ": 1168,
      "ఎ": 1169,
      "ఒ": 1170,
      "ఓ": 1171,
      "క": 1172,
      "గ": 1173,
      "చ": 1174,
      "జ": 1175,
      "ట": 1176,
      "డ": 1177,
      "త": 1178,
      "ద": 1179,
      "న": 1180,
      "ప": 1181,
      "భ": 1182,
      "మ": 1183,
      "య": 1184,
      "ర": 1185,
      "ల": 1186,
      "ళ": 1187,
      "వ": 1188,
      "శ": 1189,
      "ష": 1190,
      "స": 1191,
      "హ": 1192,
      "ా": 1193,
      "ి": 1194,
      "ీ": 1195,
      "ు": 1196,
      "ూ": 1197,
      "ృ": 1198,
      "ె": 1199,
      "ే": 1200,
      "ై": 1201,
      "ొ": 1202,
      "ో": 1203,
      "్": 1204,
      "ಕ": 1205,
      "ಡ": 1206,
      "ಣ": 1207,
      "ನ": 1208,
      "ಪ": 1209,
      "ಮ": 1210,
      "ರ": 1211,
      "ಲ": 1212,
      "ವ": 1213,
      "ಸ": 1214,
      "ಾ": 1215,
      "ಿ": 1216,
      "ೆ": 1217,
      "ೋ": 1218,
      "್": 1219,
      "ം": 1220,
      "അ": 1221,
      "ആ": 1222,
      "ക": 1223,
      "ഗ": 1224,
      "ങ": 1225,
      "ച": 1226,
      "ജ": 1227,
      "ഞ": 1228,
      "ട": 1229,
      "ണ": 1230,
      "ത": 1231,
      "ഥ": 1232,
      "ദ": 1233,
      "ധ": 1234,
      "ന": 1235,
      "പ": 1236,
      "മ": 1237,
      "യ": 1238,
      "ര": 1239,
      "റ": 1240,
      "ല": 1241,
      "ഴ": 1242,
      "വ": 1243,
      "ശ": 1244,
      "ഷ": 1245,
      "ഹ": 1246,
      "ാ": 1247,
      "ി": 1248,
      "ീ": 1249,
      "ു": 1250,
      "െ": 1251,
      "േ": 1252,
      "ോ": 1253,
      "്": 1254,
      "൯": 1255,
      "ං": 1256,
      "අ": 1257,
      "ඒ": 1258,
      "ඕ": 1259,
      "ක": 1260,
      "ග": 1261,
      "ජ": 1262,
      "ඦ": 1263,
      "ට": 1264,
      "ත": 1265,
      "ද": 1266,
      "න": 1267,
      "ඳ": 1268,
      "ප": 1269,
      "ම": 1270,
      "ය": 1271,
      "ර": 1272,
      "ල": 1273,
      "ව": 1274,
      "ශ": 1275,
      "ස": 1276,
      "හ": 1277,
      "ළ": 1278,
      "්": 1279,
      "ා": 1280,
      "ැ": 1281,
      "ෑ": 1282,
      "ි": 1283,
      "ී": 1284,
      "ු": 1285,
      "ූ": 1286,
      "ෙ": 1287,
      "ේ": 1288,
      "ො": 1289,
      "ෝ": 1290,
      "෴": 1291,
      "ก": 1292,
      "ข": 1293,
      "ค": 1294,
      "ง": 1295,
      "จ": 1296,
      "ฉ": 1297,
      "ช": 1298,
      "ซ": 1299,
      "ญ": 1300,
      "ฐ": 1301,
      "ณ": 1302,
      "ด": 1303,
      "ต": 1304,
      "ถ": 1305,
      "ท": 1306,
      "ธ": 1307,
      "น": 1308,
      "บ": 1309,
      "ป": 1310,
      "ผ": 1311,
      "ฝ": 1312,
      "พ": 1313,
      "ฟ": 1314,
      "ภ": 1315,
      "ม": 1316,
      "ย": 1317,
      "ร": 1318,
      "ฤ": 1319,
      "ล": 1320,
      "ว": 1321,
      "ศ": 1322,
      "ษ": 1323,
      "ส": 1324,
      "ห": 1325,
      "อ": 1326,
      "ฯ": 1327,
      "ะ": 1328,
      "ั": 1329,
      "า": 1330,
      "ำ": 1331,
      "ิ": 1332,
      "ี": 1333,
      "ึ": 1334,
      "ื": 1335,
      "ุ": 1336,
      "ู": 1337,
      "฿": 1338,
      "เ": 1339,
      "แ": 1340,
      "โ": 1341,
      "ใ": 1342,
      "ไ": 1343,
      "ๆ": 1344,
      "็": 1345,
      "่": 1346,
      "้": 1347,
      "๊": 1348,
      "๋": 1349,
      "์": 1350,
      "་": 1351,
      "།": 1352,
      "༯": 1353,
      "ཀ": 1354,
      "ཁ": 1355,
      "ག": 1356,
      "ང": 1357,
      "ཅ": 1358,
      "ཆ": 1359,
      "ཇ": 1360,
      "ཏ": 1361,
      "ཐ": 1362,
      "ད": 1363,
      "ན": 1364,
      "པ": 1365,
      "བ": 1366,
      "མ": 1367,
      "ཛ": 1368,
      "ཞ": 1369,
      "ཡ": 1370,
      "ར": 1371,
      "ལ": 1372,
      "ཤ": 1373,
      "ས": 1374,
      "ཨ": 1375,
      "ི": 1376,
      "ུ": 1377,
      "ེ": 1378,
      "ོ": 1379,
      "ྐ": 1380,
      "ྒ": 1381,
      "ྗ": 1382,
      "ྡ": 1383,
      "ྤ": 1384,
      "ྩ": 1385,
      "ྱ": 1386,
      "က": 1387,
      "ခ": 1388,
      "င": 1389,
      "စ": 1390,
      "ဒ": 1391,
      "န": 1392,
      "မ": 1393,
      "ရ": 1394,
      "လ": 1395,
      "အ": 1396,
      "ါ": 1397,
      "ာ": 1398,
      "ေ": 1399,
      "ဲ": 1400,
      "ဴ": 1401,
      "္": 1402,
      "်": 1403,
      "ြ": 1404,
      "ွ": 1405,
      "႔": 1406,
      "ა": 1407,
      "ბ": 1408,
      "გ": 1409,
      "დ": 1410,
      "ე": 1411,
      "ვ": 1412,
      "ი": 1413,
      "ლ": 1414,
      "მ": 1415,
      "ნ": 1416,
      "ო": 1417,
      "რ": 1418,
      "ს": 1419,
      "ტ": 1420,
      "უ": 1421,
      "ფ": 1422,
      "ღ": 1423,
      "შ": 1424,
      "ჩ": 1425,
      "ჭ": 1426,
      "ხ": 1427,
      "ჰ": 1428,
      "ᇀ": 1429,
      "ሃ": 1430,
      "ሻ": 1431,
      "በ": 1432,
      "ብ": 1433,
      "የ": 1434,
      "ዱ": 1435,
      "ጀ": 1436,
      "Ꭰ": 1437,
      "Ꭲ": 1438,
      "Ꭴ": 1439,
      "Ꭶ": 1440,
      "Ꭸ": 1441,
      "Ꭹ": 1442,
      "Ꭺ": 1443,
      "Ꭼ": 1444,
      "Ꮃ": 1445,
      "Ꮅ": 1446,
      "Ꮎ": 1447,
      "Ꮑ": 1448,
      "Ꮙ": 1449,
      "Ꮝ": 1450,
      "Ꮞ": 1451,
      "Ꮢ": 1452,
      "Ꮣ": 1453,
      "Ꮥ": 1454,
      "Ꮦ": 1455,
      "Ꮧ": 1456,
      "Ꮪ": 1457,
      "Ꮲ": 1458,
      "Ꮳ": 1459,
      "Ꮹ": 1460,
      "Ꮿ": 1461,
      "Ᏹ": 1462,
      "ᐁ": 1463,
      "ᐃ": 1464,
      "ᐅ": 1465,
      "ᐊ": 1466,
      "ᐢ": 1467,
      "ᐣ": 1468,
      "ᐤ": 1469,
      "ᐧ": 1470,
      "ᐱ": 1471,
      "ᐸ": 1472,
      "ᑎ": 1473,
      "ᑕ": 1474,
      "ᑦ": 1475,
      "ᑫ": 1476,
      "ᑲ": 1477,
      "ᒃ": 1478,
      "ᒣ": 1479,
      "ᒥ": 1480,
      "ᓂ": 1481,
      "ᓄ": 1482,
      "ᓇ": 1483,
      "ᓭ": 1484,
      "ᓯ": 1485,
      "ᓴ": 1486,
      "ᔪ": 1487,
      "ᔭ": 1488,
      "ᔮ": 1489,
      "ᕇ": 1490,
      "ᕋ": 1491,
      "ᕒ": 1492,
      "ᕕ": 1493,
      "ᕗ": 1494,
      "ᕬ": 1495,
      "ᖃ": 1496,
      "ᖅ": 1497,
      "ᖆ": 1498,
      "ᖉ": 1499,
      "ᖊ": 1500,
      "ᖗ": 1501,
      "ᖚ": 1502,
      "ᖽ": 1503,
      "ᘈ": 1504,
      "ᘊ": 1505,
      "ᘖ": 1506,
      "ᘛ": 1507,
      "ᚠ": 1508,
      "ᚢ": 1509,
      "ᚦ": 1510,
      "ᚱ": 1511,
      "ᚾ": 1512,
      "ᛅ": 1513,
      "ᛏ": 1514,
      "ᛒ": 1515,
      "ក": 1516,
      "គ": 1517,
      "ច": 1518,
      "ជ": 1519,
      "ណ": 1520,
      "ទ": 1521,
      "ន": 1522,
      "ប": 1523,
      "ផ": 1524,
      "ព": 1525,
      "ភ": 1526,
      "ម": 1527,
      "រ": 1528,
      "ស": 1529,
      "ា": 1530,
      "ុ": 1531,
      "េ": 1532,
      "ែ": 1533,
      "ៃ": 1534,
      "ោ": 1535,
      "ំ": 1536,
      "ះ": 1537,
      "្": 1538,
      "ᴀ": 1539,
      "ᴅ": 1540,
      "ᴏ": 1541,
      "ᴥ": 1542,
      "ᴰ": 1543,
      "ᴴ": 1544,
      "ᴵ": 1545,
      "ᴹ": 1546,
      "ᵀ": 1547,
      "ᵌ": 1548,
      "ᵎ": 1549,
      "ᵐ": 1550,
      "ᵑ": 1551,
      "ᵒ": 1552,
      "ᵺ": 1553,
      "ᵻ": 1554,
      "ᶮ": 1555,
      "ḇ": 1556,
      "Ḍ": 1557,
      "ḍ": 1558,
      "Ḏ": 1559,
      "ḏ": 1560,
      "ḕ": 1561,
      "ḗ": 1562,
      "Ḡ": 1563,
      "ḡ": 1564,
      "Ḥ": 1565,
      "ḥ": 1566,
      "Ḫ": 1567,
      "ḫ": 1568,
      "Ḱ": 1569,
      "ḱ": 1570,
      "Ḳ": 1571,
      "ḳ": 1572,
      "Ḵ": 1573,
      "ḵ": 1574,
      "Ḷ": 1575,
      "ḷ": 1576,
      "ḻ": 1577,
      "ṁ": 1578,
      "Ṃ": 1579,
      "ṃ": 1580,
      "Ṅ": 1581,
      "ṅ": 1582,
      "ṇ": 1583,
      "ṓ": 1584,
      "Ṛ": 1585,
      "ṛ": 1586,
      "ṟ": 1587,
      "Ṣ": 1588,
      "ṣ": 1589,
      "Ṥ": 1590,
      "Ṭ": 1591,
      "ṭ": 1592,
      "Ṯ": 1593,
      "ṯ": 1594,
      "ṱ": 1595,
      "ẁ": 1596,
      "ẏ": 1597,
      "Ẓ": 1598,
      "ẓ": 1599,
      "ẗ": 1600,
      "ạ": 1601,
      "Ả": 1602,
      "ả": 1603,
      "ấ": 1604,
      "Ầ": 1605,
      "ầ": 1606,
      "Ẩ": 1607,
      "ẩ": 1608,
      "Ẫ": 1609,
      "ẫ": 1610,
      "ậ": 1611,
      "ắ": 1612,
      "ằ": 1613,
      "ẳ": 1614,
      "ặ": 1615,
      "ẹ": 1616,
      "ẻ": 1617,
      "ẽ": 1618,
      "ế": 1619,
      "ề": 1620,
      "ể": 1621,
      "Ễ": 1622,
      "ễ": 1623,
      "ệ": 1624,
      "ỉ": 1625,
      "ị": 1626,
      "ọ": 1627,
      "ỏ": 1628,
      "Ố": 1629,
      "ố": 1630,
      "ồ": 1631,
      "ổ": 1632,
      "Ộ": 1633,
      "ộ": 1634,
      "ớ": 1635,
      "Ờ": 1636,
      "ờ": 1637,
      "ở": 1638,
      "ỡ": 1639,
      "ợ": 1640,
      "Ụ": 1641,
      "ụ": 1642,
      "ủ": 1643,
      "Ứ": 1644,
      "ứ": 1645,
      "ừ": 1646,
      "ử": 1647,
      "ữ": 1648,
      "ự": 1649,
      "ỳ": 1650,
      "ỷ": 1651,
      "ỹ": 1652,
      "ἀ": 1653,
      "ἁ": 1654,
      "ἂ": 1655,
      "ἄ": 1656,
      "ἅ": 1657,
      "Ἀ": 1658,
      "Ἁ": 1659,
      "Ἄ": 1660,
      "Ἅ": 1661,
      "ἐ": 1662,
      "ἑ": 1663,
      "ἓ": 1664,
      "ἔ": 1665,
      "ἕ": 1666,
      "Ἐ": 1667,
      "Ἑ": 1668,
      "Ἔ": 1669,
      "Ἕ": 1670,
      "ἠ": 1671,
      "ἡ": 1672,
      "ἢ": 1673,
      "ἣ": 1674,
      "ἤ": 1675,
      "ἥ": 1676,
      "ἦ": 1677,
      "ἧ": 1678,
      "Ἡ": 1679,
      "ἰ": 1680,
      "ἱ": 1681,
      "ἳ": 1682,
      "ἴ": 1683,
      "ἵ": 1684,
      "ἶ": 1685,
      "ἷ": 1686,
      "Ἰ": 1687,
      "Ἱ": 1688,
      "Ἴ": 1689,
      "ὀ": 1690,
      "ὁ": 1691,
      "ὂ": 1692,
      "ὃ": 1693,
      "ὄ": 1694,
      "ὅ": 1695,
      "Ὁ": 1696,
      "Ὄ": 1697,
      "Ὅ": 1698,
      "ὐ": 1699,
      "ὑ": 1700,
      "ὔ": 1701,
      "ὕ": 1702,
      "ὖ": 1703,
      "ὗ": 1704,
      "ὠ": 1705,
      "ὡ": 1706,
      "ὢ": 1707,
      "ὥ": 1708,
      "ὦ": 1709,
      "Ὠ": 1710,
      "Ὡ": 1711,
      "Ὦ": 1712,
      "ὰ": 1713,
      "ὲ": 1714,
      "ὴ": 1715,
      "ὶ": 1716,
      "ὸ": 1717,
      "ὺ": 1718,
      "ὼ": 1719,
      "ᾅ": 1720,
      "ᾖ": 1721,
      "ᾠ": 1722,
      "ᾰ": 1723,
      "ᾳ": 1724,
      "ᾶ": 1725,
      "ᾷ": 1726,
      "᾿": 1727,
      "ῂ": 1728,
      "ῃ": 1729,
      "ῄ": 1730,
      "ῆ": 1731,
      "ῇ": 1732,
      "ῐ": 1733,
      "ῖ": 1734,
      "ῥ": 1735,
      "ῦ": 1736,
      "Ῥ": 1737,
      "ῳ": 1738,
      "ῴ": 1739,
      "ῶ": 1740,
      "ῷ": 1741,
      "῾": 1742,
      "‐": 1743,
      "‑": 1744,
      "‒": 1745,
      "–": 1746,
      "—": 1747,
      "―": 1748,
      "‖": 1749,
      "‗": 1750,
      "‘": 1751,
      "’": 1752,
      "‚": 1753,
      "‛": 1754,
      "“": 1755,
      "”": 1756,
      "„": 1757,
      "‟": 1758,
      "†": 1759,
      "‡": 1760,
      "•": 1761,
      "․": 1762,
      "…": 1763,
      "‧": 1764,
      "‰": 1765,
      "‱": 1766,
      "′": 1767,
      "″": 1768,
      "‹": 1769,
      "›": 1770,
      "※": 1771,
      "‼": 1772,
      "⁃": 1773,
      "⁄": 1774,
      "⁕": 1775,
      "⁡": 1776,
      "⁢": 1777,
      "⁰": 1778,
      "⁴": 1779,
      "⁵": 1780,
      "⁶": 1781,
      "⁷": 1782,
      "⁸": 1783,
      "⁹": 1784,
      "⁺": 1785,
      "ⁿ": 1786,
      "₀": 1787,
      "₁": 1788,
      "₂": 1789,
      "₃": 1790,
      "₄": 1791,
      "₅": 1792,
      "₈": 1793,
      "ₚ": 1794,
      "₡": 1795,
      "₣": 1796,
      "₤": 1797,
      "₦": 1798,
      "₨": 1799,
      "₩": 1800,
      "₪": 1801,
      "€": 1802,
      "₵": 1803,
      "₹": 1804,
      "⃗": 1805,
      "⃝": 1806,
      "⃣": 1807,
      "℃": 1808,
      "℉": 1809,
      "ℎ": 1810,
      "ℓ": 1811,
      "№": 1812,
      "℗": 1813,
      "℞": 1814,
      "℠": 1815,
      "™": 1816,
      "℥": 1817,
      "ℭ": 1818,
      "ℵ": 1819,
      "ℹ": 1820,
      "ⅆ": 1821,
      "⅓": 1822,
      "⅔": 1823,
      "⅕": 1824,
      "⅛": 1825,
      "⅜": 1826,
      "⅝": 1827,
      "Ⅰ": 1828,
      "Ⅱ": 1829,
      "Ⅲ": 1830,
      "Ⅳ": 1831,
      "←": 1832,
      "↑": 1833,
      "→": 1834,
      "↓": 1835,
      "↔": 1836,
      "↗": 1837,
      "↩": 1838,
      "↪": 1839,
      "↴": 1840,
      "↵": 1841,
      "⇄": 1842,
      "⇋": 1843,
      "⇌": 1844,
      "⇐": 1845,
      "⇑": 1846,
      "⇒": 1847,
      "⇓": 1848,
      "⇔": 1849,
      "⇝": 1850,
      "⇠": 1851,
      "⇥": 1852,
      "⇧": 1853,
      "⇨": 1854,
      "∀": 1855,
      "∂": 1856,
      "∅": 1857,
      "∆": 1858,
      "∇": 1859,
      "∈": 1860,
      "∊": 1861,
      "∎": 1862,
      "∑": 1863,
      "−": 1864,
      "∕": 1865,
      "∗": 1866,
      "∘": 1867,
      "∙": 1868,
      "√": 1869,
      "∛": 1870,
      "∝": 1871,
      "∞": 1872,
      "∠": 1873,
      "∣": 1874,
      "∥": 1875,
      "∧": 1876,
      "∨": 1877,
      "∩": 1878,
      "∪": 1879,
      "∫": 1880,
      "∴": 1881,
      "∶": 1882,
      "∼": 1883,
      "≅": 1884,
      "≈": 1885,
      "≒": 1886,
      "≔": 1887,
      "≠": 1888,
      "≡": 1889,
      "≤": 1890,
      "≥": 1891,
      "≪": 1892,
      "≫": 1893,
      "≳": 1894,
      "⊂": 1895,
      "⊔": 1896,
      "⊕": 1897,
      "⊗": 1898,
      "⊙": 1899,
      "⊥": 1900,
      "⋅": 1901,
      "⋯": 1902,
      "⌂": 1903,
      "⌃": 1904,
      "⌘": 1905,
      "⌨": 1906,
      "⌫": 1907,
      "⎈": 1908,
      "⎛": 1909,
      "⎜": 1910,
      "⎝": 1911,
      "⎞": 1912,
      "⎟": 1913,
      "⎠": 1914,
      "⎡": 1915,
      "⎣": 1916,
      "⎤": 1917,
      "⎦": 1918,
      "⎯": 1919,
      "⏐": 1920,
      "⏱": 1921,
      "⏳": 1922,
      "①": 1923,
      "②": 1924,
      "③": 1925,
      "④": 1926,
      "⑤": 1927,
      "⑥": 1928,
      "⑦": 1929,
      "⑧": 1930,
      "⑨": 1931,
      "⑩": 1932,
      "⑪": 1933,
      "⒈": 1934,
      "⒉": 1935,
      "⒊": 1936,
      "⒋": 1937,
      "⒌": 1938,
      "Ⓐ": 1939,
      "Ⓒ": 1940,
      "Ⓗ": 1941,
      "Ⓠ": 1942,
      "Ⓡ": 1943,
      "Ⓣ": 1944,
      "ⓘ": 1945,
      "ⓟ": 1946,
      "─": 1947,
      "━": 1948,
      "│": 1949,
      "┐": 1950,
      "└": 1951,
      "┘": 1952,
      "├": 1953,
      "┤": 1954,
      "┬": 1955,
      "╚": 1956,
      "╭": 1957,
      "▀": 1958,
      "█": 1959,
      "░": 1960,
      "▒": 1961,
      "▓": 1962,
      "■": 1963,
      "□": 1964,
      "▣": 1965,
      "▪": 1966,
      "▫": 1967,
      "▬": 1968,
      "▮": 1969,
      "▯": 1970,
      "▲": 1971,
      "△": 1972,
      "▶": 1973,
      "▷": 1974,
      "▸": 1975,
      "►": 1976,
      "▻": 1977,
      "▼": 1978,
      "▽": 1979,
      "◀": 1980,
      "◄": 1981,
      "◆": 1982,
      "◇": 1983,
      "◉": 1984,
      "◊": 1985,
      "○": 1986,
      "◌": 1987,
      "◎": 1988,
      "●": 1989,
      "◜": 1990,
      "◝": 1991,
      "◦": 1992,
      "◯": 1993,
      "◼": 1994,
      "◾": 1995,
      "★": 1996,
      "☆": 1997,
      "☉": 1998,
      "☎": 1999,
      "☏": 2000,
      "☑": 2001,
      "☕": 2002,
      "☘": 2003,
      "☛": 2004,
      "☝": 2005,
      "☞": 2006,
      "☠": 2007,
      "☭": 2008,
      "☮": 2009,
      "☯": 2010,
      "☰": 2011,
      "☸": 2012,
      "☺": 2013,
      "☻": 2014,
      "☼": 2015,
      "☾": 2016,
      "♀": 2017,
      "♂": 2018,
      "♈": 2019,
      "♉": 2020,
      "♊": 2021,
      "♋": 2022,
      "♌": 2023,
      "♍": 2024,
      "♎": 2025,
      "♏": 2026,
      "♐": 2027,
      "♑": 2028,
      "♒": 2029,
      "♓": 2030,
      "♠": 2031,
      "♡": 2032,
      "♢": 2033,
      "♣": 2034,
      "♥": 2035,
      "♦": 2036,
      "♪": 2037,
      "♫": 2038,
      "♬": 2039,
      "♭": 2040,
      "♮": 2041,
      "♯": 2042,
      "♾": 2043,
      "⚔": 2044,
      "⚠": 2045,
      "⚡": 2046,
      "⛏": 2047,
      "✂": 2048,
      "✅": 2049,
      "✈": 2050,
      "✉": 2051,
      "✋": 2052,
      "✌": 2053,
      "✍": 2054,
      "✎": 2055,
      "✓": 2056,
      "✔": 2057,
      "✖": 2058,
      "✝": 2059,
      "✤": 2060,
      "✥": 2061,
      "✦": 2062,
      "✧": 2063,
      "✨": 2064,
      "✪": 2065,
      "✴": 2066,
      "✿": 2067,
      "❉": 2068,
      "❊": 2069,
      "❌": 2070,
      "❍": 2071,
      "❏": 2072,
      "❓": 2073,
      "❖": 2074,
      "❜": 2075,
      "❝": 2076,
      "❞": 2077,
      "❤": 2078,
      "❧": 2079,
      "❯": 2080,
      "➔": 2081,
      "➕": 2082,
      "➙": 2083,
      "➜": 2084,
      "➝": 2085,
      "➡": 2086,
      "➢": 2087,
      "➤": 2088,
      "➥": 2089,
      "➧": 2090,
      "➽": 2091,
      "⟨": 2092,
      "⟩": 2093,
      "⠀": 2094,
      "⠈": 2095,
      "⠊": 2096,
      "⠗": 2097,
      "⠘": 2098,
      "⠠": 2099,
      "⠨": 2100,
      "⦁": 2101,
      "⦿": 2102,
      "⩾": 2103,
      "⬇": 2104,
      "⭐": 2105,
      "⸺": 2106,
      "⺟": 2107,
      "⻄": 2108,
      "⻅": 2109,
      "⻓": 2110,
      "⻚": 2111,
      "⻛": 2112,
      "⻩": 2113,
      "⼀": 2114,
      "⼆": 2115,
      "⼈": 2116,
      "⼉": 2117,
      "⼊": 2118,
      "⼋": 2119,
      "⼏": 2120,
      "⼒": 2121,
      "⼗": 2122,
      "⼜": 2123,
      "⼝": 2124,
      "⼠": 2125,
      "⼤": 2126,
      "⼥": 2127,
      "⼦": 2128,
      "⼩": 2129,
      "⼯": 2130,
      "⼰": 2131,
      "⼲": 2132,
      "⼼": 2133,
      "⼿": 2134,
      "⽀": 2135,
      "⽂": 2136,
      "⽅": 2137,
      "⽆": 2138,
      "⽇": 2139,
      "⽉": 2140,
      "⽐": 2141,
      "⽓": 2142,
      "⽔": 2143,
      "⽗": 2144,
      "⽚": 2145,
      "⽝": 2146,
      "⽣": 2147,
      "⽤": 2148,
      "⽩": 2149,
      "⽰": 2150,
      "⽴": 2151,
      "⽼": 2152,
      "⽽": 2153,
      "⾃": 2154,
      "⾄": 2155,
      "⾆": 2156,
      "⾊": 2157,
      "⾏": 2158,
      "⾓": 2159,
      "⾕": 2160,
      "⾛": 2161,
      "⾜": 2162,
      "⾝": 2163,
      "⾥": 2164,
      "⾦": 2165,
      "⾮": 2166,
      "⾯": 2167,
      "⾰": 2168,
      "⾸": 2169,
      "⾼": 2170,
      "⿊": 2171,
      "、": 2172,
      "。": 2173,
      "々": 2174,
      "〈": 2175,
      "〉": 2176,
      "《": 2177,
      "》": 2178,
      "「": 2179,
      "」": 2180,
      "『": 2181,
      "』": 2182,
      "【": 2183,
      "】": 2184,
      "〔": 2185,
      "〕": 2186,
      "〜": 2187,
      "あ": 2188,
      "い": 2189,
      "う": 2190,
      "ぇ": 2191,
      "え": 2192,
      "お": 2193,
      "か": 2194,
      "が": 2195,
      "き": 2196,
      "ぎ": 2197,
      "く": 2198,
      "ぐ": 2199,
      "け": 2200,
      "げ": 2201,
      "こ": 2202,
      "ご": 2203,
      "さ": 2204,
      "ざ": 2205,
      "し": 2206,
      "じ": 2207,
      "す": 2208,
      "ず": 2209,
      "せ": 2210,
      "ぜ": 2211,
      "そ": 2212,
      "ぞ": 2213,
      "た": 2214,
      "だ": 2215,
      "ち": 2216,
      "っ": 2217,
      "つ": 2218,
      "づ": 2219,
      "て": 2220,
      "で": 2221,
      "と": 2222,
      "ど": 2223,
      "な": 2224,
      "に": 2225,
      "ぬ": 2226,
      "ね": 2227,
      "の": 2228,
      "は": 2229,
      "ば": 2230,
      "ひ": 2231,
      "び": 2232,
      "ふ": 2233,
      "ぶ": 2234,
      "ぷ": 2235,
      "へ": 2236,
      "べ": 2237,
      "ぼ": 2238,
      "ぽ": 2239,
      "ま": 2240,
      "み": 2241,
      "む": 2242,
      "め": 2243,
      "も": 2244,
      "ゃ": 2245,
      "や": 2246,
      "ゅ": 2247,
      "ゆ": 2248,
      "ょ": 2249,
      "よ": 2250,
      "ら": 2251,
      "り": 2252,
      "る": 2253,
      "れ": 2254,
      "ろ": 2255,
      "わ": 2256,
      "を": 2257,
      "ん": 2258,
      "ァ": 2259,
      "ア": 2260,
      "ィ": 2261,
      "イ": 2262,
      "ウ": 2263,
      "ェ": 2264,
      "エ": 2265,
      "ォ": 2266,
      "オ": 2267,
      "カ": 2268,
      "ガ": 2269,
      "キ": 2270,
      "ギ": 2271,
      "ク": 2272,
      "グ": 2273,
      "ケ": 2274,
      "ゲ": 2275,
      "コ": 2276,
      "ゴ": 2277,
      "サ": 2278,
      "ザ": 2279,
      "シ": 2280,
      "ジ": 2281,
      "ス": 2282,
      "ズ": 2283,
      "セ": 2284,
      "ゼ": 2285,
      "ソ": 2286,
      "ゾ": 2287,
      "タ": 2288,
      "ダ": 2289,
      "チ": 2290,
      "ッ": 2291,
      "ツ": 2292,
      "ヅ": 2293,
      "テ": 2294,
      "デ": 2295,
      "ト": 2296,
      "ド": 2297,
      "ナ": 2298,
      "ニ": 2299,
      "ヌ": 2300,
      "ネ": 2301,
      "ノ": 2302,
      "ハ": 2303,
      "バ": 2304,
      "パ": 2305,
      "ヒ": 2306,
      "ビ": 2307,
      "ピ": 2308,
      "フ": 2309,
      "ブ": 2310,
      "プ": 2311,
      "ヘ": 2312,
      "ベ": 2313,
      "ペ": 2314,
      "ホ": 2315,
      "ボ": 2316,
      "ポ": 2317,
      "マ": 2318,
      "ミ": 2319,
      "ム": 2320,
      "メ": 2321,
      "モ": 2322,
      "ャ": 2323,
      "ュ": 2324,
      "ユ": 2325,
      "ョ": 2326,
      "ヨ": 2327,
      "ラ": 2328,
      "リ": 2329,
      "ル": 2330,
      "レ": 2331,
      "ロ": 2332,
      "ヮ": 2333,
      "ワ": 2334,
      "ヲ": 2335,
      "ン": 2336,
      "ヴ": 2337,
      "・": 2338,
      "ー": 2339,
      "ㄲ": 2340,
      "ㄸ": 2341,
      "ㅂ": 2342,
      "ㅃ": 2343,
      "ㅆ": 2344,
      "ㅉ": 2345,
      "㎥": 2346,
      "䀀": 2347,
      "䮤": 2348,
      "䯬": 2349,
      "一": 2350,
      "丁": 2351,
      "七": 2352,
      "万": 2353,
      "丈": 2354,
      "三": 2355,
      "上": 2356,
      "下": 2357,
      "不": 2358,
      "与": 2359,
      "丑": 2360,
      "专": 2361,
      "且": 2362,
      "世": 2363,
      "丘": 2364,
      "丙": 2365,
      "业": 2366,
      "丛": 2367,
      "东": 2368,
      "丝": 2369,
      "丞": 2370,
      "丢": 2371,
      "两": 2372,
      "严": 2373,
      "並": 2374,
      "个": 2375,
      "中": 2376,
      "丰": 2377,
      "丸": 2378,
      "丹": 2379,
      "为": 2380,
      "主": 2381,
      "丼": 2382,
      "丽": 2383,
      "举": 2384,
      "乃": 2385,
      "久": 2386,
      "么": 2387,
      "义": 2388,
      "之": 2389,
      "乌": 2390,
      "乎": 2391,
      "乏": 2392,
      "乐": 2393,
      "乘": 2394,
      "乙": 2395,
      "九": 2396,
      "也": 2397,
      "习": 2398,
      "乡": 2399,
      "书": 2400,
      "买": 2401,
      "乱": 2402,
      "乳": 2403,
      "乾": 2404,
      "亂": 2405,
      "了": 2406,
      "予": 2407,
      "争": 2408,
      "事": 2409,
      "二": 2410,
      "于": 2411,
      "亏": 2412,
      "云": 2413,
      "互": 2414,
      "五": 2415,
      "井": 2416,
      "亚": 2417,
      "些": 2418,
      "亜": 2419,
      "亞": 2420,
      "亡": 2421,
      "交": 2422,
      "亥": 2423,
      "产": 2424,
      "亨": 2425,
      "享": 2426,
      "京": 2427,
      "亭": 2428,
      "亮": 2429,
      "亲": 2430,
      "人": 2431,
      "什": 2432,
      "仁": 2433,
      "仅": 2434,
      "仇": 2435,
      "今": 2436,
      "介": 2437,
      "仍": 2438,
      "从": 2439,
      "仏": 2440,
      "仓": 2441,
      "仔": 2442,
      "仕": 2443,
      "他": 2444,
      "仗": 2445,
      "付": 2446,
      "仙": 2447,
      "代": 2448,
      "令": 2449,
      "以": 2450,
      "仪": 2451,
      "们": 2452,
      "仮": 2453,
      "仰": 2454,
      "仲": 2455,
      "件": 2456,
      "价": 2457,
      "任": 2458,
      "份": 2459,
      "企": 2460,
      "伊": 2461,
      "伍": 2462,
      "伎": 2463,
      "伏": 2464,
      "伐": 2465,
      "休": 2466,
      "众": 2467,
      "优": 2468,
      "会": 2469,
      "伝": 2470,
      "传": 2471,
      "伤": 2472,
      "伦": 2473,
      "伯": 2474,
      "估": 2475,
      "伴": 2476,
      "似": 2477,
      "伽": 2478,
      "但": 2479,
      "位": 2480,
      "低": 2481,
      "住": 2482,
      "佐": 2483,
      "佑": 2484,
      "体": 2485,
      "何": 2486,
      "佗": 2487,
      "余": 2488,
      "佛": 2489,
      "作": 2490,
      "你": 2491,
      "佩": 2492,
      "佳": 2493,
      "使": 2494,
      "來": 2495,
      "例": 2496,
      "侍": 2497,
      "侘": 2498,
      "供": 2499,
      "依": 2500,
      "価": 2501,
      "侣": 2502,
      "侧": 2503,
      "侯": 2504,
      "便": 2505,
      "係": 2506,
      "促": 2507,
      "俄": 2508,
      "俗": 2509,
      "保": 2510,
      "俞": 2511,
      "信": 2512,
      "修": 2513,
      "倉": 2514,
      "個": 2515,
      "倍": 2516,
      "們": 2517,
      "倒": 2518,
      "候": 2519,
      "倡": 2520,
      "値": 2521,
      "倫": 2522,
      "值": 2523,
      "倾": 2524,
      "假": 2525,
      "偈": 2526,
      "偉": 2527,
      "偏": 2528,
      "做": 2529,
      "停": 2530,
      "健": 2531,
      "側": 2532,
      "偶": 2533,
      "偷": 2534,
      "偽": 2535,
      "傅": 2536,
      "傍": 2537,
      "備": 2538,
      "傣": 2539,
      "储": 2540,
      "催": 2541,
      "傳": 2542,
      "傷": 2543,
      "傾": 2544,
      "僅": 2545,
      "働": 2546,
      "像": 2547,
      "僑": 2548,
      "僧": 2549,
      "價": 2550,
      "儀": 2551,
      "億": 2552,
      "儒": 2553,
      "優": 2554,
      "儿": 2555,
      "允": 2556,
      "元": 2557,
      "兄": 2558,
      "充": 2559,
      "先": 2560,
      "光": 2561,
      "克": 2562,
      "免": 2563,
      "児": 2564,
      "兒": 2565,
      "兔": 2566,
      "党": 2567,
      "入": 2568,
      "內": 2569,
      "全": 2570,
      "兩": 2571,
      "八": 2572,
      "公": 2573,
      "六": 2574,
      "兰": 2575,
      "共": 2576,
      "关": 2577,
      "兴": 2578,
      "兵": 2579,
      "其": 2580,
      "具": 2581,
      "典": 2582,
      "养": 2583,
      "兼": 2584,
      "内": 2585,
      "円": 2586,
      "冈": 2587,
      "册": 2588,
      "再": 2589,
      "冒": 2590,
      "写": 2591,
      "军": 2592,
      "农": 2593,
      "冠": 2594,
      "冥": 2595,
      "冬": 2596,
      "冰": 2597,
      "冲": 2598,
      "决": 2599,
      "况": 2600,
      "冷": 2601,
      "净": 2602,
      "准": 2603,
      "凌": 2604,
      "减": 2605,
      "凝": 2606,
      "几": 2607,
      "凤": 2608,
      "凭": 2609,
      "凰": 2610,
      "凱": 2611,
      "凶": 2612,
      "出": 2613,
      "击": 2614,
      "函": 2615,
      "刀": 2616,
      "分": 2617,
      "切": 2618,
      "刊": 2619,
      "划": 2620,
      "列": 2621,
      "刘": 2622,
      "则": 2623,
      "刚": 2624,
      "创": 2625,
      "初": 2626,
      "判": 2627,
      "別": 2628,
      "利": 2629,
      "别": 2630,
      "刮": 2631,
      "到": 2632,
      "制": 2633,
      "刷": 2634,
      "刹": 2635,
      "刺": 2636,
      "刻": 2637,
      "則": 2638,
      "剌": 2639,
      "前": 2640,
      "剑": 2641,
      "剖": 2642,
      "剛": 2643,
      "剣": 2644,
      "剧": 2645,
      "剩": 2646,
      "剪": 2647,
      "割": 2648,
      "創": 2649,
      "劃": 2650,
      "劉": 2651,
      "劍": 2652,
      "力": 2653,
      "功": 2654,
      "加": 2655,
      "务": 2656,
      "动": 2657,
      "助": 2658,
      "努": 2659,
      "劫": 2660,
      "励": 2661,
      "労": 2662,
      "势": 2663,
      "勉": 2664,
      "勋": 2665,
      "勒": 2666,
      "動": 2667,
      "勗": 2668,
      "勘": 2669,
      "務": 2670,
      "勝": 2671,
      "勢": 2672,
      "勿": 2673,
      "匀": 2674,
      "包": 2675,
      "匆": 2676,
      "匈": 2677,
      "化": 2678,
      "北": 2679,
      "匡": 2680,
      "匪": 2681,
      "区": 2682,
      "医": 2683,
      "區": 2684,
      "十": 2685,
      "千": 2686,
      "升": 2687,
      "午": 2688,
      "半": 2689,
      "华": 2690,
      "协": 2691,
      "卑": 2692,
      "卓": 2693,
      "協": 2694,
      "单": 2695,
      "卖": 2696,
      "南": 2697,
      "単": 2698,
      "博": 2699,
      "占": 2700,
      "卡": 2701,
      "卦": 2702,
      "卫": 2703,
      "卯": 2704,
      "印": 2705,
      "危": 2706,
      "即": 2707,
      "却": 2708,
      "卵": 2709,
      "卷": 2710,
      "卻": 2711,
      "卿": 2712,
      "厅": 2713,
      "历": 2714,
      "厉": 2715,
      "压": 2716,
      "厚": 2717,
      "原": 2718,
      "厥": 2719,
      "厨": 2720,
      "厳": 2721,
      "去": 2722,
      "县": 2723,
      "参": 2724,
      "參": 2725,
      "又": 2726,
      "叉": 2727,
      "及": 2728,
      "友": 2729,
      "双": 2730,
      "反": 2731,
      "发": 2732,
      "叔": 2733,
      "取": 2734,
      "受": 2735,
      "变": 2736,
      "叢": 2737,
      "口": 2738,
      "古": 2739,
      "句": 2740,
      "另": 2741,
      "只": 2742,
      "叫": 2743,
      "召": 2744,
      "可": 2745,
      "台": 2746,
      "史": 2747,
      "右": 2748,
      "叶": 2749,
      "号": 2750,
      "司": 2751,
      "叹": 2752,
      "吁": 2753,
      "吃": 2754,
      "各": 2755,
      "合": 2756,
      "吉": 2757,
      "同": 2758,
      "名": 2759,
      "后": 2760,
      "向": 2761,
      "吗": 2762,
      "君": 2763,
      "否": 2764,
      "吧": 2765,
      "含": 2766,
      "听": 2767,
      "启": 2768,
      "吳": 2769,
      "吴": 2770,
      "吸": 2771,
      "吹": 2772,
      "吾": 2773,
      "呂": 2774,
      "呈": 2775,
      "告": 2776,
      "员": 2777,
      "呢": 2778,
      "周": 2779,
      "味": 2780,
      "呼": 2781,
      "命": 2782,
      "和": 2783,
      "咎": 2784,
      "咒": 2785,
      "咔": 2786,
      "咱": 2787,
      "哀": 2788,
      "品": 2789,
      "响": 2790,
      "哗": 2791,
      "員": 2792,
      "哥": 2793,
      "哪": 2794,
      "哲": 2795,
      "唇": 2796,
      "唐": 2797,
      "唑": 2798,
      "唯": 2799,
      "商": 2800,
      "啊": 2801,
      "問": 2802,
      "啓": 2803,
      "啟": 2804,
      "善": 2805,
      "喚": 2806,
      "喜": 2807,
      "喧": 2808,
      "喪": 2809,
      "喬": 2810,
      "單": 2811,
      "嗎": 2812,
      "嗟": 2813,
      "嘉": 2814,
      "嘛": 2815,
      "嘟": 2816,
      "嘩": 2817,
      "嘴": 2818,
      "噠": 2819,
      "器": 2820,
      "噪": 2821,
      "嚣": 2822,
      "嚴": 2823,
      "囔": 2824,
      "四": 2825,
      "回": 2826,
      "因": 2827,
      "团": 2828,
      "団": 2829,
      "园": 2830,
      "困": 2831,
      "囲": 2832,
      "図": 2833,
      "围": 2834,
      "固": 2835,
      "国": 2836,
      "图": 2837,
      "圄": 2838,
      "圆": 2839,
      "圈": 2840,
      "國": 2841,
      "圏": 2842,
      "園": 2843,
      "圖": 2844,
      "土": 2845,
      "圣": 2846,
      "圧": 2847,
      "在": 2848,
      "地": 2849,
      "圳": 2850,
      "场": 2851,
      "圾": 2852,
      "址": 2853,
      "坂": 2854,
      "均": 2855,
      "坏": 2856,
      "坐": 2857,
      "坑": 2858,
      "块": 2859,
      "坚": 2860,
      "坛": 2861,
      "坞": 2862,
      "坡": 2863,
      "坤": 2864,
      "坪": 2865,
      "坯": 2866,
      "垂": 2867,
      "垃": 2868,
      "型": 2869,
      "垫": 2870,
      "垱": 2871,
      "城": 2872,
      "埔": 2873,
      "域": 2874,
      "執": 2875,
      "培": 2876,
      "基": 2877,
      "埿": 2878,
      "堀": 2879,
      "堂": 2880,
      "堡": 2881,
      "堪": 2882,
      "報": 2883,
      "場": 2884,
      "塑": 2885,
      "塔": 2886,
      "塘": 2887,
      "塞": 2888,
      "塩": 2889,
      "填": 2890,
      "境": 2891,
      "墊": 2892,
      "墌": 2893,
      "墓": 2894,
      "增": 2895,
      "墨": 2896,
      "墩": 2897,
      "壁": 2898,
      "壇": 2899,
      "壋": 2900,
      "壓": 2901,
      "壤": 2902,
      "士": 2903,
      "壬": 2904,
      "壮": 2905,
      "壯": 2906,
      "声": 2907,
      "壳": 2908,
      "壽": 2909,
      "处": 2910,
      "备": 2911,
      "复": 2912,
      "夏": 2913,
      "夔": 2914,
      "夕": 2915,
      "外": 2916,
      "多": 2917,
      "夜": 2918,
      "够": 2919,
      "夢": 2920,
      "大": 2921,
      "天": 2922,
      "太": 2923,
      "夫": 2924,
      "央": 2925,
      "失": 2926,
      "头": 2927,
      "夷": 2928,
      "夹": 2929,
      "夺": 2930,
      "奇": 2931,
      "奉": 2932,
      "奋": 2933,
      "奏": 2934,
      "奖": 2935,
      "套": 2936,
      "奠": 2937,
      "奥": 2938,
      "奧": 2939,
      "女": 2940,
      "奴": 2941,
      "奶": 2942,
      "奸": 2943,
      "她": 2944,
      "好": 2945,
      "如": 2946,
      "妃": 2947,
      "妇": 2948,
      "妈": 2949,
      "妍": 2950,
      "妓": 2951,
      "妖": 2952,
      "妙": 2953,
      "妤": 2954,
      "妥": 2955,
      "妮": 2956,
      "妲": 2957,
      "妳": 2958,
      "妹": 2959,
      "妻": 2960,
      "妾": 2961,
      "姆": 2962,
      "始": 2963,
      "姐": 2964,
      "姑": 2965,
      "姓": 2966,
      "委": 2967,
      "姜": 2968,
      "姨": 2969,
      "威": 2970,
      "娃": 2971,
      "娑": 2972,
      "娘": 2973,
      "娟": 2974,
      "娥": 2975,
      "娱": 2976,
      "娲": 2977,
      "婁": 2978,
      "婆": 2979,
      "婕": 2980,
      "婦": 2981,
      "婴": 2982,
      "婶": 2983,
      "婷": 2984,
      "婿": 2985,
      "媒": 2986,
      "媚": 2987,
      "媛": 2988,
      "媧": 2989,
      "媽": 2990,
      "嫂": 2991,
      "嫖": 2992,
      "嫣": 2993,
      "嬋": 2994,
      "嬪": 2995,
      "嬰": 2996,
      "子": 2997,
      "孔": 2998,
      "孕": 2999,
      "字": 3000,
      "存": 3001,
      "孙": 3002,
      "孜": 3003,
      "孝": 3004,
      "季": 3005,
      "孤": 3006,
      "学": 3007,
      "孩": 3008,
      "孫": 3009,
      "孵": 3010,
      "學": 3011,
      "宀": 3012,
      "宁": 3013,
      "它": 3014,
      "宅": 3015,
      "宇": 3016,
      "守": 3017,
      "安": 3018,
      "宋": 3019,
      "完": 3020,
      "宏": 3021,
      "宗": 3022,
      "官": 3023,
      "宙": 3024,
      "定": 3025,
      "宜": 3026,
      "宝": 3027,
      "实": 3028,
      "実": 3029,
      "审": 3030,
      "客": 3031,
      "宣": 3032,
      "室": 3033,
      "宦": 3034,
      "宪": 3035,
      "宫": 3036,
      "宮": 3037,
      "宰": 3038,
      "害": 3039,
      "宴": 3040,
      "宵": 3041,
      "家": 3042,
      "容": 3043,
      "宽": 3044,
      "宾": 3045,
      "宿": 3046,
      "寅": 3047,
      "密": 3048,
      "寇": 3049,
      "富": 3050,
      "寒": 3051,
      "寛": 3052,
      "寝": 3053,
      "察": 3054,
      "實": 3055,
      "寧": 3056,
      "寫": 3057,
      "寵": 3058,
      "寶": 3059,
      "寸": 3060,
      "对": 3061,
      "寺": 3062,
      "寻": 3063,
      "导": 3064,
      "対": 3065,
      "寿": 3066,
      "封": 3067,
      "射": 3068,
      "将": 3069,
      "將": 3070,
      "尊": 3071,
      "尋": 3072,
      "對": 3073,
      "導": 3074,
      "小": 3075,
      "少": 3076,
      "尔": 3077,
      "尚": 3078,
      "尝": 3079,
      "尤": 3080,
      "尧": 3081,
      "就": 3082,
      "尸": 3083,
      "尹": 3084,
      "尺": 3085,
      "尻": 3086,
      "尼": 3087,
      "尽": 3088,
      "尾": 3089,
      "局": 3090,
      "屁": 3091,
      "层": 3092,
      "居": 3093,
      "屈": 3094,
      "届": 3095,
      "屋": 3096,
      "屍": 3097,
      "屏": 3098,
      "展": 3099,
      "属": 3100,
      "履": 3101,
      "山": 3102,
      "岁": 3103,
      "岚": 3104,
      "岛": 3105,
      "岩": 3106,
      "岭": 3107,
      "岸": 3108,
      "峭": 3109,
      "島": 3110,
      "峽": 3111,
      "崇": 3112,
      "崎": 3113,
      "崔": 3114,
      "崖": 3115,
      "崩": 3116,
      "嶼": 3117,
      "嶽": 3118,
      "巍": 3119,
      "巖": 3120,
      "川": 3121,
      "州": 3122,
      "巡": 3123,
      "巢": 3124,
      "工": 3125,
      "左": 3126,
      "巧": 3127,
      "巨": 3128,
      "巩": 3129,
      "巫": 3130,
      "差": 3131,
      "己": 3132,
      "已": 3133,
      "巳": 3134,
      "巴": 3135,
      "巷": 3136,
      "巻": 3137,
      "巾": 3138,
      "市": 3139,
      "布": 3140,
      "帆": 3141,
      "师": 3142,
      "希": 3143,
      "帕": 3144,
      "帝": 3145,
      "帥": 3146,
      "带": 3147,
      "師": 3148,
      "席": 3149,
      "帮": 3150,
      "帰": 3151,
      "常": 3152,
      "幅": 3153,
      "幕": 3154,
      "幡": 3155,
      "幣": 3156,
      "干": 3157,
      "平": 3158,
      "年": 3159,
      "并": 3160,
      "幸": 3161,
      "幹": 3162,
      "幼": 3163,
      "幾": 3164,
      "广": 3165,
      "庁": 3166,
      "広": 3167,
      "庄": 3168,
      "床": 3169,
      "序": 3170,
      "库": 3171,
      "应": 3172,
      "底": 3173,
      "庙": 3174,
      "庚": 3175,
      "府": 3176,
      "废": 3177,
      "度": 3178,
      "座": 3179,
      "庫": 3180,
      "庭": 3181,
      "庵": 3182,
      "康": 3183,
      "庸": 3184,
      "廃": 3185,
      "廈": 3186,
      "廉": 3187,
      "廊": 3188,
      "廣": 3189,
      "廬": 3190,
      "廳": 3191,
      "延": 3192,
      "廷": 3193,
      "建": 3194,
      "廿": 3195,
      "开": 3196,
      "弁": 3197,
      "异": 3198,
      "弃": 3199,
      "弄": 3200,
      "式": 3201,
      "弓": 3202,
      "引": 3203,
      "弗": 3204,
      "弘": 3205,
      "弟": 3206,
      "张": 3207,
      "弥": 3208,
      "弱": 3209,
      "張": 3210,
      "強": 3211,
      "弹": 3212,
      "强": 3213,
      "弼": 3214,
      "彌": 3215,
      "归": 3216,
      "当": 3217,
      "录": 3218,
      "形": 3219,
      "彥": 3220,
      "彩": 3221,
      "彭": 3222,
      "彰": 3223,
      "影": 3224,
      "役": 3225,
      "彼": 3226,
      "往": 3227,
      "征": 3228,
      "径": 3229,
      "待": 3230,
      "很": 3231,
      "律": 3232,
      "後": 3233,
      "徐": 3234,
      "徑": 3235,
      "徒": 3236,
      "得": 3237,
      "從": 3238,
      "御": 3239,
      "徦": 3240,
      "復": 3241,
      "循": 3242,
      "微": 3243,
      "徳": 3244,
      "徵": 3245,
      "德": 3246,
      "徹": 3247,
      "徽": 3248,
      "心": 3249,
      "必": 3250,
      "忍": 3251,
      "志": 3252,
      "忘": 3253,
      "応": 3254,
      "忠": 3255,
      "快": 3256,
      "念": 3257,
      "忽": 3258,
      "怀": 3259,
      "态": 3260,
      "怎": 3261,
      "怒": 3262,
      "怕": 3263,
      "怖": 3264,
      "怜": 3265,
      "思": 3266,
      "急": 3267,
      "性": 3268,
      "怪": 3269,
      "总": 3270,
      "恆": 3271,
      "恋": 3272,
      "恒": 3273,
      "恕": 3274,
      "恢": 3275,
      "恩": 3276,
      "恭": 3277,
      "息": 3278,
      "恰": 3279,
      "恳": 3280,
      "恵": 3281,
      "恻": 3282,
      "悄": 3283,
      "悉": 3284,
      "悟": 3285,
      "患": 3286,
      "您": 3287,
      "悪": 3288,
      "悬": 3289,
      "悯": 3290,
      "悲": 3291,
      "悼": 3292,
      "情": 3293,
      "惊": 3294,
      "惑": 3295,
      "惜": 3296,
      "惠": 3297,
      "惡": 3298,
      "惩": 3299,
      "惯": 3300,
      "想": 3301,
      "惹": 3302,
      "意": 3303,
      "愛": 3304,
      "感": 3305,
      "愿": 3306,
      "慇": 3307,
      "慈": 3308,
      "態": 3309,
      "慎": 3310,
      "慣": 3311,
      "慧": 3312,
      "慮": 3313,
      "慶": 3314,
      "憲": 3315,
      "憶": 3316,
      "憾": 3317,
      "應": 3318,
      "懷": 3319,
      "懸": 3320,
      "懿": 3321,
      "戊": 3322,
      "戌": 3323,
      "成": 3324,
      "我": 3325,
      "戒": 3326,
      "或": 3327,
      "战": 3328,
      "戦": 3329,
      "截": 3330,
      "戰": 3331,
      "戴": 3332,
      "戶": 3333,
      "户": 3334,
      "戸": 3335,
      "房": 3336,
      "所": 3337,
      "扁": 3338,
      "扇": 3339,
      "手": 3340,
      "才": 3341,
      "扎": 3342,
      "打": 3343,
      "扔": 3344,
      "払": 3345,
      "扣": 3346,
      "执": 3347,
      "扩": 3348,
      "扬": 3349,
      "扮": 3350,
      "批": 3351,
      "扼": 3352,
      "找": 3353,
      "承": 3354,
      "技": 3355,
      "抄": 3356,
      "把": 3357,
      "抓": 3358,
      "投": 3359,
      "抖": 3360,
      "抗": 3361,
      "折": 3362,
      "抚": 3363,
      "护": 3364,
      "报": 3365,
      "抯": 3366,
      "押": 3367,
      "担": 3368,
      "拉": 3369,
      "拌": 3370,
      "拍": 3371,
      "拖": 3372,
      "拙": 3373,
      "拜": 3374,
      "拟": 3375,
      "拥": 3376,
      "择": 3377,
      "括": 3378,
      "拱": 3379,
      "拳": 3380,
      "拼": 3381,
      "拿": 3382,
      "持": 3383,
      "指": 3384,
      "按": 3385,
      "挑": 3386,
      "挚": 3387,
      "挡": 3388,
      "挥": 3389,
      "挪": 3390,
      "振": 3391,
      "挺": 3392,
      "捉": 3393,
      "捕": 3394,
      "损": 3395,
      "换": 3396,
      "据": 3397,
      "捷": 3398,
      "授": 3399,
      "掉": 3400,
      "掌": 3401,
      "排": 3402,
      "掠": 3403,
      "採": 3404,
      "探": 3405,
      "接": 3406,
      "控": 3407,
      "推": 3408,
      "掲": 3409,
      "揂": 3410,
      "描": 3411,
      "提": 3412,
      "插": 3413,
      "換": 3414,
      "揟": 3415,
      "握": 3416,
      "揳": 3417,
      "援": 3418,
      "搅": 3419,
      "搇": 3420,
      "損": 3421,
      "搏": 3422,
      "搔": 3423,
      "搕": 3424,
      "搬": 3425,
      "摄": 3426,
      "摆": 3427,
      "摔": 3428,
      "摘": 3429,
      "摧": 3430,
      "摩": 3431,
      "摺": 3432,
      "撃": 3433,
      "撒": 3434,
      "播": 3435,
      "撰": 3436,
      "擊": 3437,
      "操": 3438,
      "擔": 3439,
      "據": 3440,
      "擦": 3441,
      "擬": 3442,
      "擾": 3443,
      "攁": 3444,
      "攂": 3445,
      "攅": 3446,
      "攪": 3447,
      "支": 3448,
      "收": 3449,
      "改": 3450,
      "攻": 3451,
      "放": 3452,
      "政": 3453,
      "故": 3454,
      "效": 3455,
      "敌": 3456,
      "敏": 3457,
      "救": 3458,
      "教": 3459,
      "敢": 3460,
      "散": 3461,
      "敦": 3462,
      "敬": 3463,
      "数": 3464,
      "整": 3465,
      "數": 3466,
      "文": 3467,
      "斎": 3468,
      "斐": 3469,
      "斑": 3470,
      "斗": 3471,
      "料": 3472,
      "斜": 3473,
      "斤": 3474,
      "斧": 3475,
      "断": 3476,
      "斯": 3477,
      "新": 3478,
      "斷": 3479,
      "方": 3480,
      "於": 3481,
      "施": 3482,
      "旁": 3483,
      "旅": 3484,
      "旋": 3485,
      "族": 3486,
      "旗": 3487,
      "无": 3488,
      "既": 3489,
      "日": 3490,
      "旦": 3491,
      "旧": 3492,
      "旨": 3493,
      "早": 3494,
      "时": 3495,
      "旷": 3496,
      "昀": 3497,
      "昂": 3498,
      "昉": 3499,
      "昌": 3500,
      "明": 3501,
      "易": 3502,
      "昔": 3503,
      "昞": 3504,
      "星": 3505,
      "映": 3506,
      "春": 3507,
      "昨": 3508,
      "昭": 3509,
      "是": 3510,
      "显": 3511,
      "時": 3512,
      "晉": 3513,
      "晋": 3514,
      "晓": 3515,
      "晖": 3516,
      "晚": 3517,
      "晟": 3518,
      "晦": 3519,
      "普": 3520,
      "景": 3521,
      "晰": 3522,
      "晴": 3523,
      "智": 3524,
      "暁": 3525,
      "暂": 3526,
      "暑": 3527,
      "暗": 3528,
      "暫": 3529,
      "暴": 3530,
      "曉": 3531,
      "曜": 3532,
      "曝": 3533,
      "曦": 3534,
      "曰": 3535,
      "曳": 3536,
      "更": 3537,
      "書": 3538,
      "曹": 3539,
      "曼": 3540,
      "曾": 3541,
      "替": 3542,
      "最": 3543,
      "會": 3544,
      "月": 3545,
      "有": 3546,
      "朋": 3547,
      "服": 3548,
      "朔": 3549,
      "朗": 3550,
      "望": 3551,
      "朝": 3552,
      "期": 3553,
      "朧": 3554,
      "木": 3555,
      "未": 3556,
      "末": 3557,
      "本": 3558,
      "术": 3559,
      "朱": 3560,
      "机": 3561,
      "杀": 3562,
      "杂": 3563,
      "权": 3564,
      "李": 3565,
      "杏": 3566,
      "材": 3567,
      "村": 3568,
      "杜": 3569,
      "杝": 3570,
      "杞": 3571,
      "束": 3572,
      "条": 3573,
      "来": 3574,
      "杨": 3575,
      "杭": 3576,
      "杯": 3577,
      "東": 3578,
      "松": 3579,
      "板": 3580,
      "极": 3581,
      "构": 3582,
      "析": 3583,
      "枕": 3584,
      "林": 3585,
      "枚": 3586,
      "果": 3587,
      "枣": 3588,
      "枪": 3589,
      "枯": 3590,
      "架": 3591,
      "枷": 3592,
      "枸": 3593,
      "柄": 3594,
      "柏": 3595,
      "某": 3596,
      "染": 3597,
      "查": 3598,
      "柬": 3599,
      "柯": 3600,
      "柱": 3601,
      "柳": 3602,
      "柴": 3603,
      "栄": 3604,
      "标": 3605,
      "栏": 3606,
      "树": 3607,
      "栗": 3608,
      "校": 3609,
      "株": 3610,
      "样": 3611,
      "核": 3612,
      "根": 3613,
      "格": 3614,
      "桀": 3615,
      "桂": 3616,
      "框": 3617,
      "案": 3618,
      "桌": 3619,
      "桐": 3620,
      "桑": 3621,
      "梁": 3622,
      "梅": 3623,
      "梓": 3624,
      "條": 3625,
      "梦": 3626,
      "梨": 3627,
      "梯": 3628,
      "械": 3629,
      "梳": 3630,
      "检": 3631,
      "棋": 3632,
      "棒": 3633,
      "棠": 3634,
      "棩": 3635,
      "森": 3636,
      "棱": 3637,
      "椅": 3638,
      "植": 3639,
      "椎": 3640,
      "椒": 3641,
      "検": 3642,
      "椰": 3643,
      "椿": 3644,
      "楂": 3645,
      "楊": 3646,
      "楚": 3647,
      "楨": 3648,
      "業": 3649,
      "楯": 3650,
      "極": 3651,
      "楷": 3652,
      "楸": 3653,
      "楼": 3654,
      "楽": 3655,
      "概": 3656,
      "榕": 3657,
      "榬": 3658,
      "榮": 3659,
      "榰": 3660,
      "構": 3661,
      "様": 3662,
      "樂": 3663,
      "樊": 3664,
      "標": 3665,
      "模": 3666,
      "樣": 3667,
      "権": 3668,
      "横": 3669,
      "樹": 3670,
      "橋": 3671,
      "機": 3672,
      "檚": 3673,
      "檛": 3674,
      "檢": 3675,
      "檻": 3676,
      "權": 3677,
      "欠": 3678,
      "次": 3679,
      "欢": 3680,
      "欣": 3681,
      "欧": 3682,
      "欲": 3683,
      "欺": 3684,
      "欽": 3685,
      "歉": 3686,
      "歌": 3687,
      "歡": 3688,
      "止": 3689,
      "正": 3690,
      "此": 3691,
      "步": 3692,
      "武": 3693,
      "歧": 3694,
      "歩": 3695,
      "歯": 3696,
      "歴": 3697,
      "歷": 3698,
      "歸": 3699,
      "死": 3700,
      "残": 3701,
      "段": 3702,
      "殷": 3703,
      "殺": 3704,
      "殿": 3705,
      "毁": 3706,
      "毅": 3707,
      "毆": 3708,
      "毋": 3709,
      "母": 3710,
      "每": 3711,
      "毒": 3712,
      "比": 3713,
      "毕": 3714,
      "毛": 3715,
      "毫": 3716,
      "氏": 3717,
      "民": 3718,
      "氓": 3719,
      "气": 3720,
      "気": 3721,
      "氛": 3722,
      "氢": 3723,
      "氣": 3724,
      "氧": 3725,
      "水": 3726,
      "氵": 3727,
      "永": 3728,
      "求": 3729,
      "汉": 3730,
      "汝": 3731,
      "江": 3732,
      "池": 3733,
      "污": 3734,
      "汪": 3735,
      "決": 3736,
      "汽": 3737,
      "沁": 3738,
      "沃": 3739,
      "沈": 3740,
      "沒": 3741,
      "沖": 3742,
      "沙": 3743,
      "没": 3744,
      "沪": 3745,
      "河": 3746,
      "油": 3747,
      "治": 3748,
      "沼": 3749,
      "沿": 3750,
      "況": 3751,
      "泉": 3752,
      "法": 3753,
      "泗": 3754,
      "泛": 3755,
      "泡": 3756,
      "波": 3757,
      "泥": 3758,
      "注": 3759,
      "泯": 3760,
      "泰": 3761,
      "泽": 3762,
      "洁": 3763,
      "洋": 3764,
      "洗": 3765,
      "洛": 3766,
      "洞": 3767,
      "津": 3768,
      "洪": 3769,
      "洲": 3770,
      "洶": 3771,
      "洸": 3772,
      "活": 3773,
      "派": 3774,
      "流": 3775,
      "浄": 3776,
      "浅": 3777,
      "测": 3778,
      "济": 3779,
      "浓": 3780,
      "浙": 3781,
      "浦": 3782,
      "浩": 3783,
      "浮": 3784,
      "浳": 3785,
      "海": 3786,
      "浸": 3787,
      "涂": 3788,
      "消": 3789,
      "涉": 3790,
      "涯": 3791,
      "液": 3792,
      "淑": 3793,
      "淡": 3794,
      "淨": 3795,
      "淭": 3796,
      "淮": 3797,
      "深": 3798,
      "淵": 3799,
      "混": 3800,
      "添": 3801,
      "清": 3802,
      "済": 3803,
      "渉": 3804,
      "渍": 3805,
      "渎": 3806,
      "渐": 3807,
      "渕": 3808,
      "減": 3809,
      "渠": 3810,
      "渡": 3811,
      "渣": 3812,
      "渤": 3813,
      "渨": 3814,
      "温": 3815,
      "測": 3816,
      "港": 3817,
      "游": 3818,
      "渾": 3819,
      "湖": 3820,
      "湘": 3821,
      "湧": 3822,
      "湯": 3823,
      "湾": 3824,
      "湿": 3825,
      "満": 3826,
      "源": 3827,
      "準": 3828,
      "溝": 3829,
      "溢": 3830,
      "溪": 3831,
      "溫": 3832,
      "溶": 3833,
      "溺": 3834,
      "滄": 3835,
      "滎": 3836,
      "滑": 3837,
      "滕": 3838,
      "满": 3839,
      "漁": 3840,
      "漂": 3841,
      "漆": 3842,
      "演": 3843,
      "漢": 3844,
      "漫": 3845,
      "潛": 3846,
      "潞": 3847,
      "潮": 3848,
      "潰": 3849,
      "澄": 3850,
      "澗": 3851,
      "澤": 3852,
      "澳": 3853,
      "激": 3854,
      "濃": 3855,
      "濟": 3856,
      "濡": 3857,
      "濤": 3858,
      "濫": 3859,
      "瀛": 3860,
      "瀬": 3861,
      "瀰": 3862,
      "瀾": 3863,
      "灌": 3864,
      "灣": 3865,
      "火": 3866,
      "灭": 3867,
      "灯": 3868,
      "灵": 3869,
      "災": 3870,
      "灾": 3871,
      "炀": 3872,
      "炉": 3873,
      "炒": 3874,
      "炕": 3875,
      "炙": 3876,
      "炭": 3877,
      "炸": 3878,
      "点": 3879,
      "為": 3880,
      "炼": 3881,
      "烂": 3882,
      "烈": 3883,
      "烏": 3884,
      "烦": 3885,
      "热": 3886,
      "烷": 3887,
      "焚": 3888,
      "無": 3889,
      "然": 3890,
      "煎": 3891,
      "煙": 3892,
      "煥": 3893,
      "煦": 3894,
      "照": 3895,
      "熊": 3896,
      "熔": 3897,
      "熙": 3898,
      "熟": 3899,
      "熱": 3900,
      "燃": 3901,
      "燈": 3902,
      "營": 3903,
      "燥": 3904,
      "爭": 3905,
      "爱": 3906,
      "爲": 3907,
      "父": 3908,
      "爷": 3909,
      "爸": 3910,
      "爹": 3911,
      "爻": 3912,
      "爾": 3913,
      "片": 3914,
      "版": 3915,
      "牙": 3916,
      "牛": 3917,
      "牟": 3918,
      "牢": 3919,
      "牧": 3920,
      "物": 3921,
      "牵": 3922,
      "特": 3923,
      "犊": 3924,
      "犬": 3925,
      "犯": 3926,
      "状": 3927,
      "狀": 3928,
      "狂": 3929,
      "狄": 3930,
      "狐": 3931,
      "狔": 3932,
      "狗": 3933,
      "狦": 3934,
      "狨": 3935,
      "独": 3936,
      "狭": 3937,
      "狸": 3938,
      "猇": 3939,
      "猛": 3940,
      "猢": 3941,
      "猪": 3942,
      "猫": 3943,
      "献": 3944,
      "猴": 3945,
      "猶": 3946,
      "猻": 3947,
      "猿": 3948,
      "獅": 3949,
      "獨": 3950,
      "獲": 3951,
      "獻": 3952,
      "獼": 3953,
      "玄": 3954,
      "率": 3955,
      "玉": 3956,
      "王": 3957,
      "玛": 3958,
      "环": 3959,
      "现": 3960,
      "玻": 3961,
      "珍": 3962,
      "珏": 3963,
      "珠": 3964,
      "珪": 3965,
      "班": 3966,
      "現": 3967,
      "球": 3968,
      "理": 3969,
      "琐": 3970,
      "琳": 3971,
      "瑛": 3972,
      "瑞": 3973,
      "瑤": 3974,
      "瑰": 3975,
      "璁": 3976,
      "璃": 3977,
      "璘": 3978,
      "環": 3979,
      "瓊": 3980,
      "瓣": 3981,
      "甘": 3982,
      "甚": 3983,
      "生": 3984,
      "產": 3985,
      "用": 3986,
      "田": 3987,
      "由": 3988,
      "甲": 3989,
      "申": 3990,
      "电": 3991,
      "男": 3992,
      "町": 3993,
      "画": 3994,
      "界": 3995,
      "留": 3996,
      "畢": 3997,
      "略": 3998,
      "番": 3999,
      "畫": 4000,
      "畬": 4001,
      "異": 4002,
      "當": 4003,
      "疆": 4004,
      "疑": 4005,
      "疗": 4006,
      "疫": 4007,
      "疼": 4008,
      "疾": 4009,
      "病": 4010,
      "症": 4011,
      "痕": 4012,
      "痛": 4013,
      "痫": 4014,
      "瘟": 4015,
      "療": 4016,
      "癒": 4017,
      "癖": 4018,
      "癫": 4019,
      "癸": 4020,
      "発": 4021,
      "登": 4022,
      "發": 4023,
      "白": 4024,
      "百": 4025,
      "皂": 4026,
      "的": 4027,
      "皆": 4028,
      "皇": 4029,
      "皎": 4030,
      "皮": 4031,
      "皿": 4032,
      "盈": 4033,
      "益": 4034,
      "盘": 4035,
      "盛": 4036,
      "盟": 4037,
      "監": 4038,
      "盧": 4039,
      "目": 4040,
      "直": 4041,
      "相": 4042,
      "盼": 4043,
      "省": 4044,
      "眉": 4045,
      "看": 4046,
      "県": 4047,
      "真": 4048,
      "眼": 4049,
      "眾": 4050,
      "着": 4051,
      "睇": 4052,
      "睛": 4053,
      "督": 4054,
      "睹": 4055,
      "睺": 4056,
      "睿": 4057,
      "瞧": 4058,
      "矜": 4059,
      "知": 4060,
      "短": 4061,
      "矯": 4062,
      "石": 4063,
      "码": 4064,
      "砂": 4065,
      "砌": 4066,
      "研": 4067,
      "砖": 4068,
      "砲": 4069,
      "破": 4070,
      "础": 4071,
      "硝": 4072,
      "硬": 4073,
      "确": 4074,
      "碍": 4075,
      "碘": 4076,
      "碧": 4077,
      "碩": 4078,
      "碰": 4079,
      "碱": 4080,
      "碳": 4081,
      "確": 4082,
      "磨": 4083,
      "磷": 4084,
      "磺": 4085,
      "礎": 4086,
      "礮": 4087,
      "示": 4088,
      "礼": 4089,
      "社": 4090,
      "祕": 4091,
      "祖": 4092,
      "祗": 4093,
      "神": 4094,
      "祠": 4095,
      "祢": 4096,
      "祥": 4097,
      "票": 4098,
      "祭": 4099,
      "祿": 4100,
      "禁": 4101,
      "禍": 4102,
      "福": 4103,
      "禪": 4104,
      "禮": 4105,
      "禴": 4106,
      "禺": 4107,
      "离": 4108,
      "禾": 4109,
      "秀": 4110,
      "私": 4111,
      "秉": 4112,
      "秋": 4113,
      "种": 4114,
      "科": 4115,
      "秒": 4116,
      "秘": 4117,
      "秦": 4118,
      "秩": 4119,
      "积": 4120,
      "称": 4121,
      "移": 4122,
      "稅": 4123,
      "程": 4124,
      "税": 4125,
      "稚": 4126,
      "稠": 4127,
      "種": 4128,
      "稱": 4129,
      "稳": 4130,
      "稷": 4131,
      "稻": 4132,
      "稼": 4133,
      "稽": 4134,
      "稿": 4135,
      "穂": 4136,
      "穆": 4137,
      "穴": 4138,
      "究": 4139,
      "穹": 4140,
      "空": 4141,
      "突": 4142,
      "窄": 4143,
      "窗": 4144,
      "窮": 4145,
      "窺": 4146,
      "竇": 4147,
      "立": 4148,
      "竖": 4149,
      "站": 4150,
      "竜": 4151,
      "竞": 4152,
      "竟": 4153,
      "章": 4154,
      "童": 4155,
      "端": 4156,
      "竹": 4157,
      "竺": 4158,
      "笑": 4159,
      "笔": 4160,
      "符": 4161,
      "第": 4162,
      "筆": 4163,
      "等": 4164,
      "筋": 4165,
      "筑": 4166,
      "答": 4167,
      "策": 4168,
      "签": 4169,
      "简": 4170,
      "箍": 4171,
      "算": 4172,
      "管": 4173,
      "箭": 4174,
      "箱": 4175,
      "箸": 4176,
      "節": 4177,
      "範": 4178,
      "篆": 4179,
      "篇": 4180,
      "築": 4181,
      "篮": 4182,
      "簡": 4183,
      "米": 4184,
      "类": 4185,
      "粉": 4186,
      "粗": 4187,
      "粟": 4188,
      "粪": 4189,
      "粵": 4190,
      "精": 4191,
      "糊": 4192,
      "糕": 4193,
      "糖": 4194,
      "糞": 4195,
      "糺": 4196,
      "系": 4197,
      "紀": 4198,
      "紂": 4199,
      "約": 4200,
      "紅": 4201,
      "納": 4202,
      "純": 4203,
      "紙": 4204,
      "級": 4205,
      "素": 4206,
      "索": 4207,
      "紧": 4208,
      "紫": 4209,
      "累": 4210,
      "細": 4211,
      "紹": 4212,
      "終": 4213,
      "組": 4214,
      "経": 4215,
      "結": 4216,
      "絡": 4217,
      "給": 4218,
      "絮": 4219,
      "統": 4220,
      "絲": 4221,
      "經": 4222,
      "継": 4223,
      "続": 4224,
      "維": 4225,
      "網": 4226,
      "綸": 4227,
      "総": 4228,
      "緑": 4229,
      "緒": 4230,
      "線": 4231,
      "緣": 4232,
      "編": 4233,
      "練": 4234,
      "縣": 4235,
      "縦": 4236,
      "縮": 4237,
      "繁": 4238,
      "繆": 4239,
      "繋": 4240,
      "繪": 4241,
      "繹": 4242,
      "繻": 4243,
      "繼": 4244,
      "纂": 4245,
      "續": 4246,
      "纖": 4247,
      "红": 4248,
      "约": 4249,
      "级": 4250,
      "纪": 4251,
      "纯": 4252,
      "纲": 4253,
      "纳": 4254,
      "纸": 4255,
      "线": 4256,
      "练": 4257,
      "组": 4258,
      "细": 4259,
      "织": 4260,
      "终": 4261,
      "绍": 4262,
      "经": 4263,
      "结": 4264,
      "绕": 4265,
      "给": 4266,
      "络": 4267,
      "绝": 4268,
      "统": 4269,
      "继": 4270,
      "绪": 4271,
      "续": 4272,
      "维": 4273,
      "综": 4274,
      "绿": 4275,
      "缓": 4276,
      "编": 4277,
      "缘": 4278,
      "缠": 4279,
      "缩": 4280,
      "缶": 4281,
      "缺": 4282,
      "网": 4283,
      "罗": 4284,
      "罚": 4285,
      "罢": 4286,
      "罩": 4287,
      "罪": 4288,
      "置": 4289,
      "羅": 4290,
      "羊": 4291,
      "美": 4292,
      "群": 4293,
      "羨": 4294,
      "義": 4295,
      "羲": 4296,
      "翁": 4297,
      "翅": 4298,
      "習": 4299,
      "翔": 4300,
      "翻": 4301,
      "翼": 4302,
      "老": 4303,
      "考": 4304,
      "者": 4305,
      "而": 4306,
      "耐": 4307,
      "耳": 4308,
      "耶": 4309,
      "耿": 4310,
      "聆": 4311,
      "职": 4312,
      "联": 4313,
      "聖": 4314,
      "聚": 4315,
      "聪": 4316,
      "聲": 4317,
      "聴": 4318,
      "聽": 4319,
      "肃": 4320,
      "肅": 4321,
      "肉": 4322,
      "肋": 4323,
      "肌": 4324,
      "肝": 4325,
      "股": 4326,
      "肤": 4327,
      "肥": 4328,
      "肩": 4329,
      "肯": 4330,
      "育": 4331,
      "胀": 4332,
      "胁": 4333,
      "胆": 4334,
      "背": 4335,
      "胞": 4336,
      "胡": 4337,
      "胤": 4338,
      "胥": 4339,
      "胱": 4340,
      "胴": 4341,
      "胸": 4342,
      "能": 4343,
      "脂": 4344,
      "脇": 4345,
      "脉": 4346,
      "脑": 4347,
      "脚": 4348,
      "脱": 4349,
      "脳": 4350,
      "脷": 4351,
      "脸": 4352,
      "腊": 4353,
      "腋": 4354,
      "腎": 4355,
      "腐": 4356,
      "腔": 4357,
      "腕": 4358,
      "腚": 4359,
      "腥": 4360,
      "腳": 4361,
      "腸": 4362,
      "腹": 4363,
      "腿": 4364,
      "膀": 4365,
      "膜": 4366,
      "膝": 4367,
      "膨": 4368,
      "臂": 4369,
      "臓": 4370,
      "臣": 4371,
      "臨": 4372,
      "自": 4373,
      "至": 4374,
      "致": 4375,
      "臺": 4376,
      "臻": 4377,
      "舅": 4378,
      "舆": 4379,
      "與": 4380,
      "興": 4381,
      "舉": 4382,
      "舊": 4383,
      "舌": 4384,
      "舒": 4385,
      "舜": 4386,
      "舞": 4387,
      "舟": 4388,
      "舠": 4389,
      "航": 4390,
      "般": 4391,
      "舵": 4392,
      "船": 4393,
      "艘": 4394,
      "良": 4395,
      "色": 4396,
      "艺": 4397,
      "艾": 4398,
      "节": 4399,
      "芎": 4400,
      "芒": 4401,
      "芝": 4402,
      "芡": 4403,
      "芪": 4404,
      "芬": 4405,
      "花": 4406,
      "芳": 4407,
      "芷": 4408,
      "苏": 4409,
      "苑": 4410,
      "苓": 4411,
      "苔": 4412,
      "苗": 4413,
      "若": 4414,
      "苦": 4415,
      "苯": 4416,
      "英": 4417,
      "茀": 4418,
      "范": 4419,
      "茅": 4420,
      "茉": 4421,
      "茯": 4422,
      "茶": 4423,
      "荃": 4424,
      "草": 4425,
      "荊": 4426,
      "荐": 4427,
      "荡": 4428,
      "荣": 4429,
      "药": 4430,
      "荷": 4431,
      "荼": 4432,
      "莉": 4433,
      "莊": 4434,
      "莎": 4435,
      "莨": 4436,
      "莫": 4437,
      "莱": 4438,
      "莲": 4439,
      "获": 4440,
      "菊": 4441,
      "菌": 4442,
      "菜": 4443,
      "菩": 4444,
      "華": 4445,
      "菱": 4446,
      "菲": 4447,
      "萄": 4448,
      "萌": 4449,
      "营": 4450,
      "萬": 4451,
      "落": 4452,
      "葉": 4453,
      "著": 4454,
      "葛": 4455,
      "葡": 4456,
      "董": 4457,
      "蒐": 4458,
      "蒙": 4459,
      "蒺": 4460,
      "蒼": 4461,
      "蓄": 4462,
      "蓋": 4463,
      "蓝": 4464,
      "蓟": 4465,
      "蓮": 4466,
      "蔚": 4467,
      "蔡": 4468,
      "蔣": 4469,
      "蔵": 4470,
      "蕙": 4471,
      "蕩": 4472,
      "蕾": 4473,
      "薄": 4474,
      "薛": 4475,
      "薮": 4476,
      "藍": 4477,
      "藏": 4478,
      "藕": 4479,
      "藜": 4480,
      "藝": 4481,
      "藤": 4482,
      "藥": 4483,
      "藩": 4484,
      "藻": 4485,
      "蘆": 4486,
      "蘇": 4487,
      "蘢": 4488,
      "蘭": 4489,
      "虎": 4490,
      "虑": 4491,
      "虔": 4492,
      "處": 4493,
      "虚": 4494,
      "虛": 4495,
      "虢": 4496,
      "虫": 4497,
      "虹": 4498,
      "虽": 4499,
      "虾": 4500,
      "蚀": 4501,
      "蚌": 4502,
      "蚕": 4503,
      "蛇": 4504,
      "蛋": 4505,
      "蛙": 4506,
      "蛟": 4507,
      "蛤": 4508,
      "蛮": 4509,
      "蛰": 4510,
      "蜀": 4511,
      "蜂": 4512,
      "蜊": 4513,
      "蜜": 4514,
      "蜢": 4515,
      "蝙": 4516,
      "蝠": 4517,
      "蝦": 4518,
      "蝴": 4519,
      "蝶": 4520,
      "螂": 4521,
      "螳": 4522,
      "螺": 4523,
      "蟎": 4524,
      "蟻": 4525,
      "蠻": 4526,
      "血": 4527,
      "衆": 4528,
      "行": 4529,
      "術": 4530,
      "街": 4531,
      "衛": 4532,
      "衝": 4533,
      "衡": 4534,
      "衣": 4535,
      "补": 4536,
      "表": 4537,
      "衬": 4538,
      "衷": 4539,
      "袁": 4540,
      "袖": 4541,
      "袥": 4542,
      "被": 4543,
      "袽": 4544,
      "裁": 4545,
      "裂": 4546,
      "装": 4547,
      "裏": 4548,
      "裔": 4549,
      "裕": 4550,
      "補": 4551,
      "裡": 4552,
      "裴": 4553,
      "裸": 4554,
      "製": 4555,
      "複": 4556,
      "襄": 4557,
      "襯": 4558,
      "西": 4559,
      "要": 4560,
      "覃": 4561,
      "覆": 4562,
      "見": 4563,
      "規": 4564,
      "視": 4565,
      "覚": 4566,
      "覧": 4567,
      "親": 4568,
      "観": 4569,
      "覺": 4570,
      "覽": 4571,
      "觀": 4572,
      "见": 4573,
      "观": 4574,
      "规": 4575,
      "视": 4576,
      "览": 4577,
      "觉": 4578,
      "觑": 4579,
      "角": 4580,
      "解": 4581,
      "触": 4582,
      "觮": 4583,
      "言": 4584,
      "計": 4585,
      "討": 4586,
      "訓": 4587,
      "記": 4588,
      "訛": 4589,
      "設": 4590,
      "許": 4591,
      "訴": 4592,
      "詒": 4593,
      "評": 4594,
      "詞": 4595,
      "試": 4596,
      "詩": 4597,
      "詮": 4598,
      "話": 4599,
      "該": 4600,
      "詹": 4601,
      "誉": 4602,
      "認": 4603,
      "誓": 4604,
      "誕": 4605,
      "誘": 4606,
      "語": 4607,
      "誠": 4608,
      "誤": 4609,
      "誥": 4610,
      "說": 4611,
      "説": 4612,
      "読": 4613,
      "課": 4614,
      "誼": 4615,
      "調": 4616,
      "談": 4617,
      "請": 4618,
      "論": 4619,
      "諠": 4620,
      "諸": 4621,
      "諺": 4622,
      "謂": 4623,
      "謙": 4624,
      "謨": 4625,
      "譓": 4626,
      "識": 4627,
      "譚": 4628,
      "警": 4629,
      "譯": 4630,
      "議": 4631,
      "護": 4632,
      "讀": 4633,
      "讃": 4634,
      "變": 4635,
      "讓": 4636,
      "讖": 4637,
      "讚": 4638,
      "计": 4639,
      "认": 4640,
      "讨": 4641,
      "让": 4642,
      "训": 4643,
      "议": 4644,
      "讯": 4645,
      "记": 4646,
      "讲": 4647,
      "讶": 4648,
      "许": 4649,
      "论": 4650,
      "讽": 4651,
      "设": 4652,
      "访": 4653,
      "证": 4654,
      "评": 4655,
      "识": 4656,
      "词": 4657,
      "译": 4658,
      "试": 4659,
      "诗": 4660,
      "诚": 4661,
      "话": 4662,
      "询": 4663,
      "该": 4664,
      "详": 4665,
      "语": 4666,
      "误": 4667,
      "说": 4668,
      "请": 4669,
      "诸": 4670,
      "诺": 4671,
      "读": 4672,
      "课": 4673,
      "调": 4674,
      "谅": 4675,
      "谈": 4676,
      "谋": 4677,
      "谎": 4678,
      "谜": 4679,
      "谣": 4680,
      "谱": 4681,
      "谷": 4682,
      "豆": 4683,
      "豚": 4684,
      "象": 4685,
      "豢": 4686,
      "豪": 4687,
      "豫": 4688,
      "貊": 4689,
      "貌": 4690,
      "貞": 4691,
      "財": 4692,
      "貨": 4693,
      "責": 4694,
      "貴": 4695,
      "費": 4696,
      "賀": 4697,
      "資": 4698,
      "賞": 4699,
      "賢": 4700,
      "賦": 4701,
      "質": 4702,
      "賴": 4703,
      "賽": 4704,
      "贏": 4705,
      "贝": 4706,
      "贞": 4707,
      "负": 4708,
      "贡": 4709,
      "责": 4710,
      "贤": 4711,
      "败": 4712,
      "账": 4713,
      "货": 4714,
      "质": 4715,
      "贪": 4716,
      "贫": 4717,
      "购": 4718,
      "贴": 4719,
      "贵": 4720,
      "费": 4721,
      "资": 4722,
      "赋": 4723,
      "赏": 4724,
      "赛": 4725,
      "赢": 4726,
      "赤": 4727,
      "赫": 4728,
      "走": 4729,
      "赴": 4730,
      "赶": 4731,
      "起": 4732,
      "超": 4733,
      "越": 4734,
      "趙": 4735,
      "趣": 4736,
      "足": 4737,
      "趾": 4738,
      "跃": 4739,
      "跌": 4740,
      "跑": 4741,
      "距": 4742,
      "跡": 4743,
      "跨": 4744,
      "路": 4745,
      "践": 4746,
      "踢": 4747,
      "踮": 4748,
      "身": 4749,
      "軀": 4750,
      "車": 4751,
      "軌": 4752,
      "軍": 4753,
      "軟": 4754,
      "転": 4755,
      "軾": 4756,
      "較": 4757,
      "載": 4758,
      "輔": 4759,
      "輝": 4760,
      "輪": 4761,
      "輯": 4762,
      "輸": 4763,
      "轄": 4764,
      "轉": 4765,
      "车": 4766,
      "轧": 4767,
      "轩": 4768,
      "转": 4769,
      "轮": 4770,
      "轰": 4771,
      "轴": 4772,
      "轻": 4773,
      "载": 4774,
      "较": 4775,
      "辅": 4776,
      "辉": 4777,
      "辑": 4778,
      "输": 4779,
      "辕": 4780,
      "辙": 4781,
      "辛": 4782,
      "辞": 4783,
      "辨": 4784,
      "辭": 4785,
      "辰": 4786,
      "農": 4787,
      "边": 4788,
      "辺": 4789,
      "达": 4790,
      "迅": 4791,
      "过": 4792,
      "迈": 4793,
      "迎": 4794,
      "运": 4795,
      "近": 4796,
      "还": 4797,
      "这": 4798,
      "进": 4799,
      "远": 4800,
      "连": 4801,
      "迦": 4802,
      "迪": 4803,
      "迫": 4804,
      "述": 4805,
      "迷": 4806,
      "迹": 4807,
      "退": 4808,
      "送": 4809,
      "适": 4810,
      "逃": 4811,
      "逆": 4812,
      "选": 4813,
      "透": 4814,
      "逐": 4815,
      "递": 4816,
      "途": 4817,
      "這": 4818,
      "通": 4819,
      "速": 4820,
      "造": 4821,
      "連": 4822,
      "週": 4823,
      "進": 4824,
      "遇": 4825,
      "遊": 4826,
      "運": 4827,
      "遍": 4828,
      "過": 4829,
      "道": 4830,
      "達": 4831,
      "遗": 4832,
      "遜": 4833,
      "遠": 4834,
      "遣": 4835,
      "適": 4836,
      "遭": 4837,
      "遵": 4838,
      "遷": 4839,
      "選": 4840,
      "遼": 4841,
      "避": 4842,
      "邀": 4843,
      "還": 4844,
      "邊": 4845,
      "邑": 4846,
      "邓": 4847,
      "那": 4848,
      "邦": 4849,
      "邪": 4850,
      "邮": 4851,
      "邱": 4852,
      "郁": 4853,
      "郎": 4854,
      "郑": 4855,
      "郡": 4856,
      "部": 4857,
      "郭": 4858,
      "郷": 4859,
      "都": 4860,
      "鄉": 4861,
      "鄙": 4862,
      "鄧": 4863,
      "鄭": 4864,
      "鄰": 4865,
      "鄱": 4866,
      "酆": 4867,
      "酉": 4868,
      "配": 4869,
      "酷": 4870,
      "酸": 4871,
      "醤": 4872,
      "醫": 4873,
      "采": 4874,
      "釈": 4875,
      "释": 4876,
      "釋": 4877,
      "里": 4878,
      "重": 4879,
      "野": 4880,
      "量": 4881,
      "金": 4882,
      "針": 4883,
      "釣": 4884,
      "釦": 4885,
      "鈥": 4886,
      "鈺": 4887,
      "鉞": 4888,
      "鉤": 4889,
      "銀": 4890,
      "鋼": 4891,
      "錄": 4892,
      "錒": 4893,
      "錢": 4894,
      "錦": 4895,
      "錫": 4896,
      "錯": 4897,
      "鍋": 4898,
      "鍵": 4899,
      "鍾": 4900,
      "鎌": 4901,
      "鎖": 4902,
      "鎮": 4903,
      "鏐": 4904,
      "鏞": 4905,
      "鏡": 4906,
      "鏳": 4907,
      "鐘": 4908,
      "鐵": 4909,
      "鑲": 4910,
      "针": 4911,
      "钙": 4912,
      "钝": 4913,
      "钟": 4914,
      "钠": 4915,
      "钢": 4916,
      "钻": 4917,
      "钾": 4918,
      "铁": 4919,
      "铏": 4920,
      "铬": 4921,
      "铭": 4922,
      "银": 4923,
      "铸": 4924,
      "销": 4925,
      "锁": 4926,
      "锈": 4927,
      "锕": 4928,
      "错": 4929,
      "锥": 4930,
      "键": 4931,
      "镇": 4932,
      "長": 4933,
      "长": 4934,
      "門": 4935,
      "開": 4936,
      "間": 4937,
      "関": 4938,
      "閩": 4939,
      "閲": 4940,
      "關": 4941,
      "门": 4942,
      "闫": 4943,
      "闭": 4944,
      "问": 4945,
      "闲": 4946,
      "间": 4947,
      "闹": 4948,
      "闻": 4949,
      "阀": 4950,
      "阁": 4951,
      "阅": 4952,
      "阐": 4953,
      "队": 4954,
      "阪": 4955,
      "阮": 4956,
      "防": 4957,
      "阳": 4958,
      "阴": 4959,
      "阵": 4960,
      "阶": 4961,
      "阻": 4962,
      "阿": 4963,
      "陀": 4964,
      "附": 4965,
      "际": 4966,
      "陆": 4967,
      "陈": 4968,
      "陋": 4969,
      "降": 4970,
      "限": 4971,
      "陜": 4972,
      "陡": 4973,
      "院": 4974,
      "除": 4975,
      "险": 4976,
      "陪": 4977,
      "陰": 4978,
      "陳": 4979,
      "陵": 4980,
      "陶": 4981,
      "陷": 4982,
      "陸": 4983,
      "陽": 4984,
      "隂": 4985,
      "隅": 4986,
      "隆": 4987,
      "隊": 4988,
      "隋": 4989,
      "階": 4990,
      "随": 4991,
      "隐": 4992,
      "隔": 4993,
      "際": 4994,
      "隨": 4995,
      "隱": 4996,
      "隶": 4997,
      "难": 4998,
      "雄": 4999,
      "雅": 5000,
      "集": 5001,
      "雇": 5002,
      "雌": 5003,
      "雏": 5004,
      "雒": 5005,
      "雕": 5006,
      "雖": 5007,
      "雜": 5008,
      "離": 5009,
      "難": 5010,
      "雨": 5011,
      "雪": 5012,
      "雯": 5013,
      "雰": 5014,
      "雲": 5015,
      "零": 5016,
      "雷": 5017,
      "電": 5018,
      "需": 5019,
      "震": 5020,
      "霊": 5021,
      "霍": 5022,
      "霜": 5023,
      "霞": 5024,
      "露": 5025,
      "霸": 5026,
      "靈": 5027,
      "靑": 5028,
      "青": 5029,
      "靖": 5030,
      "静": 5031,
      "靜": 5032,
      "非": 5033,
      "靠": 5034,
      "面": 5035,
      "革": 5036,
      "鞋": 5037,
      "鞜": 5038,
      "鞬": 5039,
      "韋": 5040,
      "韓": 5041,
      "韧": 5042,
      "韩": 5043,
      "韬": 5044,
      "音": 5045,
      "韶": 5046,
      "韻": 5047,
      "響": 5048,
      "頁": 5049,
      "頂": 5050,
      "項": 5051,
      "順": 5052,
      "須": 5053,
      "頞": 5054,
      "頤": 5055,
      "頭": 5056,
      "頻": 5057,
      "頼": 5058,
      "題": 5059,
      "額": 5060,
      "顏": 5061,
      "顔": 5062,
      "願": 5063,
      "類": 5064,
      "顯": 5065,
      "页": 5066,
      "顶": 5067,
      "项": 5068,
      "顺": 5069,
      "须": 5070,
      "顽": 5071,
      "顾": 5072,
      "顿": 5073,
      "预": 5074,
      "领": 5075,
      "频": 5076,
      "颖": 5077,
      "颗": 5078,
      "题": 5079,
      "颜": 5080,
      "额": 5081,
      "颞": 5082,
      "風": 5083,
      "颱": 5084,
      "风": 5085,
      "飛": 5086,
      "飞": 5087,
      "食": 5088,
      "飯": 5089,
      "飲": 5090,
      "飼": 5091,
      "養": 5092,
      "餐": 5093,
      "餓": 5094,
      "館": 5095,
      "餮": 5096,
      "饋": 5097,
      "饕": 5098,
      "饮": 5099,
      "馆": 5100,
      "馒": 5101,
      "首": 5102,
      "香": 5103,
      "馬": 5104,
      "馭": 5105,
      "馮": 5106,
      "駅": 5107,
      "駐": 5108,
      "駕": 5109,
      "駿": 5110,
      "験": 5111,
      "騷": 5112,
      "驗": 5113,
      "驤": 5114,
      "驩": 5115,
      "马": 5116,
      "驱": 5117,
      "驴": 5118,
      "驶": 5119,
      "驾": 5120,
      "验": 5121,
      "骑": 5122,
      "骗": 5123,
      "骡": 5124,
      "骨": 5125,
      "髄": 5126,
      "髏": 5127,
      "髑": 5128,
      "體": 5129,
      "高": 5130,
      "髪": 5131,
      "鬥": 5132,
      "鬼": 5133,
      "魂": 5134,
      "魄": 5135,
      "魏": 5136,
      "魔": 5137,
      "魚": 5138,
      "魯": 5139,
      "鮮": 5140,
      "鱼": 5141,
      "鲁": 5142,
      "鲜": 5143,
      "鲱": 5144,
      "鲹": 5145,
      "鳥": 5146,
      "鳩": 5147,
      "鳳": 5148,
      "鳴": 5149,
      "鴛": 5150,
      "鴦": 5151,
      "鴩": 5152,
      "鵅": 5153,
      "鵬": 5154,
      "鵲": 5155,
      "鷸": 5156,
      "鸞": 5157,
      "鸟": 5158,
      "鸡": 5159,
      "鸣": 5160,
      "鸥": 5161,
      "鸦": 5162,
      "鸿": 5163,
      "鹅": 5164,
      "鹤": 5165,
      "鹦": 5166,
      "鹵": 5167,
      "鹹": 5168,
      "鹿": 5169,
      "麗": 5170,
      "麟": 5171,
      "麥": 5172,
      "麦": 5173,
      "麵": 5174,
      "麺": 5175,
      "麻": 5176,
      "麼": 5177,
      "黃": 5178,
      "黄": 5179,
      "黎": 5180,
      "黑": 5181,
      "黒": 5182,
      "點": 5183,
      "黥": 5184,
      "黨": 5185,
      "鼓": 5186,
      "鼠": 5187,
      "鼻": 5188,
      "齊": 5189,
      "齋": 5190,
      "齐": 5191,
      "龍": 5192,
      "龙": 5193,
      "龜": 5194,
      "龟": 5195,
      "꒳": 5196,
      "ꜜ": 5197,
      "Ꜥ": 5198,
      "ꜥ": 5199,
      "ꟸ": 5200,
      "가": 5201,
      "각": 5202,
      "간": 5203,
      "갈": 5204,
      "감": 5205,
      "강": 5206,
      "갖": 5207,
      "같": 5208,
      "개": 5209,
      "객": 5210,
      "거": 5211,
      "건": 5212,
      "검": 5213,
      "것": 5214,
      "게": 5215,
      "격": 5216,
      "견": 5217,
      "결": 5218,
      "경": 5219,
      "계": 5220,
      "고": 5221,
      "공": 5222,
      "과": 5223,
      "곽": 5224,
      "관": 5225,
      "광": 5226,
      "교": 5227,
      "구": 5228,
      "국": 5229,
      "군": 5230,
      "굴": 5231,
      "궁": 5232,
      "권": 5233,
      "귀": 5234,
      "귄": 5235,
      "규": 5236,
      "균": 5237,
      "그": 5238,
      "극": 5239,
      "근": 5240,
      "글": 5241,
      "금": 5242,
      "급": 5243,
      "기": 5244,
      "까": 5245,
      "께": 5246,
      "꾼": 5247,
      "뀐": 5248,
      "나": 5249,
      "남": 5250,
      "내": 5251,
      "너": 5252,
      "널": 5253,
      "넷": 5254,
      "년": 5255,
      "념": 5256,
      "논": 5257,
      "누": 5258,
      "뉴": 5259,
      "는": 5260,
      "늘": 5261,
      "능": 5262,
      "니": 5263,
      "님": 5264,
      "다": 5265,
      "단": 5266,
      "담": 5267,
      "답": 5268,
      "당": 5269,
      "대": 5270,
      "더": 5271,
      "덕": 5272,
      "데": 5273,
      "도": 5274,
      "독": 5275,
      "동": 5276,
      "되": 5277,
      "된": 5278,
      "됩": 5279,
      "두": 5280,
      "둑": 5281,
      "드": 5282,
      "든": 5283,
      "들": 5284,
      "등": 5285,
      "디": 5286,
      "딩": 5287,
      "따": 5288,
      "떠": 5289,
      "또": 5290,
      "라": 5291,
      "락": 5292,
      "람": 5293,
      "랍": 5294,
      "랑": 5295,
      "량": 5296,
      "러": 5297,
      "럴": 5298,
      "레": 5299,
      "력": 5300,
      "련": 5301,
      "로": 5302,
      "록": 5303,
      "론": 5304,
      "료": 5305,
      "루": 5306,
      "류": 5307,
      "르": 5308,
      "른": 5309,
      "를": 5310,
      "릉": 5311,
      "리": 5312,
      "링": 5313,
      "마": 5314,
      "만": 5315,
      "많": 5316,
      "망": 5317,
      "맞": 5318,
      "매": 5319,
      "맥": 5320,
      "먹": 5321,
      "메": 5322,
      "며": 5323,
      "면": 5324,
      "명": 5325,
      "모": 5326,
      "묘": 5327,
      "무": 5328,
      "문": 5329,
      "물": 5330,
      "미": 5331,
      "밀": 5332,
      "및": 5333,
      "바": 5334,
      "반": 5335,
      "받": 5336,
      "발": 5337,
      "방": 5338,
      "배": 5339,
      "백": 5340,
      "번": 5341,
      "법": 5342,
      "베": 5343,
      "별": 5344,
      "보": 5345,
      "복": 5346,
      "본": 5347,
      "볼": 5348,
      "봉": 5349,
      "부": 5350,
      "북": 5351,
      "분": 5352,
      "불": 5353,
      "붙": 5354,
      "비": 5355,
      "빌": 5356,
      "빛": 5357,
      "빠": 5358,
      "사": 5359,
      "산": 5360,
      "살": 5361,
      "상": 5362,
      "새": 5363,
      "색": 5364,
      "생": 5365,
      "샵": 5366,
      "서": 5367,
      "석": 5368,
      "선": 5369,
      "성": 5370,
      "세": 5371,
      "센": 5372,
      "셋": 5373,
      "소": 5374,
      "속": 5375,
      "손": 5376,
      "쇄": 5377,
      "수": 5378,
      "술": 5379,
      "스": 5380,
      "습": 5381,
      "승": 5382,
      "시": 5383,
      "식": 5384,
      "신": 5385,
      "실": 5386,
      "심": 5387,
      "씨": 5388,
      "씬": 5389,
      "아": 5390,
      "악": 5391,
      "안": 5392,
      "않": 5393,
      "알": 5394,
      "암": 5395,
      "앙": 5396,
      "앞": 5397,
      "액": 5398,
      "양": 5399,
      "어": 5400,
      "억": 5401,
      "언": 5402,
      "엄": 5403,
      "업": 5404,
      "없": 5405,
      "었": 5406,
      "에": 5407,
      "엔": 5408,
      "여": 5409,
      "역": 5410,
      "연": 5411,
      "염": 5412,
      "엽": 5413,
      "였": 5414,
      "영": 5415,
      "예": 5416,
      "온": 5417,
      "옹": 5418,
      "와": 5419,
      "외": 5420,
      "요": 5421,
      "용": 5422,
      "우": 5423,
      "운": 5424,
      "울": 5425,
      "원": 5426,
      "월": 5427,
      "위": 5428,
      "유": 5429,
      "율": 5430,
      "으": 5431,
      "은": 5432,
      "을": 5433,
      "음": 5434,
      "읍": 5435,
      "응": 5436,
      "의": 5437,
      "이": 5438,
      "익": 5439,
      "인": 5440,
      "일": 5441,
      "임": 5442,
      "입": 5443,
      "있": 5444,
      "자": 5445,
      "작": 5446,
      "장": 5447,
      "재": 5448,
      "쟁": 5449,
      "저": 5450,
      "적": 5451,
      "전": 5452,
      "절": 5453,
      "점": 5454,
      "접": 5455,
      "정": 5456,
      "제": 5457,
      "조": 5458,
      "좋": 5459,
      "좌": 5460,
      "주": 5461,
      "중": 5462,
      "즈": 5463,
      "증": 5464,
      "지": 5465,
      "직": 5466,
      "진": 5467,
      "질": 5468,
      "집": 5469,
      "짚": 5470,
      "짝": 5471,
      "째": 5472,
      "차": 5473,
      "참": 5474,
      "창": 5475,
      "책": 5476,
      "처": 5477,
      "철": 5478,
      "첨": 5479,
      "첫": 5480,
      "청": 5481,
      "체": 5482,
      "쳌": 5483,
      "초": 5484,
      "촉": 5485,
      "최": 5486,
      "추": 5487,
      "축": 5488,
      "출": 5489,
      "충": 5490,
      "췌": 5491,
      "측": 5492,
      "층": 5493,
      "치": 5494,
      "친": 5495,
      "칠": 5496,
      "침": 5497,
      "칭": 5498,
      "켜": 5499,
      "켰": 5500,
      "코": 5501,
      "크": 5502,
      "타": 5503,
      "탄": 5504,
      "탐": 5505,
      "탑": 5506,
      "태": 5507,
      "터": 5508,
      "템": 5509,
      "토": 5510,
      "통": 5511,
      "퇴": 5512,
      "튀": 5513,
      "튬": 5514,
      "트": 5515,
      "특": 5516,
      "파": 5517,
      "판": 5518,
      "팽": 5519,
      "퍼": 5520,
      "페": 5521,
      "펭": 5522,
      "펴": 5523,
      "편": 5524,
      "평": 5525,
      "포": 5526,
      "폰": 5527,
      "표": 5528,
      "프": 5529,
      "피": 5530,
      "필": 5531,
      "핏": 5532,
      "하": 5533,
      "학": 5534,
      "한": 5535,
      "할": 5536,
      "함": 5537,
      "합": 5538,
      "항": 5539,
      "해": 5540,
      "행": 5541,
      "향": 5542,
      "허": 5543,
      "험": 5544,
      "헤": 5545,
      "현": 5546,
      "형": 5547,
      "혜": 5548,
      "호": 5549,
      "홍": 5550,
      "화": 5551,
      "확": 5552,
      "환": 5553,
      "활": 5554,
      "회": 5555,
      "획": 5556,
      "후": 5557,
      "훨": 5558,
      "훼": 5559,
      "흥": 5560,
      "히": 5561,
      "힌": 5562,
      "": 5563,
      "": 5564,
      "": 5565,
      "": 5566,
      "": 5567,
      "ﬀ": 5568,
      "ﬁ": 5569,
      "ﬂ": 5570,
      "ﬃ": 5571,
      "ﭪ": 5572,
      "﴾": 5573,
      "﴿": 5574,
      "ﷺ": 5575,
      "ﷻ": 5576,
      "︎": 5577,
      "️": 5578,
      "︰": 5579,
      "ﺕ": 5580,
      "ﻉ": 5581,
      "ﻋ": 5582,
      "ﻑ": 5583,
      "ﻦ": 5584,
      "ﻴ": 5585,
      "！": 5586,
      "％": 5587,
      "＆": 5588,
      "＇": 5589,
      "（": 5590,
      "）": 5591,
      "＊": 5592,
      "＋": 5593,
      "，": 5594,
      "－": 5595,
      "．": 5596,
      "／": 5597,
      "１": 5598,
      "２": 5599,
      "３": 5600,
      "４": 5601,
      "：": 5602,
      "；": 5603,
      "＜": 5604,
      "＝": 5605,
      "＞": 5606,
      "？": 5607,
      "＠": 5608,
      "Ａ": 5609,
      "Ｂ": 5610,
      "Ｅ": 5611,
      "Ｈ": 5612,
      "Ｉ": 5613,
      "Ｌ": 5614,
      "Ｍ": 5615,
      "Ｏ": 5616,
      "Ｑ": 5617,
      "Ｕ": 5618,
      "Ｚ": 5619,
      "［": 5620,
      "］": 5621,
      "＾": 5622,
      "｀": 5623,
      "ａ": 5624,
      "ｄ": 5625,
      "ｅ": 5626,
      "ｇ": 5627,
      "ｎ": 5628,
      "ｒ": 5629,
      "ｓ": 5630,
      "ｕ": 5631,
      "ｚ": 5632,
      "｛": 5633,
      "｜": 5634,
      "｝": 5635,
      "～": 5636,
      "･": 5637,
      "ﾏ": 5638,
      "￩": 5639,
      "￼": 5640,
      "�": 5641,
      "𐌰": 5642,
      "𐌹": 5643,
      "𐌻": 5644,
      "𐌿": 5645,
      "𐍅": 5646,
      "𐍆": 5647,
      "𐎓": 5648,
      "𐎢": 5649,
      "𐎤": 5650,
      "𐎰": 5651,
      "𐎱": 5652,
      "𐎺": 5653,
      "𐎼": 5654,
      "𐎽": 5655,
      "𐏁": 5656,
      "𐡏": 5657,
      "𐤏": 5658,
      "𐭅": 5659,
      "𐭉": 5660,
      "𐭊": 5661,
      "𐭎": 5662,
      "𐭐": 5663,
      "𐭓": 5664,
      "𐭕": 5665,
      "𐭡": 5666,
      "𐭥": 5667,
      "𐭩": 5668,
      "𐭪": 5669,
      "𐭫": 5670,
      "𐭮": 5671,
      "𐭯": 5672,
      "𒀸": 5673,
      "𒁹": 5674,
      "𒂆": 5675,
      "𒄥": 5676,
      "𒈦": 5677,
      "𒊺": 5678,
      "𒌋": 5679,
      "𒑏": 5680,
      "𒑐": 5681,
      "𒑰": 5682,
      "𝐀": 5683,
      "𝐁": 5684,
      "𝐂": 5685,
      "𝐅": 5686,
      "𝐎": 5687,
      "𝐏": 5688,
      "𝐐": 5689,
      "𝐓": 5690,
      "𝐚": 5691,
      "𝐜": 5692,
      "𝐝": 5693,
      "𝐞": 5694,
      "𝐟": 5695,
      "𝐠": 5696,
      "𝐡": 5697,
      "𝐢": 5698,
      "𝐦": 5699,
      "𝐧": 5700,
      "𝐨": 5701,
      "𝐩": 5702,
      "𝐫": 5703,
      "𝐬": 5704,
      "𝐭": 5705,
      "𝐮": 5706,
      "𝐯": 5707,
      "𝐲": 5708,
      "𝐴": 5709,
      "𝐵": 5710,
      "𝑃": 5711,
      "𝑎": 5712,
      "𝑒": 5713,
      "𝑓": 5714,
      "𝑘": 5715,
      "𝑛": 5716,
      "𝑡": 5717,
      "𝑥": 5718,
      "𝑦": 5719,
      "𝕏": 5720,
      "𝘼": 5721,
      "𝘿": 5722,
      "𝙀": 5723,
      "𝙂": 5724,
      "𝙃": 5725,
      "𝙄": 5726,
      "𝙆": 5727,
      "𝙉": 5728,
      "𝙋": 5729,
      "𝙎": 5730,
      "𝙏": 5731,
      "𝙐": 5732,
      "𝚪": 5733,
      "𝛽": 5734,
      "𝜋": 5735,
      "𝜶": 5736,
      "🆘": 5737,
      "🇧": 5738,
      "🇪": 5739,
      "🇬": 5740,
      "🇭": 5741,
      "🇮": 5742,
      "🇱": 5743,
      "🇵": 5744,
      "🇷": 5745,
      "🇸": 5746,
      "🇹": 5747,
      "🇺": 5748,
      "🇾": 5749,
      "🌍": 5750,
      "🌎": 5751,
      "🌐": 5752,
      "🌟": 5753,
      "🌭": 5754,
      "🌱": 5755,
      "🌻": 5756,
      "🍅": 5757,
      "🍒": 5758,
      "🍖": 5759,
      "🍞": 5760,
      "🍺": 5761,
      "🎉": 5762,
      "🎓": 5763,
      "🎟": 5764,
      "🎦": 5765,
      "🎨": 5766,
      "🎩": 5767,
      "🎶": 5768,
      "🎸": 5769,
      "🎻": 5770,
      "🏆": 5771,
      "🏠": 5772,
      "🏢": 5773,
      "🏻": 5774,
      "🏼": 5775,
      "🐆": 5776,
      "🐈": 5777,
      "🐘": 5778,
      "🐛": 5779,
      "🐠": 5780,
      "🐧": 5781,
      "🐰": 5782,
      "🐷": 5783,
      "🐾": 5784,
      "👁": 5785,
      "👃": 5786,
      "👆": 5787,
      "👇": 5788,
      "👈": 5789,
      "👉": 5790,
      "👋": 5791,
      "👍": 5792,
      "👏": 5793,
      "👑": 5794,
      "👣": 5795,
      "👨": 5796,
      "💅": 5797,
      "💉": 5798,
      "💊": 5799,
      "💍": 5800,
      "💎": 5801,
      "💕": 5802,
      "💖": 5803,
      "💗": 5804,
      "💙": 5805,
      "💚": 5806,
      "💜": 5807,
      "💡": 5808,
      "💥": 5809,
      "💩": 5810,
      "💫": 5811,
      "💬": 5812,
      "💯": 5813,
      "💵": 5814,
      "💻": 5815,
      "📅": 5816,
      "📆": 5817,
      "📌": 5818,
      "📍": 5819,
      "📕": 5820,
      "📖": 5821,
      "📗": 5822,
      "📙": 5823,
      "📚": 5824,
      "📝": 5825,
      "📞": 5826,
      "📣": 5827,
      "📤": 5828,
      "📦": 5829,
      "📨": 5830,
      "📩": 5831,
      "📱": 5832,
      "📷": 5833,
      "📸": 5834,
      "🔀": 5835,
      "🔁": 5836,
      "🔉": 5837,
      "🔎": 5838,
      "🔖": 5839,
      "🔢": 5840,
      "🔥": 5841,
      "🔪": 5842,
      "🔴": 5843,
      "🔸": 5844,
      "🔼": 5845,
      "🕋": 5846,
      "🕑": 5847,
      "🕰": 5848,
      "🕳": 5849,
      "🕶": 5850,
      "🖋": 5851,
      "🖍": 5852,
      "🖥": 5853,
      "🗂": 5854,
      "🗓": 5855,
      "🗞": 5856,
      "🗣": 5857,
      "😀": 5858,
      "😁": 5859,
      "😂": 5860,
      "😃": 5861,
      "😄": 5862,
      "😅": 5863,
      "😉": 5864,
      "😊": 5865,
      "😍": 5866,
      "😖": 5867,
      "😘": 5868,
      "😛": 5869,
      "😜": 5870,
      "😡": 5871,
      "😢": 5872,
      "😤": 5873,
      "😦": 5874,
      "😨": 5875,
      "😭": 5876,
      "😯": 5877,
      "😱": 5878,
      "😳": 5879,
      "😺": 5880,
      "🙁": 5881,
      "🙂": 5882,
      "🙄": 5883,
      "🙈": 5884,
      "🙌": 5885,
      "🙏": 5886,
      "🚄": 5887,
      "🚗": 5888,
      "🚙": 5889,
      "🚫": 5890,
      "🛏": 5891,
      "🛰": 5892,
      "🡆": 5893,
      "🡪": 5894,
      "🤑": 5895,
      "🤓": 5896,
      "🤔": 5897,
      "🤕": 5898,
      "🤖": 5899,
      "🤗": 5900,
      "🤝": 5901,
      "🤞": 5902,
      "🤢": 5903,
      "🤣": 5904,
      "🤯": 5905,
      "🤷": 5906,
      "🤸": 5907,
      "🥂": 5908,
      "🥔": 5909,
      "🥖": 5910,
      "🥺": 5911,
      "🦔": 5912,
      "🧀": 5913,
      "🧐": 5914,
      "🧔": 5915,
      "🧕": 5916,
      "🧠": 5917,
      "🧳": 5918,
      "🧾": 5919,
      "th": 5920,
      "in": 5921,
      "an": 5922,
      "er": 5923,
      "the": 5924,
      "on": 5925,
      "re": 5926,
      "at": 5927,
      "en": 5928,
      "or": 5929,
      "es": 5930,
      "al": 5931,
      "is": 5932,
      "ed": 5933,
      "of": 5934,
      "and": 5935,
      "ou": 5936,
      "to": 5937,
      "ar": 5938,
      "ing": 5939,
      "it": 5940,
      "as": 5941,
      "ic": 5942,
      "ion": 5943,
      "le": 5944,
      "st": 5945,
      "ro": 5946,
      "ent": 5947,
      "ch": 5948,
      "se": 5949,
      "ct": 5950,
      "il": 5951,
      "he": 5952,
      "ve": 5953,
      "om": 5954,
      "be": 5955,
      "ly": 5956,
      "de": 5957,
      "for": 5958,
      "ol": 5959,
      "ation": 5960,
      "ce": 5961,
      "im": 5962,
      "ow": 5963,
      "am": 5964,
      "are": 5965,
      "su": 5966,
      "ig": 5967,
      "ad": 5968,
      "ver": 5969,
      "that": 5970,
      "wh": 5971,
      "ter": 5972,
      "ir": 5973,
      "con": 5974,
      "ab": 5975,
      "pro": 5976,
      "ay": 5977,
      "id": 5978,
      "ur": 5979,
      "ot": 5980,
      "un": 5981,
      "ith": 5982,
      "ge": 5983,
      "The": 5984,
      "us": 5985,
      "ut": 5986,
      "ul": 5987,
      "pe": 5988,
      "our": 5989,
      "with": 5990,
      "mo": 5991,
      "com": 5992,
      "tr": 5993,
      "ac": 5994,
      "lo": 5995,
      "res": 5996,
      "ther": 5997,
      "ex": 5998,
      "if": 5999,
      "ap": 6000,
      "ment": 6001,
      "ts": 6002,
      "ne": 6003,
      "ers": 6004,
      "ate": 6005,
      "te": 6006,
      "pl": 6007,
      "we": 6008,
      "ain": 6009,
      "ess": 6010,
      "all": 6011,
      "ies": 6012,
      "ill": 6013,
      "ke": 6014,
      "od": 6015,
      "act": 6016,
      "ha": 6017,
      "op": 6018,
      "oun": 6019,
      "ity": 6020,
      "ld": 6021,
      "so": 6022,
      "by": 6023,
      "est": 6024,
      "ive": 6025,
      "em": 6026,
      "rom": 6027,
      "igh": 6028,
      "ere": 6029,
      "qu": 6030,
      "iv": 6031,
      "can": 6032,
      "ag": 6033,
      "per": 6034,
      "was": 6035,
      "um": 6036,
      "from": 6037,
      "out": 6038,
      "et": 6039,
      "Th": 6040,
      "sh": 6041,
      "po": 6042,
      "ist": 6043,
      "ll": 6044,
      "ci": 6045,
      "In": 6046,
      "ant": 6047,
      "not": 6048,
      "art": 6049,
      "you": 6050,
      "wor": 6051,
      "fe": 6052,
      "cl": 6053,
      "one": 6054,
      "ud": 6055,
      "ical": 6056,
      "have": 6057,
      "gr": 6058,
      "this": 6059,
      "du": 6060,
      "ma": 6061,
      "li": 6062,
      "co": 6063,
      "pr": 6064,
      "ort": 6065,
      "me": 6066,
      "ure": 6067,
      "20": 6068,
      "ich": 6069,
      "der": 6070,
      "gh": 6071,
      "str": 6072,
      "age": 6073,
      "ould": 6074,
      "ib": 6075,
      "ions": 6076,
      "man": 6077,
      "ear": 6078,
      "do": 6079,
      "ated": 6080,
      "ine": 6081,
      "use": 6082,
      "ome": 6083,
      "their": 6084,
      "end": 6085,
      "ans": 6086,
      "ight": 6087,
      "ard": 6088,
      "dis": 6089,
      "ough": 6090,
      "ach": 6091,
      "ind": 6092,
      "other": 6093,
      "ie": 6094,
      "which": 6095,
      "ide": 6096,
      "ally": 6097,
      "iz": 6098,
      "ous": 6099,
      "ound": 6100,
      "ip": 6101,
      "your": 6102,
      "they": 6103,
      "ence": 6104,
      "has": 6105,
      "fo": 6106,
      "19": 6107,
      "able": 6108,
      "ia": 6109,
      "cre": 6110,
      "more": 6111,
      "form": 6112,
      "pre": 6113,
      "port": 6114,
      "will": 6115,
      "up": 6116,
      "ast": 6117,
      "fer": 6118,
      "ong": 6119,
      "ish": 6120,
      "ass": 6121,
      "ial": 6122,
      "av": 6123,
      "go": 6124,
      "el": 6125,
      "king": 6126,
      "ev": 6127,
      "its": 6128,
      "ary": 6129,
      "ater": 6130,
      "ca": 6131,
      "ction": 6132,
      "tim": 6133,
      "ple": 6134,
      "cr": 6135,
      "ks": 6136,
      "low": 6137,
      "og": 6138,
      "but": 6139,
      "ations": 6140,
      "ire": 6141,
      "sy": 6142,
      "now": 6143,
      "af": 6144,
      "ph": 6145,
      "ild": 6146,
      "were": 6147,
      "cont": 6148,
      "00": 6149,
      "pres": 6150,
      "ust": 6151,
      "ren": 6152,
      "ents": 6153,
      "also": 6154,
      "ef": 6155,
      "br": 6156,
      "ta": 6157,
      "bo": 6158,
      "ber": 6159,
      "ame": 6160,
      "ace": 6161,
      "ign": 6162,
      "Wh": 6163,
      "comm": 6164,
      "part": 6165,
      "cess": 6166,
      "spe": 6167,
      "bl": 6168,
      "pos": 6169,
      "who": 6170,
      "It": 6171,
      "ance": 6172,
      "ition": 6173,
      "no": 6174,
      "ice": 6175,
      "way": 6176,
      "This": 6177,
      "gen": 6178,
      "ase": 6179,
      "very": 6180,
      "about": 6181,
      "ack": 6182,
      "some": 6183,
      "cent": 6184,
      "stud": 6185,
      "ite": 6186,
      "ory": 6187,
      "ens": 6188,
      "ang": 6189,
      "ep": 6190,
      "ty": 6191,
      "ser": 6192,
      "his": 6193,
      "sp": 6194,
      "ces": 6195,
      "them": 6196,
      "inter": 6197,
      ").": 6198,
      "Ch": 6199,
      "col": 6200,
      "any": 6201,
      "than": 6202,
      "ree": 6203,
      "An": 6204,
      "over": 6205,
      "ors": 6206,
      "dr": 6207,
      "year": 6208,
      "cor": 6209,
      "St": 6210,
      "ile": 6211,
      "fect": 6212,
      "aw": 6213,
      "may": 6214,
      "most": 6215,
      "own": 6216,
      "ian": 6217,
      "int": 6218,
      "ates": 6219,
      "work": 6220,
      "ople": 6221,
      "time": 6222,
      "reat": 6223,
      "like": 6224,
      "bet": 6225,
      "dif": 6226,
      "olog": 6227,
      "there": 6228,
      "been": 6229,
      "cur": 6230,
      "fr": 6231,
      "when": 6232,
      "ult": 6233,
      "used": 6234,
      "arch": 6235,
      "how": 6236,
      "into": 6237,
      "comp": 6238,
      "pt": 6239,
      "ob": 6240,
      "ings": 6241,
      "alth": 6242,
      "day": 6243,
      "wo": 6244,
      "know": 6245,
      "ful": 6246,
      "fl": 6247,
      "des": 6248,
      "these": 6249,
      "ok": 6250,
      "new": 6251,
      "people": 6252,
      "mer": 6253,
      "prov": 6254,
      "land": 6255,
      "had": 6256,
      "hel": 6257,
      "cho": 6258,
      "je": 6259,
      "fir": 6260,
      "vers": 6261,
      "lect": 6262,
      "row": 6263,
      "ual": 6264,
      "stem": 6265,
      "ue": 6266,
      "lop": 6267,
      "ific": 6268,
      "Un": 6269,
      "sa": 6270,
      "ms": 6271,
      "ied": 6272,
      "rel": 6273,
      "thr": 6274,
      "under": 6275,
      "min": 6276,
      "ities": 6277,
      "incl": 6278,
      "fore": 6279,
      "cause": 6280,
      "high": 6281,
      "coun": 6282,
      "ments": 6283,
      "such": 6284,
      "ning": 6285,
      "med": 6286,
      "ating": 6287,
      "would": 6288,
      "reg": 6289,
      "produ": 6290,
      "only": 6291,
      "cer": 6292,
      "ys": 6293,
      "lear": 6294,
      "need": 6295,
      "mon": 6296,
      "ative": 6297,
      "get": 6298,
      "ck": 6299,
      "ext": 6300,
      "velop": 6301,
      "old": 6302,
      "ject": 6303,
      "ail": 6304,
      "many": 6305,
      "what": 6306,
      "cy": 6307,
      "child": 6308,
      "her": 6309,
      "201": 6310,
      "sur": 6311,
      "ak": 6312,
      "ational": 6313,
      "ose": 6314,
      "help": 6315,
      "cial": 6316,
      "ten": 6317,
      "ious": 6318,
      "os": 6319,
      "sel": 6320,
      "ting": 6321,
      "through": 6322,
      "ced": 6323,
      "ular": 6324,
      "ons": 6325,
      "He": 6326,
      "red": 6327,
      "system": 6328,
      "rit": 6329,
      "first": 6330,
      "fic": 6331,
      "develop": 6332,
      "ics": 6333,
      "As": 6334,
      "),": 6335,
      "differ": 6336,
      "vel": 6337,
      "ath": 6338,
      "cal": 6339,
      "les": 6340,
      "well": 6341,
      "ever": 6342,
      "18": 6343,
      "water": 6344,
      "tain": 6345,
      "Re": 6346,
      "mar": 6347,
      "par": 6348,
      "200": 6349,
      "ise": 6350,
      "two": 6351,
      "We": 6352,
      "add": 6353,
      "au": 6354,
      "stru": 6355,
      "stand": 6356,
      "where": 6357,
      "ress": 6358,
      "read": 6359,
      "10": 6360,
      "less": 6361,
      "ble": 6362,
      "ict": 6363,
      "ility": 6364,
      "bu": 6365,
      "uring": 6366,
      "ubl": 6367,
      "als": 6368,
      "ible": 6369,
      "serv": 6370,
      "sul": 6371,
      "sup": 6372,
      "lif": 6373,
      "ased": 6374,
      "search": 6375,
      "ra": 6376,
      "ange": 6377,
      "car": 6378,
      "cond": 6379,
      "inv": 6380,
      "ick": 6381,
      "health": 6382,
      "cons": 6383,
      "should": 6384,
      "ween": 6385,
      "att": 6386,
      "main": 6387,
      "sub": 6388,
      "lar": 6389,
      "ew": 6390,
      "ins": 6391,
      "oc": 6392,
      "years": 6393,
      "ss": 6394,
      "come": 6395,
      "long": 6396,
      "pers": 6397,
      "air": 6398,
      "my": 6399,
      "vir": 6400,
      "between": 6401,
      "ution": 6402,
      "tern": 6403,
      "For": 6404,
      "If": 6405,
      "requ": 6406,
      "ures": 6407,
      "plan": 6408,
      "try": 6409,
      "En": 6410,
      "gan": 6411,
      "fact": 6412,
      "pol": 6413,
      "could": 6414,
      "then": 6415,
      "peri": 6416,
      "trans": 6417,
      "just": 6418,
      "ds": 6419,
      "di": 6420,
      "fin": 6421,
      "eng": 6422,
      "thing": 6423,
      "spec": 6424,
      "ese": 6425,
      "ily": 6426,
      "see": 6427,
      "make": 6428,
      "ho": 6429,
      "chool": 6430,
      "Ar": 6431,
      "num": 6432,
      "formation": 6433,
      "exam": 6434,
      "ident": 6435,
      "How": 6436,
      "ural": 6437,
      "hy": 6438,
      "iss": 6439,
      "chn": 6440,
      "after": 6441,
      "gy": 6442,
      "ted": 6443,
      "research": 6444,
      "tem": 6445,
      "De": 6446,
      "fun": 6447,
      "includ": 6448,
      "import": 6449,
      "world": 6450,
      "ited": 6451,
      "ata": 6452,
      "Al": 6453,
      "even": 6454,
      "different": 6455,
      "each": 6456,
      "lin": 6457,
      "meric": 6458,
      "uc": 6459,
      "uch": 6460,
      "gener": 6461,
      "val": 6462,
      "sim": 6463,
      "effect": 6464,
      "found": 6465,
      "set": 6466,
      "vis": 6467,
      "led": 6468,
      "incre": 6469,
      "call": 6470,
      "Americ": 6471,
      "life": 6472,
      "ness": 6473,
      "because": 6474,
      "Con": 6475,
      "ology": 6476,
      "pat": 6477,
      "ists": 6478,
      "hum": 6479,
      "app": 6480,
      "ri": 6481,
      "ature": 6482,
      "var": 6483,
      "fol": 6484,
      "sure": 6485,
      "vent": 6486,
      "cus": 6487,
      "sign": 6488,
      "ives": 6489,
      "io": 6490,
      "urn": 6491,
      "gram": 6492,
      "ism": 6493,
      "ters": 6494,
      "iew": 6495,
      "ps": 6496,
      "being": 6497,
      "ower": 6498,
      "publ": 6499,
      "ages": 6500,
      "ved": 6501,
      "sm": 6502,
      "ically": 6503,
      "process": 6504,
      "Com": 6505,
      "There": 6506,
      "those": 6507,
      "cour": 6508,
      "bod": 6509,
      "gu": 6510,
      "using": 6511,
      "ety": 6512,
      "soci": 6513,
      "They": 6514,
      "off": 6515,
      "resul": 6516,
      "sol": 6517,
      "present": 6518,
      "self": 6519,
      "every": 6520,
      "children": 6521,
      "said": 6522,
      "ivers": 6523,
      "cord": 6524,
      "sk": 6525,
      "Pro": 6526,
      "back": 6527,
      "vi": 6528,
      "ris": 6529,
      "partic": 6530,
      "level": 6531,
      "pect": 6532,
      "say": 6533,
      "techn": 6534,
      "ices": 6535,
      "blo": 6536,
      "ry": 6537,
      ".”": 6538,
      "fam": 6539,
      "press": 6540,
      "commun": 6541,
      "resp": 6542,
      "gl": 6543,
      "ener": 6544,
      "bre": 6545,
      "important": 6546,
      "she": 6547,
      "ases": 6548,
      "cept": 6549,
      "So": 6550,
      "ize": 6551,
      "ider": 6552,
      "during": 6553,
      "hist": 6554,
      "..": 6555,
      "much": 6556,
      "information": 6557,
      "mem": 6558,
      "food": 6559,
      "though": 6560,
      "ves": 6561,
      "data": 6562,
      "ized": 6563,
      "Mo": 6564,
      "But": 6565,
      "grow": 6566,
      "made": 6567,
      "study": 6568,
      "follow": 6569,
      "sci": 6570,
      "arm": 6571,
      "person": 6572,
      "lead": 6573,
      "nor": 6574,
      "cap": 6575,
      "por": 6576,
      "cell": 6577,
      "light": 6578,
      "school": 6579,
      "students": 6580,
      "take": 6581,
      "char": 6582,
      "ug": 6583,
      "prote": 6584,
      "find": 6585,
      "same": 6586,
      "ways": 6587,
      "||": 6588,
      "view": 6589,
      "does": 6590,
      "ric": 6591,
      "New": 6592,
      "dep": 6593,
      "good": 6594,
      "down": 6595,
      "proble": 6596,
      "ward": 6597,
      "tra": 6598,
      "play": 6599,
      "grou": 6600,
      "top": 6601,
      "What": 6602,
      "poss": 6603,
      "power": 6604,
      "comple": 6605,
      "both": 6606,
      "line": 6607,
      "ude": 6608,
      "mat": 6609,
      "Be": 6610,
      "care": 6611,
      "pop": 6612,
      "don": 6613,
      "state": 6614,
      "ix": 6615,
      "You": 6616,
      "show": 6617,
      "Se": 6618,
      "clo": 6619,
      "To": 6620,
      "while": 6621,
      "ient": 6622,
      "inst": 6623,
      "ability": 6624,
      "let": 6625,
      "15": 6626,
      "place": 6627,
      "body": 6628,
      "ality": 6629,
      "ince": 6630,
      "before": 6631,
      "la": 6632,
      "organ": 6633,
      "viron": 6634,
      "12": 6635,
      "treat": 6636,
      "ink": 6637,
      "ving": 6638,
      "small": 6639,
      "ner": 6640,
      "lit": 6641,
      "gg": 6642,
      "ship": 6643,
      ".,": 6644,
      "And": 6645,
      "often": 6646,
      "again": 6647,
      "ants": 6648,
      "gre": 6649,
      "plic": 6650,
      "put": 6651,
      "hand": 6652,
      "him": 6653,
      "ivid": 6654,
      "number": 6655,
      "known": 6656,
      "ars": 6657,
      "struct": 6658,
      "order": 6659,
      "ger": 6660,
      "del": 6661,
      "trib": 6662,
      "ished": 6663,
      "contro": 6664,
      "activ": 6665,
      "omen": 6666,
      "When": 6667,
      "class": 6668,
      "issu": 6669,
      "On": 6670,
      "net": 6671,
      "exp": 6672,
      "test": 6673,
      "ides": 6674,
      "appro": 6675,
      "000": 6676,
      "199": 6677,
      "ences": 6678,
      "allow": 6679,
      "human": 6680,
      "mal": 6681,
      "dise": 6682,
      "ield": 6683,
      "sum": 6684,
      "right": 6685,
      "program": 6686,
      "ven": 6687,
      "design": 6688,
      "These": 6689,
      "elect": 6690,
      "ub": 6691,
      "ord": 6692,
      "three": 6693,
      "grap": 6694,
      "leg": 6695,
      "vironment": 6696,
      "around": 6697,
      "cover": 6698,
      "17": 6699,
      "lim": 6700,
      "tal": 6701,
      "gover": 6702,
      "ute": 6703,
      "redu": 6704,
      "16": 6705,
      "example": 6706,
      "tle": 6707,
      "Ex": 6708,
      "writ": 6709,
      "irect": 6710,
      "called": 6711,
      "iversity": 6712,
      "sever": 6713,
      "iving": 6714,
      "including": 6715,
      "bal": 6716,
      "ulation": 6717,
      "ash": 6718,
      "kes": 6719,
      "contin": 6720,
      "based": 6721,
      "teach": 6722,
      "sing": 6723,
      "large": 6724,
      "flu": 6725,
      "change": 6726,
      "ton": 6727,
      "turn": 6728,
      "great": 6729,
      "aren": 6730,
      "cle": 6731,
      "mot": 6732,
      ",”": 6733,
      "ital": 6734,
      "must": 6735,
      "ared": 6736,
      "ually": 6737,
      "ross": 6738,
      "eas": 6739,
      "point": 6740,
      "equ": 6741,
      "ury": 6742,
      "build": 6743,
      "did": 6744,
      "consider": 6745,
      "educ": 6746,
      "govern": 6747,
      "ouse": 6748,
      "ather": 6749,
      "acter": 6750,
      "support": 6751,
      "understand": 6752,
      "ional": 6753,
      "Pr": 6754,
      "bi": 6755,
      "mp": 6756,
      "pract": 6757,
      "vol": 6758,
      "Is": 6759,
      "outh": 6760,
      "uro": 6761,
      "public": 6762,
      "product": 6763,
      "itions": 6764,
      "start": 6765,
      "quest": 6766,
      "experi": 6767,
      "Res": 6768,
      "chang": 6769,
      "imp": 6770,
      "men": 6771,
      "move": 6772,
      "conom": 6773,
      "appe": 6774,
      "thod": 6775,
      "30": 6776,
      "oper": 6777,
      "still": 6778,
      "ential": 6779,
      "pur": 6780,
      "Tr": 6781,
      "war": 6782,
      "prof": 6783,
      "dec": 6784,
      "typ": 6785,
      "face": 6786,
      "curren": 6787,
      "came": 6788,
      "ave": 6789,
      "aterial": 6790,
      "iven": 6791,
      "gn": 6792,
      "ately": 6793,
      "uses": 6794,
      "might": 6795,
      "too": 6796,
      "ium": 6797,
      "emp": 6798,
      "require": 6799,
      "American": 6800,
      "sit": 6801,
      "ond": 6802,
      "ids": 6803,
      "depend": 6804,
      "At": 6805,
      "ividual": 6806,
      "ization": 6807,
      "anal": 6808,
      "term": 6809,
      "adv": 6810,
      "However": 6811,
      "ron": 6812,
      "head": 6813,
      "energy": 6814,
      "few": 6815,
      "pain": 6816,
      "pot": 6817,
      "itive": 6818,
      "loc": 6819,
      ".\"": 6820,
      "Ad": 6821,
      "want": 6822,
      "ben": 6823,
      "within": 6824,
      "home": 6825,
      "miss": 6826,
      "phys": 6827,
      "14": 6828,
      "ources": 6829,
      "iqu": 6830,
      "environment": 6831,
      "jo": 6832,
      "nat": 6833,
      "pass": 6834,
      "without": 6835,
      "bers": 6836,
      "ived": 6837,
      "ason": 6838,
      "mill": 6839,
      "development": 6840,
      "und": 6841,
      "cording": 6842,
      "ark": 6843,
      "gin": 6844,
      "University": 6845,
      "50": 6846,
      "angu": 6847,
      "Wor": 6848,
      "action": 6849,
      "common": 6850,
      "ah": 6851,
      "ade": 6852,
      "social": 6853,
      "til": 6854,
      "law": 6855,
      "learn": 6856,
      "report": 6857,
      "mic": 6858,
      "anim": 6859,
      "ples": 6860,
      "ier": 6861,
      "cult": 6862,
      "individual": 6863,
      "No": 6864,
      "material": 6865,
      "dist": 6866,
      "met": 6867,
      "direct": 6868,
      "ask": 6869,
      "ights": 6870,
      "nam": 6871,
      "Le": 6872,
      "sto": 6873,
      "project": 6874,
      "book": 6875,
      "plant": 6876,
      "ran": 6877,
      "Bo": 6878,
      "real": 6879,
      "thor": 6880,
      "Nor": 6881,
      "beli": 6882,
      "ele": 6883,
      "non": 6884,
      "area": 6885,
      "possible": 6886,
      "bor": 6887,
      "last": 6888,
      "another": 6889,
      "ore": 6890,
      "arr": 6891,
      "bas": 6892,
      "inal": 6893,
      "11": 6894,
      "meas": 6895,
      "look": 6896,
      "jor": 6897,
      "contain": 6898,
      "econom": 6899,
      "ense": 6900,
      "disease": 6901,
      "ye": 6902,
      "women": 6903,
      "ake": 6904,
      "mil": 6905,
      "early": 6906,
      "indu": 6907,
      "stit": 6908,
      "ref": 6909,
      "blood": 6910,
      "control": 6911,
      "ues": 6912,
      "risk": 6913,
      "include": 6914,
      "name": 6915,
      "Jo": 6916,
      "proper": 6917,
      "Ind": 6918,
      "best": 6919,
      "mus": 6920,
      "vari": 6921,
      "ines": 6922,
      "here": 6923,
      "Col": 6924,
      "keep": 6925,
      "che": 6926,
      "comes": 6927,
      "iness": 6928,
      "cing": 6929,
      "dom": 6930,
      "suc": 6931,
      "ban": 6932,
      "government": 6933,
      "field": 6934,
      "13": 6935,
      "group": 6936,
      "All": 6937,
      "method": 6938,
      "fac": 6939,
      "become": 6940,
      "US": 6941,
      "second": 6942,
      "Co": 6943,
      "rad": 6944,
      "better": 6945,
      "avail": 6946,
      "ground": 6947,
      "history": 6948,
      "ination": 6949,
      "tion": 6950,
      "free": 6951,
      "ories": 6952,
      "ource": 6953,
      "itional": 6954,
      "ify": 6955,
      "amp": 6956,
      "against": 6957,
      "bus": 6958,
      "ste": 6959,
      "ests": 6960,
      "enter": 6961,
      "Pl": 6962,
      "ken": 6963,
      "usu": 6964,
      "ket": 6965,
      "Can": 6966,
      "ones": 6967,
      "post": 6968,
      "mean": 6969,
      "near": 6970,
      "particular": 6971,
      "major": 6972,
      "ended": 6973,
      "species": 6974,
      "God": 6975,
      "langu": 6976,
      "orig": 6977,
      "current": 6978,
      "ww": 6979,
      "feel": 6980,
      "means": 6981,
      "ological": 6982,
      "ency": 6983,
      "family": 6984,
      "hold": 6985,
      "itical": 6986,
      "certain": 6987,
      "aim": 6988,
      "bro": 6989,
      "cu": 6990,
      "open": 6991,
      "learning": 6992,
      "mit": 6993,
      "ats": 6994,
      "artic": 6995,
      "provide": 6996,
      "ills": 6997,
      "ified": 6998,
      "mun": 6999,
      "run": 7000,
      "Or": 7001,
      "ians": 7002,
      "period": 7003,
      "national": 7004,
      "One": 7005,
      "Ph": 7006,
      "United": 7007,
      "ients": 7008,
      "cul": 7009,
      "descr": 7010,
      "cost": 7011,
      "dam": 7012,
      "Dr": 7013,
      "lab": 7014,
      "lower": 7015,
      "scient": 7016,
      "az": 7017,
      "site": 7018,
      "cut": 7019,
      "several": 7020,
      "Ro": 7021,
      "ator": 7022,
      "cted": 7023,
      "wee": 7024,
      "invol": 7025,
      "plain": 7026,
      "happ": 7027,
      "list": 7028,
      "benef": 7029,
      "Ac": 7030,
      "percent": 7031,
      "fort": 7032,
      "remain": 7033,
      "NA": 7034,
      "ina": 7035,
      "idence": 7036,
      "type": 7037,
      "rop": 7038,
      "tell": 7039,
      "case": 7040,
      "plac": 7041,
      "signific": 7042,
      "ply": 7043,
      "__": 7044,
      "model": 7045,
      "since": 7046,
      "things": 7047,
      "bir": 7048,
      "graph": 7049,
      "Sh": 7050,
      "Some": 7051,
      "among": 7052,
      "chem": 7053,
      "With": 7054,
      "occur": 7055,
      "four": 7056,
      "side": 7057,
      "ards": 7058,
      "tre": 7059,
      "areas": 7060,
      "available": 7061,
      "whe": 7062,
      "ann": 7063,
      "aper": 7064,
      "tract": 7065,
      "conne": 7066,
      "think": 7067,
      "affect": 7068,
      "access": 7069,
      "tw": 7070,
      "month": 7071,
      "trad": 7072,
      "says": 7073,
      "far": 7074,
      "making": 7075,
      "interest": 7076,
      "dev": 7077,
      "ft": 7078,
      "works": 7079,
      "ustr": 7080,
      "ilar": 7081,
      "times": 7082,
      "treatment": 7083,
      "exper": 7084,
      "others": 7085,
      "ale": 7086,
      "natural": 7087,
      "following": 7088,
      "ided": 7089,
      "country": 7090,
      "fil": 7091,
      "ably": 7092,
      "systems": 7093,
      "key": 7094,
      "abl": 7095,
      ",\"": 7096,
      "rist": 7097,
      "nal": 7098,
      "Af": 7099,
      "house": 7100,
      "tru": 7101,
      "local": 7102,
      "cogn": 7103,
      "By": 7104,
      "25": 7105,
      "Mar": 7106,
      "room": 7107,
      "prevent": 7108,
      "havi": 7109,
      "function": 7110,
      "urther": 7111,
      "ax": 7112,
      "Euro": 7113,
      "prove": 7114,
      "sis": 7115,
      "States": 7116,
      "Med": 7117,
      "acy": 7118,
      "tail": 7119,
      "acc": 7120,
      "atic": 7121,
      "train": 7122,
      "posed": 7123,
      "National": 7124,
      "paren": 7125,
      "ches": 7126,
      "--": 7127,
      "object": 7128,
      "ls": 7129,
      "rece": 7130,
      "success": 7131,
      "amoun": 7132,
      "associ": 7133,
      "imes": 7134,
      "likely": 7135,
      "ox": 7136,
      "tic": 7137,
      "levels": 7138,
      "cially": 7139,
      "later": 7140,
      "ready": 7141,
      "ime": 7142,
      "course": 7143,
      "ior": 7144,
      "position": 7145,
      "ots": 7146,
      "due": 7147,
      "aster": 7148,
      "comb": 7149,
      "specific": 7150,
      "words": 7151,
      "sequ": 7152,
      "imate": 7153,
      "tom": 7154,
      "clear": 7155,
      "wide": 7156,
      "Europe": 7157,
      "198": 7158,
      "II": 7159,
      "glo": 7160,
      "given": 7161,
      "result": 7162,
      "ances": 7163,
      "century": 7164,
      "impact": 7165,
      "pet": 7166,
      "ledge": 7167,
      "Pe": 7168,
      "problems": 7169,
      "youn": 7170,
      "cells": 7171,
      "little": 7172,
      "Sci": 7173,
      "days": 7174,
      "problem": 7175,
      "significant": 7176,
      "abo": 7177,
      "cir": 7178,
      "Ear": 7179,
      "son": 7180,
      "tries": 7181,
      "until": 7182,
      "pan": 7183,
      "hard": 7184,
      "invest": 7185,
      "Ger": 7186,
      "hn": 7187,
      "industr": 7188,
      "ision": 7189,
      "brain": 7190,
      "gether": 7191,
      "rest": 7192,
      "sc": 7193,
      "Gr": 7194,
      "oks": 7195,
      "ral": 7196,
      "sugg": 7197,
      "ised": 7198,
      "agement": 7199,
      "short": 7200,
      "bur": 7201,
      "author": 7202,
      "That": 7203,
      "education": 7204,
      "exist": 7205,
      "hal": 7206,
      "mult": 7207,
      "death": 7208,
      "aps": 7209,
      "related": 7210,
      "along": 7211,
      "ought": 7212,
      "ends": 7213,
      "usually": 7214,
      "behavi": 7215,
      "defin": 7216,
      "ctor": 7217,
      "refer": 7218,
      "den": 7219,
      "lands": 7220,
      "language": 7221,
      "ither": 7222,
      "tar": 7223,
      "40": 7224,
      "uture": 7225,
      "aged": 7226,
      "space": 7227,
      "atch": 7228,
      "working": 7229,
      "word": 7230,
      "seem": 7231,
      "Christ": 7232,
      "mind": 7233,
      "iver": 7234,
      "temper": 7235,
      "rele": 7236,
      "Sy": 7237,
      "ht": 7238,
      "results": 7239,
      "cuss": 7240,
      "flow": 7241,
      "mag": 7242,
      "Go": 7243,
      "Afr": 7244,
      "hol": 7245,
      "oid": 7246,
      "recent": 7247,
      "ush": 7248,
      "fall": 7249,
      "toms": 7250,
      "together": 7251,
      "something": 7252,
      "ler": 7253,
      "suf": 7254,
      "approach": 7255,
      "aring": 7256,
      "necess": 7257,
      "Of": 7258,
      "Afric": 7259,
      "effective": 7260,
      "always": 7261,
      "similar": 7262,
      "wr": 7263,
      "vious": 7264,
      "community": 7265,
      "quality": 7266,
      "cancer": 7267,
      "technology": 7268,
      "kind": 7269,
      "increase": 7270,
      "eth": 7271,
      "give": 7272,
      "heart": 7273,
      "ned": 7274,
      "ators": 7275,
      "Ne": 7276,
      "step": 7277,
      "plants": 7278,
      "ont": 7279,
      "million": 7280,
      "character": 7281,
      "create": 7282,
      "ours": 7283,
      "experience": 7284,
      "hor": 7285,
      "establ": 7286,
      "population": 7287,
      "sens": 7288,
      "why": 7289,
      "strong": 7290,
      "har": 7291,
      "John": 7292,
      "ene": 7293,
      "60": 7294,
      "bon": 7295,
      "While": 7296,
      "active": 7297,
      "Do": 7298,
      "relation": 7299,
      "Brit": 7300,
      "fish": 7301,
      "diffic": 7302,
      "sw": 7303,
      "complete": 7304,
      "ling": 7305,
      "above": 7306,
      "symp": 7307,
      "ctions": 7308,
      "going": 7309,
      "across": 7310,
      "eral": 7311,
      "away": 7312,
      "aves": 7313,
      "today": 7314,
      "special": 7315,
      "profess": 7316,
      "ped": 7317,
      "needs": 7318,
      "applic": 7319,
      "sal": 7320,
      "ently": 7321,
      "web": 7322,
      "espe": 7323,
      "Me": 7324,
      "ental": 7325,
      "bit": 7326,
      "changes": 7327,
      "team": 7328,
      "ysis": 7329,
      "ication": 7330,
      "uter": 7331,
      "various": 7332,
      "atures": 7333,
      "future": 7334,
      "conditions": 7335,
      "next": 7336,
      "especially": 7337,
      "22": 7338,
      "begin": 7339,
      "formed": 7340,
      "asing": 7341,
      "nut": 7342,
      "loy": 7343,
      "earch": 7344,
      "ateg": 7345,
      "tool": 7346,
      "higher": 7347,
      "however": 7348,
      "100": 7349,
      "ured": 7350,
      "business": 7351,
      "big": 7352,
      "hab": 7353,
      "atory": 7354,
      "rate": 7355,
      "ik": 7356,
      "reach": 7357,
      "least": 7358,
      "amin": 7359,
      "countries": 7360,
      "tribut": 7361,
      "respons": 7362,
      "mission": 7363,
      "past": 7364,
      "aut": 7365,
      "ensive": 7366,
      "moder": 7367,
      "left": 7368,
      "never": 7369,
      "pression": 7370,
      "improve": 7371,
      "Po": 7372,
      "text": 7373,
      "science": 7374,
      "iate": 7375,
      "After": 7376,
      "prim": 7377,
      "IS": 7378,
      "offic": 7379,
      "fully": 7380,
      "expect": 7381,
      "Coun": 7382,
      "types": 7383,
      "Car": 7384,
      "rodu": 7385,
      "ially": 7386,
      "grad": 7387,
      "Ge": 7388,
      "young": 7389,
      "issue": 7390,
      "selves": 7391,
      "city": 7392,
      "general": 7393,
      "eds": 7394,
      "ands": 7395,
      "effects": 7396,
      "ique": 7397,
      "thern": 7398,
      "count": 7399,
      "24": 7400,
      "ane": 7401,
      "CO": 7402,
      "bar": 7403,
      "Engl": 7404,
      "197": 7405,
      "Cl": 7406,
      "full": 7407,
      "ays": 7408,
      "influ": 7409,
      "concer": 7410,
      "studies": 7411,
      "role": 7412,
      "aging": 7413,
      "knowledge": 7414,
      "enough": 7415,
      "ilities": 7416,
      "lot": 7417,
      "World": 7418,
      "production": 7419,
      "English": 7420,
      "ster": 7421,
      "represent": 7422,
      "stre": 7423,
      "Te": 7424,
      "patients": 7425,
      "Dis": 7426,
      "loss": 7427,
      "ley": 7428,
      "subject": 7429,
      "ired": 7430,
      "lack": 7431,
      "chan": 7432,
      "ention": 7433,
      "cases": 7434,
      "having": 7435,
      "oney": 7436,
      "became": 7437,
      "Health": 7438,
      "range": 7439,
      "She": 7440,
      "ening": 7441,
      "omet": 7442,
      "activity": 7443,
      "discuss": 7444,
      "live": 7445,
      "War": 7446,
      "issues": 7447,
      "oto": 7448,
      "minis": 7449,
      "21": 7450,
      "uary": 7451,
      "ae": 7452,
      "value": 7453,
      "ames": 7454,
      "...": 7455,
      "pose": 7456,
      "org": 7457,
      "gress": 7458,
      "uel": 7459,
      "South": 7460,
      "offer": 7461,
      "Stud": 7462,
      "wind": 7463,
      "mid": 7464,
      "mark": 7465,
      "dig": 7466,
      "ables": 7467,
      "ined": 7468,
      "seen": 7469,
      "gar": 7470,
      "physical": 7471,
      "ires": 7472,
      "whether": 7473,
      "growth": 7474,
      "reason": 7475,
      "indic": 7476,
      "sent": 7477,
      "further": 7478,
      "Man": 7479,
      "Not": 7480,
      "amount": 7481,
      "explain": 7482,
      "oman": 7483,
      "May": 7484,
      "building": 7485,
      "chall": 7486,
      "sun": 7487,
      "question": 7488,
      "evol": 7489,
      "tow": 7490,
      "//": 7491,
      "paper": 7492,
      "termin": 7493,
      "colle": 7494,
      "Cal": 7495,
      "SA": 7496,
      "labor": 7497,
      "fri": 7498,
      "stat": 7499,
      "white": 7500,
      "makes": 7501,
      "mass": 7502,
      "story": 7503,
      "below": 7504,
      "itor": 7505,
      "Research": 7506,
      "force": 7507,
      "fig": 7508,
      "def": 7509,
      "acks": 7510,
      "inking": 7511,
      "pay": 7512,
      "focus": 7513,
      "developed": 7514,
      "close": 7515,
      "North": 7516,
      "load": 7517,
      "groups": 7518,
      "ilt": 7519,
      "recogn": 7520,
      "symptoms": 7521,
      "polic": 7522,
      "coming": 7523,
      "htt": 7524,
      "protect": 7525,
      "mis": 7526,
      "mor": 7527,
      "ending": 7528,
      "inte": 7529,
      "oil": 7530,
      "taken": 7531,
      "forms": 7532,
      "://": 7533,
      "observ": 7534,
      "ank": 7535,
      "size": 7536,
      "lay": 7537,
      "five": 7538,
      "plement": 7539,
      "mach": 7540,
      "Br": 7541,
      "iting": 7542,
      "surface": 7543,
      "Ser": 7544,
      "already": 7545,
      "crip": 7546,
      "ER": 7547,
      "mber": 7548,
      "toward": 7549,
      "resources": 7550,
      "weight": 7551,
      "23": 7552,
      "source": 7553,
      "article": 7554,
      "rather": 7555,
      "urch": 7556,
      "products": 7557,
      "oking": 7558,
      "init": 7559,
      "lines": 7560,
      "draw": 7561,
      "Fe": 7562,
      "aver": 7563,
      "really": 7564,
      "particip": 7565,
      "climate": 7566,
      "Fr": 7567,
      "according": 7568,
      "activities": 7569,
      "uation": 7570,
      "either": 7571,
      "erc": 7572,
      "achie": 7573,
      "difficult": 7574,
      "potential": 7575,
      "ints": 7576,
      "inci": 7577,
      "claim": 7578,
      "single": 7579,
      "event": 7580,
      "sof": 7581,
      "ibility": 7582,
      "sych": 7583,
      "answ": 7584,
      "cop": 7585,
      "histor": 7586,
      "ago": 7587,
      "ison": 7588,
      "done": 7589,
      "addition": 7590,
      "neg": 7591,
      "syn": 7592,
      "struction": 7593,
      "actions": 7594,
      "wood": 7595,
      "fire": 7596,
      "collect": 7597,
      "economic": 7598,
      "drug": 7599,
      "gest": 7600,
      "once": 7601,
      "fail": 7602,
      "ometimes": 7603,
      "ns": 7604,
      "Inter": 7605,
      "dict": 7606,
      "upon": 7607,
      "ival": 7608,
      "reduce": 7609,
      "ged": 7610,
      "ork": 7611,
      "parts": 7612,
      "week": 7613,
      "ification": 7614,
      "prob": 7615,
      "bot": 7616,
      "diag": 7617,
      "introdu": 7618,
      "ficient": 7619,
      "soil": 7620,
      "fat": 7621,
      "dem": 7622,
      "spr": 7623,
      "ched": 7624,
      "covered": 7625,
      "America": 7626,
      "member": 7627,
      "healthy": 7628,
      "istic": 7629,
      "His": 7630,
      "scal": 7631,
      "evidence": 7632,
      "half": 7633,
      "medical": 7634,
      "living": 7635,
      "thir": 7636,
      "pread": 7637,
      "xim": 7638,
      "skills": 7639,
      "researchers": 7640,
      "members": 7641,
      "leep": 7642,
      "vo": 7643,
      "recomm": 7644,
      "associated": 7645,
      "road": 7646,
      "address": 7647,
      "detail": 7648,
      "analysis": 7649,
      "hip": 7650,
      "atter": 7651,
      "whole": 7652,
      "Many": 7653,
      "created": 7654,
      "suggest": 7655,
      "ounds": 7656,
      "gas": 7657,
      "black": 7658,
      "mb": 7659,
      "sed": 7660,
      "continu": 7661,
      "animals": 7662,
      "outs": 7663,
      "frequ": 7664,
      "condu": 7665,
      "portun": 7666,
      "enn": 7667,
      "understanding": 7668,
      "anger": 7669,
      "Earth": 7670,
      "explo": 7671,
      "photo": 7672,
      "flo": 7673,
      "engine": 7674,
      "meet": 7675,
      "):": 7676,
      "ivil": 7677,
      "Hist": 7678,
      "considered": 7679,
      "published": 7680,
      "writing": 7681,
      "une": 7682,
      "relig": 7683,
      "ournal": 7684,
      "ports": 7685,
      "IN": 7686,
      "path": 7687,
      "nature": 7688,
      "questions": 7689,
      "illed": 7690,
      "aking": 7691,
      "utions": 7692,
      "igr": 7693,
      "ID": 7694,
      "Per": 7695,
      "states": 7696,
      "Ap": 7697,
      "green": 7698,
      "practice": 7699,
      "gain": 7700,
      "famil": 7701,
      "themselves": 7702,
      "political": 7703,
      "Act": 7704,
      "increased": 7705,
      "complex": 7706,
      "chemical": 7707,
      "Gu": 7708,
      "sam": 7709,
      "gs": 7710,
      "return": 7711,
      "ey": 7712,
      "actually": 7713,
      "fed": 7714,
      "relationship": 7715,
      "skin": 7716,
      ".)": 7717,
      "York": 7718,
      "ES": 7719,
      "modern": 7720,
      "Ab": 7721,
      "ened": 7722,
      "ges": 7723,
      "pressure": 7724,
      "entire": 7725,
      "needed": 7726,
      "chol": 7727,
      "Sp": 7728,
      "normal": 7729,
      "ising": 7730,
      "necessary": 7731,
      "describ": 7732,
      "Par": 7733,
      "squ": 7734,
      "iding": 7735,
      "ief": 7736,
      "Des": 7737,
      "Eng": 7738,
      "opportun": 7739,
      "liter": 7740,
      "thought": 7741,
      "lives": 7742,
      "cannot": 7743,
      "stress": 7744,
      "global": 7745,
      "feed": 7746,
      "Lo": 7747,
      "More": 7748,
      "produce": 7749,
      "record": 7750,
      "Pres": 7751,
      "28": 7752,
      "docu": 7753,
      "personal": 7754,
      "appear": 7755,
      "simple": 7756,
      "idea": 7757,
      "management": 7758,
      "provides": 7759,
      "lying": 7760,
      "27": 7761,
      "Most": 7762,
      "maintain": 7763,
      "bed": 7764,
      "six": 7765,
      "assess": 7766,
      "safe": 7767,
      "ses": 7768,
      "spir": 7769,
      "priv": 7770,
      "required": 7771,
      "Austr": 7772,
      "materials": 7773,
      "computer": 7774,
      "quick": 7775,
      "took": 7776,
      "student": 7777,
      "micro": 7778,
      "alk": 7779,
      "ering": 7780,
      "respon": 7781,
      "pie": 7782,
      "almost": 7783,
      "won": 7784,
      "emer": 7785,
      "services": 7786,
      "taking": 7787,
      "stor": 7788,
      "dy": 7789,
      "company": 7790,
      "condition": 7791,
      "State": 7792,
      "rect": 7793,
      "color": 7794,
      "round": 7795,
      "rich": 7796,
      "sex": 7797,
      "reading": 7798,
      "hib": 7799,
      "dro": 7800,
      "ney": 7801,
      "built": 7802,
      "ru": 7803,
      "measure": 7804,
      "eve": 7805,
      "diet": 7806,
      "compan": 7807,
      "region": 7808,
      "occ": 7809,
      "ded": 7810,
      "ivity": 7811,
      "izing": 7812,
      "itself": 7813,
      "sl": 7814,
      "dle": 7815,
      "curity": 7816,
      "separ": 7817,
      "exerc": 7818,
      "factors": 7819,
      "Pol": 7820,
      "itary": 7821,
      "months": 7822,
      "Im": 7823,
      "\".": 7824,
      "money": 7825,
      "AR": 7826,
      "AN": 7827,
      "26": 7828,
      "content": 7829,
      "sha": 7830,
      "stant": 7831,
      "Here": 7832,
      "ping": 7833,
      "link": 7834,
      "regard": 7835,
      "Although": 7836,
      "yet": 7837,
      "British": 7838,
      "stain": 7839,
      "ze": 7840,
      "log": 7841,
      "night": 7842,
      "began": 7843,
      "uss": 7844,
      "rights": 7845,
      "parents": 7846,
      "experim": 7847,
      "medic": 7848,
      "Jew": 7849,
      "regular": 7850,
      "clean": 7851,
      "infect": 7852,
      "ption": 7853,
      "aud": 7854,
      "online": 7855,
      "service": 7856,
      "Qu": 7857,
      "afety": 7858,
      "80": 7859,
      "popular": 7860,
      "utes": 7861,
      "pattern": 7862,
      "Ed": 7863,
      "total": 7864,
      "usion": 7865,
      "job": 7866,
      "heav": 7867,
      "tax": 7868,
      "bul": 7869,
      "inc": 7870,
      "structure": 7871,
      "shows": 7872,
      "print": 7873,
      "lex": 7874,
      "earth": 7875,
      "break": 7876,
      "cit": 7877,
      "ery": 7878,
      "throughout": 7879,
      "King": 7880,
      "www": 7881,
      "behavior": 7882,
      "From": 7883,
      "sense": 7884,
      "training": 7885,
      "tur": 7886,
      "vit": 7887,
      "increasing": 7888,
      "bill": 7889,
      "ike": 7890,
      "princi": 7891,
      "spect": 7892,
      "Cent": 7893,
      "Pre": 7894,
      "smo": 7895,
      "vide": 7896,
      "AT": 7897,
      "mental": 7898,
      "consum": 7899,
      "Ste": 7900,
      "Will": 7901,
      "29": 7902,
      "decl": 7903,
      "tro": 7904,
      "deli": 7905,
      "rap": 7906,
      "page": 7907,
      "respect": 7908,
      "Canad": 7909,
      "temperature": 7910,
      "threat": 7911,
      "estern": 7912,
      "rain": 7913,
      "previous": 7914,
      "thus": 7915,
      "carbon": 7916,
      "market": 7917,
      "meaning": 7918,
      "iation": 7919,
      "ming": 7920,
      "review": 7921,
      "conf": 7922,
      "share": 7923,
      "rul": 7924,
      "mother": 7925,
      "Cor": 7926,
      "sleep": 7927,
      "immun": 7928,
      "hours": 7929,
      "Mon": 7930,
      "farm": 7931,
      "According": 7932,
      "diagno": 7933,
      "lling": 7934,
      "matter": 7935,
      "School": 7936,
      "Your": 7937,
      "Ho": 7938,
      "abs": 7939,
      "ford": 7940,
      "dete": 7941,
      "schools": 7942,
      "society": 7943,
      "aid": 7944,
      "late": 7945,
      "rown": 7946,
      "partment": 7947,
      "positive": 7948,
      "Other": 7949,
      "avoid": 7950,
      "lor": 7951,
      "yle": 7952,
      "verse": 7953,
      "individuals": 7954,
      "ronic": 7955,
      "reng": 7956,
      "poor": 7957,
      "ties": 7958,
      "terms": 7959,
      "longer": 7960,
      "forest": 7961,
      "Instit": 7962,
      "Am": 7963,
      "fru": 7964,
      "heat": 7965,
      "hood": 7966,
      "designed": 7967,
      "dest": 7968,
      "aware": 7969,
      "Her": 7970,
      "hom": 7971,
      "easy": 7972,
      "environmental": 7973,
      "ife": 7974,
      "deep": 7975,
      "written": 7976,
      "average": 7977,
      "true": 7978,
      "ners": 7979,
      "date": 7980,
      "fem": 7981,
      "bring": 7982,
      "cular": 7983,
      "response": 7984,
      "books": 7985,
      "reed": 7986,
      "electric": 7987,
      "sou": 7988,
      "anced": 7989,
      "resist": 7990,
      "ulations": 7991,
      "Min": 7992,
      "bacter": 7993,
      "industry": 7994,
      "apy": 7995,
      "itch": 7996,
      "caused": 7997,
      "camp": 7998,
      "surv": 7999,
      "cies": 8000,
      "opt": 8001,
      "nation": 8002,
      "contact": 8003,
      "Jan": 8004,
      "reli": 8005,
      "forman": 8006,
      "provided": 8007,
      "causes": 8008,
      "super": 8009,
      "determin": 8010,
      "194": 8011,
      "Our": 8012,
      "benefits": 8013,
      "India": 8014,
      "shown": 8015,
      "ades": 8016,
      "German": 8017,
      "Har": 8018,
      "196": 8019,
      "respond": 8020,
      "eat": 8021,
      "image": 8022,
      "methods": 8023,
      "ST": 8024,
      "ams": 8025,
      "original": 8026,
      "inj": 8027,
      "reported": 8028,
      "scre": 8029,
      "accept": 8030,
      "ino": 8031,
      "lled": 8032,
      "extre": 8033,
      "ips": 8034,
      "bs": 8035,
      "spread": 8036,
      "viol": 8037,
      "My": 8038,
      "born": 8039,
      "stop": 8040,
      "cot": 8041,
      "moved": 8042,
      "sometimes": 8043,
      "vision": 8044,
      "ging": 8045,
      "etc": 8046,
      "apan": 8047,
      "Austral": 8048,
      "relative": 8049,
      "mix": 8050,
      "includes": 8051,
      "aft": 8052,
      "Sep": 8053,
      "origin": 8054,
      "proved": 8055,
      "standard": 8056,
      "wall": 8057,
      "aving": 8058,
      "iple": 8059,
      "consist": 8060,
      "Science": 8061,
      "etic": 8062,
      "fair": 8063,
      "employ": 8064,
      "placed": 8065,
      "plied": 8066,
      "aily": 8067,
      "ults": 8068,
      "ood": 8069,
      "teen": 8070,
      "patient": 8071,
      "helps": 8072,
      "ublic": 8073,
      "sea": 8074,
      "vey": 8075,
      "habit": 8076,
      "scientists": 8077,
      "iter": 8078,
      "culture": 8079,
      "love": 8080,
      "doing": 8081,
      "fection": 8082,
      "streng": 8083,
      "ony": 8084,
      "Fir": 8085,
      "ried": 8086,
      "simply": 8087,
      "star": 8088,
      "ball": 8089,
      "migr": 8090,
      "sil": 8091,
      "Gener": 8092,
      "programs": 8093,
      "concept": 8094,
      "events": 8095,
      "greater": 8096,
      "Aug": 8097,
      "Japan": 8098,
      "cks": 8099,
      "produced": 8100,
      "Now": 8101,
      "argu": 8102,
      "cient": 8103,
      "nia": 8104,
      "ai": 8105,
      "promot": 8106,
      "ung": 8107,
      "variety": 8108,
      "believe": 8109,
      "demon": 8110,
      "identify": 8111,
      "animal": 8112,
      "particularly": 8113,
      "35": 8114,
      "ites": 8115,
      "cil": 8116,
      "music": 8117,
      "emot": 8118,
      "foot": 8119,
      "ials": 8120,
      "ension": 8121,
      "ength": 8122,
      "integr": 8123,
      "90": 8124,
      "involved": 8125,
      "attle": 8126,
      "sources": 8127,
      "AC": 8128,
      "inary": 8129,
      "wild": 8130,
      "apt": 8131,
      "select": 8132,
      "istics": 8133,
      "deal": 8134,
      "essential": 8135,
      "answer": 8136,
      "suffer": 8137,
      "70": 8138,
      "movement": 8139,
      "vacc": 8140,
      "astic": 8141,
      "formance": 8142,
      "China": 8143,
      "Spe": 8144,
      "mechan": 8145,
      "inste": 8146,
      "encour": 8147,
      "fa": 8148,
      "growing": 8149,
      "cture": 8150,
      "psych": 8151,
      "idge": 8152,
      "2010": 8153,
      "div": 8154,
      "foods": 8155,
      "compon": 8156,
      "check": 8157,
      "appropr": 8158,
      "graphy": 8159,
      "hind": 8160,
      "evolution": 8161,
      "Ju": 8162,
      "visit": 8163,
      "damage": 8164,
      "ufact": 8165,
      "progress": 8166,
      "guide": 8167,
      "ets": 8168,
      "ring": 8169,
      "ana": 8170,
      "section": 8171,
      "ises": 8172,
      "uge": 8173,
      "ert": 8174,
      "veget": 8175,
      "sustain": 8176,
      "pul": 8177,
      "fast": 8178,
      "2012": 8179,
      "estim": 8180,
      "outside": 8181,
      "bab": 8182,
      "series": 8183,
      "First": 8184,
      "teachers": 8185,
      "dou": 8186,
      "held": 8187,
      "pict": 8188,
      "front": 8189,
      "enced": 8190,
      "correct": 8191,
      "getting": 8192,
      "attention": 8193,
      "sites": 8194,
      "challeng": 8195,
      "West": 8196,
      "itis": 8197,
      "llow": 8198,
      "ountain": 8199,
      "dry": 8200,
      "got": 8201,
      "feet": 8202,
      "cat": 8203,
      "generally": 8204,
      "tit": 8205,
      "media": 8206,
      "wa": 8207,
      "http": 8208,
      "joy": 8209,
      "scale": 8210,
      "2011": 8211,
      "developing": 8212,
      "points": 8213,
      "During": 8214,
      "account": 8215,
      "town": 8216,
      "card": 8217,
      "European": 8218,
      "itation": 8219,
      "rench": 8220,
      "looking": 8221,
      "ensure": 8222,
      "duc": 8223,
      "takes": 8224,
      "demonstr": 8225,
      "TH": 8226,
      "express": 8227,
      "independ": 8228,
      "era": 8229,
      "theory": 8230,
      "arily": 8231,
      "Apr": 8232,
      "Gre": 8233,
      "basic": 8234,
      "included": 8235,
      "ministr": 8236,
      "IC": 8237,
      "gard": 8238,
      "probably": 8239,
      "board": 8240,
      "numbers": 8241,
      "rup": 8242,
      "attem": 8243,
      "third": 8244,
      "pal": 8245,
      "went": 8246,
      "iabet": 8247,
      "pret": 8248,
      "implement": 8249,
      "fuel": 8250,
      "extreme": 8251,
      "serious": 8252,
      "Read": 8253,
      "ON": 8254,
      "Su": 8255,
      "na": 8256,
      "established": 8257,
      "ham": 8258,
      "IV": 8259,
      "Russ": 8260,
      "cross": 8261,
      "pen": 8262,
      "policy": 8263,
      "Char": 8264,
      "security": 8265,
      "vert": 8266,
      "Fran": 8267,
      "sph": 8268,
      "sho": 8269,
      "atives": 8270,
      "aries": 8271,
      "ideas": 8272,
      "doesn": 8273,
      "____": 8274,
      "jud": 8275,
      "scientific": 8276,
      "slow": 8277,
      "roy": 8278,
      "prep": 8279,
      "Center": 8280,
      "Che": 8281,
      "Mic": 8282,
      "continue": 8283,
      "Oc": 8284,
      "March": 8285,
      "accur": 8286,
      "safety": 8287,
      "commit": 8288,
      "clin": 8289,
      "allows": 8290,
      "Lear": 8291,
      "central": 8292,
      "added": 8293,
      "poll": 8294,
      "Educ": 8295,
      "investig": 8296,
      "performance": 8297,
      "travel": 8298,
      "assist": 8299,
      "Intern": 8300,
      "finan": 8301,
      "sen": 8302,
      "eye": 8303,
      "kids": 8304,
      "birth": 8305,
      "traditional": 8306,
      "wise": 8307,
      "concl": 8308,
      "2009": 8309,
      "hot": 8310,
      "fav": 8311,
      "sound": 8312,
      "June": 8313,
      "tree": 8314,
      "reas": 8315,
      "Even": 8316,
      "reflect": 8317,
      "tware": 8318,
      "eval": 8319,
      "someone": 8320,
      "Child": 8321,
      "decre": 8322,
      "Indian": 8323,
      "covery": 8324,
      "mess": 8325,
      "Why": 8326,
      "sus": 8327,
      "primary": 8328,
      "RE": 8329,
      "2013": 8330,
      "document": 8331,
      "manufact": 8332,
      "termine": 8333,
      "civil": 8334,
      "tribution": 8335,
      "bad": 8336,
      "tin": 8337,
      "orders": 8338,
      "started": 8339,
      "thous": 8340,
      "host": 8341,
      "iam": 8342,
      "easily": 8343,
      "infl": 8344,
      "Ma": 8345,
      "quite": 8346,
      "ference": 8347,
      "sco": 8348,
      "acid": 8349,
      "immed": 8350,
      "therefore": 8351,
      "err": 8352,
      "tend": 8353,
      "concent": 8354,
      "version": 8355,
      "gree": 8356,
      "bel": 8357,
      "Comp": 8358,
      "instead": 8359,
      "ifor": 8360,
      "warm": 8361,
      "difference": 8362,
      "although": 8363,
      "corpor": 8364,
      "attack": 8365,
      "High": 8366,
      "ding": 8367,
      "Since": 8368,
      "daily": 8369,
      "deb": 8370,
      "pts": 8371,
      "analy": 8372,
      "humans": 8373,
      "thy": 8374,
      "AD": 8375,
      "compared": 8376,
      "leading": 8377,
      "broad": 8378,
      "father": 8379,
      "limited": 8380,
      "larger": 8381,
      "tools": 8382,
      "AS": 8383,
      "sect": 8384,
      "west": 8385,
      "rough": 8386,
      "sem": 8387,
      "ibe": 8388,
      "achieve": 8389,
      "minim": 8390,
      "instit": 8391,
      "advant": 8392,
      "bey": 8393,
      "soon": 8394,
      "haps": 8395,
      "33": 8396,
      "ceed": 8397,
      "Califor": 8398,
      "legal": 8399,
      "Bar": 8400,
      "companies": 8401,
      "supply": 8402,
      "unique": 8403,
      "History": 8404,
      "fit": 8405,
      "rates": 8406,
      "write": 8407,
      "isions": 8408,
      "critical": 8409,
      "equip": 8410,
      "network": 8411,
      "communities": 8412,
      "leaders": 8413,
      "inside": 8414,
      "multiple": 8415,
      "cast": 8416,
      "que": 8417,
      "Africa": 8418,
      "determine": 8419,
      "ively": 8420,
      "August": 8421,
      "akes": 8422,
      "military": 8423,
      "French": 8424,
      "international": 8425,
      "tered": 8426,
      "believ": 8427,
      "oph": 8428,
      "ff": 8429,
      "45": 8430,
      "protein": 8431,
      "iet": 8432,
      "agree": 8433,
      "diseases": 8434,
      "ump": 8435,
      "gency": 8436,
      "serve": 8437,
      "ulture": 8438,
      "imin": 8439,
      "center": 8440,
      "tests": 8441,
      "target": 8442,
      "additional": 8443,
      "uck": 8444,
      "fici": 8445,
      "California": 8446,
      "negative": 8447,
      "African": 8448,
      "cred": 8449,
      "news": 8450,
      "highly": 8451,
      "quant": 8452,
      "Fig": 8453,
      "EN": 8454,
      "sat": 8455,
      "construction": 8456,
      "win": 8457,
      "vention": 8458,
      "36": 8459,
      "tes": 8460,
      "April": 8461,
      "behind": 8462,
      "Mc": 8463,
      "friend": 8464,
      "undred": 8465,
      "purpose": 8466,
      "cean": 8467,
      "quickly": 8468,
      "phil": 8469,
      "Jes": 8470,
      "trees": 8471,
      "location": 8472,
      "pair": 8473,
      "season": 8474,
      "reve": 8475,
      "fight": 8476,
      "capt": 8477,
      "July": 8478,
      "Dav": 8479,
      "prior": 8480,
      "base": 8481,
      "ington": 8482,
      "directly": 8483,
      "stay": 8484,
      "length": 8485,
      "cles": 8486,
      "table": 8487,
      "Gree": 8488,
      "IT": 8489,
      "aspect": 8490,
      "tric": 8491,
      "ugh": 8492,
      "useum": 8493,
      "Institute": 8494,
      "ume": 8495,
      "hic": 8496,
      "sold": 8497,
      "located": 8498,
      "families": 8499,
      "River": 8500,
      "gets": 8501,
      "2008": 8502,
      "mbol": 8503,
      "altern": 8504,
      "expected": 8505,
      "Sw": 8506,
      "Department": 8507,
      "waste": 8508,
      "oud": 8509,
      "Because": 8510,
      "tox": 8511,
      "infection": 8512,
      "nov": 8513,
      "whose": 8514,
      "predict": 8515,
      "contr": 8516,
      "moving": 8517,
      "trade": 8518,
      "Mus": 8519,
      "proced": 8520,
      "values": 8521,
      "2014": 8522,
      "iques": 8523,
      "ama": 8524,
      "ancy": 8525,
      "ift": 8526,
      "severe": 8527,
      "ishing": 8528,
      "minutes": 8529,
      "augh": 8530,
      "ote": 8531,
      "video": 8532,
      "dark": 8533,
      "features": 8534,
      "teaching": 8535,
      "onom": 8536,
      "nel": 8537,
      "Ber": 8538,
      "ament": 8539,
      "wel": 8540,
      "solar": 8541,
      "exercise": 8542,
      "ret": 8543,
      "mom": 8544,
      "Gen": 8545,
      "appropriate": 8546,
      "Then": 8547,
      "iabetes": 8548,
      "iers": 8549,
      "aff": 8550,
      "ows": 8551,
      "PA": 8552,
      "strict": 8553,
      "International": 8554,
      "note": 8555,
      "beginning": 8556,
      "uries": 8557,
      "doctor": 8558,
      "ibr": 8559,
      "OR": 8560,
      "danger": 8561,
      "nuc": 8562,
      "195": 8563,
      "places": 8564,
      "code": 8565,
      "thinking": 8566,
      "speed": 8567,
      "useful": 8568,
      "Fin": 8569,
      "See": 8570,
      "cry": 8571,
      "hous": 8572,
      "via": 8573,
      "Let": 8574,
      "seems": 8575,
      "anti": 8576,
      "except": 8577,
      "towards": 8578,
      "transport": 8579,
      "software": 8580,
      "UN": 8581,
      "workers": 8582,
      "pite": 8583,
      "lier": 8584,
      "People": 8585,
      "carry": 8586,
      "cultural": 8587,
      "summer": 8588,
      "application": 8589,
      "inf": 8590,
      "cade": 8591,
      "mob": 8592,
      "calcul": 8593,
      "nes": 8594,
      "phen": 8595,
      "nit": 8596,
      "Wash": 8597,
      "Reg": 8598,
      "item": 8599,
      "ancient": 8600,
      "ito": 8601,
      "colon": 8602,
      "elements": 8603,
      "ously": 8604,
      "Sm": 8605,
      "Over": 8606,
      "protection": 8607,
      "January": 8608,
      "lost": 8609,
      "Don": 8610,
      "rac": 8611,
      "Ob": 8612,
      "ico": 8613,
      "isms": 8614,
      "inde": 8615,
      "hundred": 8616,
      "contribut": 8617,
      "cohol": 8618,
      "talk": 8619,
      "brought": 8620,
      "essay": 8621,
      "exact": 8622,
      "ero": 8623,
      "influence": 8624,
      "resh": 8625,
      "Day": 8626,
      "tas": 8627,
      "expo": 8628,
      "ales": 8629,
      "mole": 8630,
      "solution": 8631,
      "lat": 8632,
      "winter": 8633,
      "financial": 8634,
      "game": 8635,
      "strateg": 8636,
      "shall": 8637,
      "mention": 8638,
      "described": 8639,
      "speak": 8640,
      "leaves": 8641,
      "obtain": 8642,
      "Ty": 8643,
      "display": 8644,
      "box": 8645,
      "LE": 8646,
      "Trans": 8647,
      "cru": 8648,
      "demand": 8649,
      "processes": 8650,
      "forts": 8651,
      "north": 8652,
      "contains": 8653,
      "largest": 8654,
      "situation": 8655,
      "Part": 8656,
      "lam": 8657,
      "capac": 8658,
      "saw": 8659,
      "pp": 8660,
      "command": 8661,
      "hun": 8662,
      "2015": 8663,
      "2007": 8664,
      "south": 8665,
      "testing": 8666,
      "nearly": 8667,
      "Chin": 8668,
      "ius": 8669,
      "perform": 8670,
      "compet": 8671,
      "vest": 8672,
      "Lon": 8673,
      "Americans": 8674,
      "38": 8675,
      "Hum": 8676,
      "cou": 8677,
      "ologies": 8678,
      "capital": 8679,
      "hands": 8680,
      "abilities": 8681,
      "Great": 8682,
      "memory": 8683,
      "Just": 8684,
      "Also": 8685,
      "England": 8686,
      "received": 8687,
      "bert": 8688,
      "devices": 8689,
      "virus": 8690,
      "auto": 8691,
      "Serv": 8692,
      "told": 8693,
      "sn": 8694,
      "aul": 8695,
      "private": 8696,
      "tempor": 8697,
      "hydro": 8698,
      "tember": 8699,
      "band": 8700,
      "ains": 8701,
      "requires": 8702,
      "symbol": 8703,
      "died": 8704,
      "images": 8705,
      "BC": 8706,
      "Add": 8707,
      "costs": 8708,
      "file": 8709,
      "cam": 8710,
      "President": 8711,
      "estic": 8712,
      "izations": 8713,
      "prom": 8714,
      "eyes": 8715,
      "hope": 8716,
      "ulate": 8717,
      "Associ": 8718,
      "former": 8719,
      "Red": 8720,
      "concentr": 8721,
      "sess": 8722,
      "37": 8723,
      "dog": 8724,
      "eating": 8725,
      "adults": 8726,
      "kill": 8727,
      "ficiency": 8728,
      "cool": 8729,
      "39": 8730,
      "typically": 8731,
      "Rep": 8732,
      "izes": 8733,
      "lection": 8734,
      "Arch": 8735,
      "aly": 8736,
      "cum": 8737,
      "agric": 8738,
      "September": 8739,
      "urban": 8740,
      "becomes": 8741,
      "decision": 8742,
      "craft": 8743,
      "General": 8744,
      "entially": 8745,
      "hair": 8746,
      "commer": 8747,
      "inct": 8748,
      "importance": 8749,
      "dead": 8750,
      "antic": 8751,
      "trie": 8752,
      "weeks": 8753,
      "za": 8754,
      "ops": 8755,
      "bacteria": 8756,
      "Sur": 8757,
      "Phil": 8758,
      "else": 8759,
      "Journal": 8760,
      "enjoy": 8761,
      "cape": 8762,
      "watch": 8763,
      "Cur": 8764,
      "harm": 8765,
      "sett": 8766,
      "idents": 8767,
      "acts": 8768,
      "stage": 8769,
      "goal": 8770,
      "Sim": 8771,
      "himself": 8772,
      "property": 8773,
      "San": 8774,
      "creating": 8775,
      "Canada": 8776,
      "Christian": 8777,
      "Sun": 8778,
      "AL": 8779,
      "lic": 8780,
      "Water": 8781,
      "tober": 8782,
      "map": 8783,
      "communic": 8784,
      "Cong": 8785,
      "Bi": 8786,
      "31": 8787,
      "techniques": 8788,
      "weak": 8789,
      "remains": 8790,
      "London": 8791,
      "rare": 8792,
      "cold": 8793,
      "Techn": 8794,
      "iber": 8795,
      "weather": 8796,
      "Chinese": 8797,
      "degree": 8798,
      "Jesus": 8799,
      "examples": 8800,
      "hon": 8801,
      "rise": 8802,
      "kets": 8803,
      "affected": 8804,
      "website": 8805,
      "constit": 8806,
      "oral": 8807,
      "miles": 8808,
      "vic": 8809,
      "forces": 8810,
      "iat": 8811,
      "October": 8812,
      "generation": 8813,
      "user": 8814,
      "projects": 8815,
      "older": 8816,
      "Use": 8817,
      "34": 8818,
      "rapid": 8819,
      "confl": 8820,
      "religious": 8821,
      "basis": 8822,
      "insul": 8823,
      "System": 8824,
      "amm": 8825,
      "Dece": 8826,
      "Press": 8827,
      "2016": 8828,
      "beaut": 8829,
      "Gover": 8830,
      "block": 8831,
      "remember": 8832,
      "gir": 8833,
      "AM": 8834,
      "alone": 8835,
      "Another": 8836,
      "AP": 8837,
      "communication": 8838,
      "Roman": 8839,
      "final": 8840,
      "2006": 8841,
      "”.": 8842,
      "imag": 8843,
      "els": 8844,
      "ultural": 8845,
      "cript": 8846,
      "City": 8847,
      "Each": 8848,
      "birds": 8849,
      "spirit": 8850,
      "perfect": 8851,
      "citiz": 8852,
      "conce": 8853,
      "asked": 8854,
      "teacher": 8855,
      "applications": 8856,
      "occup": 8857,
      "Soci": 8858,
      "conserv": 8859,
      "ining": 8860,
      "enh": 8861,
      "Ke": 8862,
      "tellig": 8863,
      "Education": 8864,
      "December": 8865,
      "Lat": 8866,
      "die": 8867,
      "Washington": 8868,
      "connect": 8869,
      "East": 8870,
      "genetic": 8871,
      "quar": 8872,
      "Commun": 8873,
      "egg": 8874,
      "benefit": 8875,
      "gives": 8876,
      "monitor": 8877,
      "stone": 8878,
      "spring": 8879,
      "exposure": 8880,
      "Pat": 8881,
      "mouth": 8882,
      "vehic": 8883,
      "fill": 8884,
      "install": 8885,
      "models": 8886,
      "nothing": 8887,
      "construct": 8888,
      "nic": 8889,
      "stim": 8890,
      "Cour": 8891,
      "efficient": 8892,
      "attempt": 8893,
      "named": 8894,
      "federal": 8895,
      "Black": 8896,
      "responsible": 8897,
      "qual": 8898,
      "ech": 8899,
      "efforts": 8900,
      "mocr": 8901,
      "sugar": 8902,
      "thesis": 8903,
      "consu": 8904,
      "Church": 8905,
      "ull": 8906,
      "Park": 8907,
      "domin": 8908,
      "cro": 8909,
      "visual": 8910,
      "practices": 8911,
      "categ": 8912,
      "tee": 8913,
      "frame": 8914,
      "door": 8915,
      "recently": 8916,
      "Once": 8917,
      "2000": 8918,
      "counter": 8919,
      "currently": 8920,
      "stead": 8921,
      "Are": 8922,
      "standing": 8923,
      "successful": 8924,
      "goes": 8925,
      "ester": 8926,
      "professional": 8927,
      "ience": 8928,
      "treated": 8929,
      "rome": 8930,
      "bound": 8931,
      "cele": 8932,
      "burn": 8933,
      "woman": 8934,
      "device": 8935,
      "immune": 8936,
      "followed": 8937,
      "changed": 8938,
      "uate": 8939,
      "rote": 8940,
      "scr": 8941,
      "portion": 8942,
      "names": 8943,
      "drop": 8944,
      "bio": 8945,
      "ensity": 8946,
      "objects": 8947,
      "strength": 8948,
      "Develop": 8949,
      "anything": 8950,
      "beyond": 8951,
      "forward": 8952,
      "CD": 8953,
      "everything": 8954,
      "Val": 8955,
      "Prof": 8956,
      "teeth": 8957,
      "middle": 8958,
      "stream": 8959,
      "celebr": 8960,
      "Vir": 8961,
      "75": 8962,
      "firm": 8963,
      "tor": 8964,
      "therapy": 8965,
      "receive": 8966,
      "spo": 8967,
      "acqu": 8968,
      "giving": 8969,
      "cities": 8970,
      "32": 8971,
      "ergy": 8972,
      "apter": 8973,
      "vember": 8974,
      "repe": 8975,
      "worth": 8976,
      "laws": 8977,
      "Sch": 8978,
      "grade": 8979,
      "graphic": 8980,
      "economy": 8981,
      "ils": 8982,
      "cords": 8983,
      "Bu": 8984,
      "mut": 8985,
      "mes": 8986,
      "emiss": 8987,
      "shape": 8988,
      "style": 8989,
      "reasons": 8990,
      "polit": 8991,
      "classroom": 8992,
      "phone": 8993,
      "November": 8994,
      "pregn": 8995,
      "digital": 8996,
      "recommend": 8997,
      "phas": 8998,
      "Under": 8999,
      "Bl": 9000,
      "fix": 9001,
      "ulated": 9002,
      "surround": 9003,
      "iction": 9004,
      "wrote": 9005,
      "planet": 9006,
      "identified": 9007,
      "numer": 9008,
      "65": 9009,
      "hosp": 9010,
      "diabetes": 9011,
      "yourself": 9012,
      "exe": 9013,
      "atom": 9014,
      "2005": 9015,
      "Str": 9016,
      "factor": 9017,
      "190": 9018,
      "County": 9019,
      "suit": 9020,
      "earlier": 9021,
      "consequ": 9022,
      "van": 9023,
      "mosph": 9024,
      "providing": 9025,
      "charge": 9026,
      "choose": 9027,
      "mas": 9028,
      "acking": 9029,
      "pack": 9030,
      "alcohol": 9031,
      "William": 9032,
      "blue": 9033,
      "tribute": 9034,
      "resol": 9035,
      "poly": 9036,
      "smaller": 9037,
      "equipment": 9038,
      "operation": 9039,
      "shap": 9040,
      "preh": 9041,
      "overall": 9042,
      "Mex": 9043,
      ".;": 9044,
      "sets": 9045,
      "historical": 9046,
      "DNA": 9047,
      "Tod": 9048,
      ");": 9049,
      "Law": 9050,
      "Every": 9051,
      "users": 9052,
      "instru": 9053,
      "differences": 9054,
      "encies": 9055,
      "completely": 9056,
      "cious": 9057,
      "gi": 9058,
      "trying": 9059,
      "plor": 9060,
      "glass": 9061,
      "buy": 9062,
      "aks": 9063,
      "piece": 9064,
      "unch": 9065,
      "coast": 9066,
      "iately": 9067,
      "allowed": 9068,
      "opportunity": 9069,
      "fruit": 9070,
      "organization": 9071,
      "Thus": 9072,
      "La": 9073,
      "compar": 9074,
      "aling": 9075,
      "ught": 9076,
      "discovered": 9077,
      "500": 9078,
      "2017": 9079,
      "sec": 9080,
      "olic": 9081,
      "cycle": 9082,
      "standards": 9083,
      "peace": 9084,
      "purch": 9085,
      "collection": 9086,
      "enge": 9087,
      "preser": 9088,
      "virt": 9089,
      "iar": 9090,
      "gene": 9091,
      "poses": 9092,
      "establish": 9093,
      "cod": 9094,
      "swe": 9095,
      "Mr": 9096,
      "Their": 9097,
      "billion": 9098,
      "continued": 9099,
      "conduct": 9100,
      "effort": 9101,
      "electr": 9102,
      "applied": 9103,
      "ost": 9104,
      "exc": 9105,
      "seven": 9106,
      "cycl": 9107,
      "uk": 9108,
      "prefer": 9109,
      "Ca": 9110,
      "neigh": 9111,
      "everyone": 9112,
      "gold": 9113,
      "steps": 9114,
      "reduced": 9115,
      "MS": 9116,
      "leave": 9117,
      "isn": 9118,
      "bran": 9119,
      "gave": 9120,
      "drugs": 9121,
      "IP": 9122,
      "ios": 9123,
      "interesting": 9124,
      "gun": 9125,
      "appears": 9126,
      "income": 9127,
      "female": 9128,
      "assign": 9129,
      "Isra": 9130,
      "Mid": 9131,
      "extra": 9132,
      "comfort": 9133,
      "vant": 9134,
      "Australia": 9135,
      "Sol": 9136,
      "reedom": 9137,
      "aters": 9138,
      "constant": 9139,
      "House": 9140,
      "gal": 9141,
      "administr": 9142,
      "choice": 9143,
      "hear": 9144,
      "commonly": 9145,
      "rot": 9146,
      "rules": 9147,
      "occurs": 9148,
      "transl": 9149,
      "measures": 9150,
      "church": 9151,
      "Green": 9152,
      "balance": 9153,
      "ogle": 9154,
      "showed": 9155,
      "nutri": 9156,
      "erson": 9157,
      "presence": 9158,
      "philos": 9159,
      "James": 9160,
      "presents": 9161,
      "yl": 9162,
      "powerful": 9163,
      "bone": 9164,
      "iest": 9165,
      "rule": 9166,
      "onto": 9167,
      "existing": 9168,
      "defined": 9169,
      "acade": 9170,
      "orge": 9171,
      "cret": 9172,
      "properties": 9173,
      "Rev": 9174,
      "machine": 9175,
      "baby": 9176,
      "bruary": 9177,
      "letter": 9178,
      "context": 9179,
      "iron": 9180,
      "cas": 9181,
      "perhaps": 9182,
      "subst": 9183,
      "rat": 9184,
      "status": 9185,
      "plies": 9186,
      "Pal": 9187,
      "February": 9188,
      "ored": 9189,
      "friends": 9190,
      "root": 9191,
      "ibly": 9192,
      "Environment": 9193,
      "Medic": 9194,
      "Web": 9195,
      "ker": 9196,
      "limit": 9197,
      "deliver": 9198,
      "Jewish": 9199,
      "Lab": 9200,
      "oxy": 9201,
      "iles": 9202,
      "irection": 9203,
      "wal": 9204,
      "revol": 9205,
      "clinical": 9206,
      "belief": 9207,
      "UK": 9208,
      "rout": 9209,
      "Union": 9210,
      "vill": 9211,
      "patterns": 9212,
      "Society": 9213,
      "figure": 9214,
      "kers": 9215,
      "majority": 9216,
      "Scot": 9217,
      "zy": 9218,
      "native": 9219,
      "Germany": 9220,
      "ram": 9221,
      "river": 9222,
      "hydr": 9223,
      "Miss": 9224,
      "Lu": 9225,
      "themat": 9226,
      "isl": 9227,
      "distance": 9228,
      "Vol": 9229,
      "archite": 9230,
      "48": 9231,
      "wit": 9232,
      "stories": 9233,
      "signs": 9234,
      "absor": 9235,
      "seed": 9236,
      "unit": 9237,
      "reser": 9238,
      "walk": 9239,
      "umb": 9240,
      "crit": 9241,
      "cand": 9242,
      "Sal": 9243,
      "regions": 9244,
      "relatively": 9245,
      "Program": 9246,
      "rock": 9247,
      "capacity": 9248,
      "illustr": 9249,
      "atmosph": 9250,
      "destroy": 9251,
      "mod": 9252,
      "moment": 9253,
      "observed": 9254,
      "Up": 9255,
      "creation": 9256,
      "equal": 9257,
      "antib": 9258,
      "fresh": 9259,
      "orts": 9260,
      "Au": 9261,
      "Cam": 9262,
      "colog": 9263,
      "trig": 9264,
      "mitted": 9265,
      "option": 9266,
      "tu": 9267,
      "tou": 9268,
      "situ": 9269,
      "edia": 9270,
      "trict": 9271,
      "connected": 9272,
      "nur": 9273,
      "strate": 9274,
      "igen": 9275,
      "illness": 9276,
      "ov": 9277,
      "expand": 9278,
      "trieved": 9279,
      "tissue": 9280,
      "worked": 9281,
      "lt": 9282,
      "didn": 9283,
      "offers": 9284,
      "2018": 9285,
      "functions": 9286,
      "ister": 9287,
      "France": 9288,
      "dat": 9289,
      "Google": 9290,
      "ware": 9291,
      "task": 9292,
      "copy": 9293,
      "modif": 9294,
      "Today": 9295,
      "pi": 9296,
      "planning": 9297,
      "sac": 9298,
      "ato": 9299,
      "Thom": 9300,
      "Hy": 9301,
      "custom": 9302,
      "Sub": 9303,
      "transfer": 9304,
      "price": 9305,
      "plastic": 9306,
      "2004": 9307,
      "findings": 9308,
      "element": 9309,
      "Western": 9310,
      "aled": 9311,
      "journal": 9312,
      "increases": 9313,
      "\",": 9314,
      "ximately": 9315,
      "Lord": 9316,
      "plications": 9317,
      "components": 9318,
      "iment": 9319,
      "educational": 9320,
      "innov": 9321,
      "aces": 9322,
      "Ben": 9323,
      "consumption": 9324,
      "itude": 9325,
      "math": 9326,
      "court": 9327,
      "breath": 9328,
      "staff": 9329,
      "passed": 9330,
      "ica": 9331,
      "Lin": 9332,
      "97": 9333,
      "auth": 9334,
      "reports": 9335,
      "bridge": 9336,
      "95": 9337,
      "picture": 9338,
      "office": 9339,
      "compl": 9340,
      "hypo": 9341,
      "mountain": 9342,
      "xi": 9343,
      "details": 9344,
      "OS": 9345,
      "famous": 9346,
      "collabor": 9347,
      "notes": 9348,
      "nutr": 9349,
      "opportunities": 9350,
      "Association": 9351,
      "bes": 9352,
      "Children": 9353,
      "heavy": 9354,
      "challenges": 9355,
      "topic": 9356,
      "alle": 9357,
      "divid": 9358,
      "iful": 9359,
      "running": 9360,
      "instance": 9361,
      "resistance": 9362,
      "maxim": 9363,
      "layer": 9364,
      "kin": 9365,
      "istry": 9366,
      "udd": 9367,
      "lived": 9368,
      "tele": 9369,
      "prop": 9370,
      "ulty": 9371,
      "44": 9372,
      "thousands": 9373,
      "eight": 9374,
      "favor": 9375,
      "direction": 9376,
      "Congress": 9377,
      "gery": 9378,
      "ternal": 9379,
      "core": 9380,
      "contract": 9381,
      "Sou": 9382,
      "neuro": 9383,
      "EM": 9384,
      "2003": 9385,
      "separate": 9386,
      "structures": 9387,
      "changing": 9388,
      "David": 9389,
      "wanted": 9390,
      "commercial": 9391,
      "gender": 9392,
      "apers": 9393,
      "truth": 9394,
      "intellig": 9395,
      "radio": 9396,
      "ED": 9397,
      "huge": 9398,
      "killed": 9399,
      "strategies": 9400,
      "geo": 9401,
      "gypt": 9402,
      "surpr": 9403,
      "gent": 9404,
      "mir": 9405,
      "party": 9406,
      "rig": 9407,
      "optim": 9408,
      "estimated": 9409,
      "faith": 9410,
      "trust": 9411,
      "Students": 9412,
      "Air": 9413,
      "presented": 9414,
      "PD": 9415,
      "fields": 9416,
      "chance": 9417,
      "infr": 9418,
      "ultim": 9419,
      "organic": 9420,
      "believed": 9421,
      "significantly": 9422,
      "Govern": 9423,
      "milk": 9424,
      "Fed": 9425,
      "square": 9426,
      "ju": 9427,
      "foreign": 9428,
      "batter": 9429,
      "feature": 9430,
      "compreh": 9431,
      "lu": 9432,
      "enty": 9433,
      "aign": 9434,
      "forced": 9435,
      "hour": 9436,
      "instruct": 9437,
      "wrong": 9438,
      "highest": 9439,
      "fear": 9440,
      "util": 9441,
      "male": 9442,
      "ries": 9443,
      "industrial": 9444,
      "libr": 9445,
      "survey": 9446,
      "soft": 9447,
      "insect": 9448,
      "isol": 9449,
      "options": 9450,
      "Mal": 9451,
      "breast": 9452,
      "CC": 9453,
      "grass": 9454,
      "carried": 9455,
      "liqu": 9456,
      "Therefore": 9457,
      "Rel": 9458,
      "track": 9459,
      "suggests": 9460,
      "experiment": 9461,
      "gins": 9462,
      "gather": 9463,
      "Using": 9464,
      "Two": 9465,
      "emphas": 9466,
      "setting": 9467,
      "flood": 9468,
      "arian": 9469,
      "Mor": 9470,
      "medicine": 9471,
      "iot": 9472,
      "Social": 9473,
      "attract": 9474,
      "dent": 9475,
      "technologies": 9476,
      "literature": 9477,
      "grees": 9478,
      "emissions": 9479,
      "plans": 9480,
      "vas": 9481,
      "extremely": 9482,
      "dol": 9483,
      "George": 9484,
      "Cr": 9485,
      "novel": 9486,
      "decades": 9487,
      "conducted": 9488,
      "experiences": 9489,
      "ifically": 9490,
      "neur": 9491,
      "Bel": 9492,
      "excess": 9493,
      "rent": 9494,
      "parent": 9495,
      "articles": 9496,
      "Food": 9497,
      "reference": 9498,
      "owners": 9499,
      "ston": 9500,
      "ctors": 9501,
      "valu": 9502,
      "Mary": 9503,
      "55": 9504,
      "president": 9505,
      "kept": 9506,
      "save": 9507,
      "alg": 9508,
      "bodies": 9509,
      "happen": 9510,
      "apply": 9511,
      "rid": 9512,
      "Israel": 9513,
      "astr": 9514,
      "accoun": 9515,
      "western": 9516,
      "homes": 9517,
      "las": 9518,
      "reality": 9519,
      "Retrieved": 9520,
      "exhib": 9521,
      "slight": 9522,
      "ordin": 9523,
      "genes": 9524,
      "Hen": 9525,
      "Greek": 9526,
      "Human": 9527,
      "oles": 9528,
      "chain": 9529,
      "introduced": 9530,
      "Nat": 9531,
      "Teach": 9532,
      "Art": 9533,
      "metal": 9534,
      "faces": 9535,
      "Hel": 9536,
      "seeds": 9537,
      "Sam": 9538,
      "thin": 9539,
      "sufficient": 9540,
      "arrow": 9541,
      "Internet": 9542,
      "Council": 9543,
      "improv": 9544,
      "Phys": 9545,
      "186": 9546,
      "strain": 9547,
      "crim": 9548,
      "resource": 9549,
      "ander": 9550,
      "learned": 9551,
      "disci": 9552,
      "El": 9553,
      "degrees": 9554,
      "Egypt": 9555,
      "release": 9556,
      "bell": 9557,
      "causing": 9558,
      "PC": 9559,
      "preci": 9560,
      "combination": 9561,
      "descrip": 9562,
      "vitamin": 9563,
      "eco": 9564,
      "processing": 9565,
      "pow": 9566,
      "populations": 9567,
      "NASA": 9568,
      "goals": 9569,
      "remove": 9570,
      "plat": 9571,
      "race": 9572,
      "organizations": 9573,
      "attach": 9574,
      "eventually": 9575,
      "volume": 9576,
      "cholar": 9577,
      "sexual": 9578,
      "speech": 9579,
      "records": 9580,
      "Span": 9581,
      "vary": 9582,
      "depression": 9583,
      "Mac": 9584,
      "ophy": 9585,
      "restrict": 9586,
      "Def": 9587,
      "actual": 9588,
      "items": 9589,
      "prec": 9590,
      "electricity": 9591,
      "perspect": 9592,
      "store": 9593,
      "wealth": 9594,
      "tum": 9595,
      "ille": 9596,
      "shop": 9597,
      "isation": 9598,
      "wonder": 9599,
      "icated": 9600,
      "immediately": 9601,
      "garden": 9602,
      "Hol": 9603,
      "temperatures": 9604,
      "nuclear": 9605,
      "disorder": 9606,
      "push": 9607,
      "ocean": 9608,
      "”,": 9609,
      "approximately": 9610,
      "cin": 9611,
      "challenge": 9612,
      "independent": 9613,
      "Like": 9614,
      "recommended": 9615,
      "chronic": 9616,
      "Jer": 9617,
      "2020": 9618,
      "distribution": 9619,
      "emplo": 9620,
      "sample": 9621,
      "screen": 9622,
      "Public": 9623,
      "rew": 9624,
      "sla": 9625,
      "Colle": 9626,
      "Further": 9627,
      "Common": 9628,
      "breed": 9629,
      "email": 9630,
      "ager": 9631,
      "turned": 9632,
      "oxygen": 9633,
      "Figure": 9634,
      "bow": 9635,
      "relevant": 9636,
      "initi": 9637,
      "requirements": 9638,
      "easier": 9639,
      "assessment": 9640,
      "becoming": 9641,
      "performed": 9642,
      "mort": 9643,
      "opin": 9644,
      "jour": 9645,
      "mentioned": 9646,
      "kid": 9647,
      "phase": 9648,
      "expression": 9649,
      "upper": 9650,
      "tradition": 9651,
      "ias": 9652,
      "dim": 9653,
      "Found": 9654,
      "excl": 9655,
      "dogs": 9656,
      "46": 9657,
      "bottom": 9658,
      "RO": 9659,
      "ell": 9660,
      "freedom": 9661,
      "reducing": 9662,
      "stro": 9663,
      "Project": 9664,
      "spot": 9665,
      "Tur": 9666,
      "adult": 9667,
      "failure": 9668,
      "connection": 9669,
      "tour": 9670,
      "operations": 9671,
      "authors": 9672,
      "Bas": 9673,
      "fine": 9674,
      "sand": 9675,
      "Tex": 9676,
      "technique": 9677,
      "aspects": 9678,
      "Plan": 9679,
      "Test": 9680,
      "SS": 9681,
      "College": 9682,
      "frequently": 9683,
      "ule": 9684,
      "views": 9685,
      "proto": 9686,
      "vul": 9687,
      "master": 9688,
      "solutions": 9689,
      "starting": 9690,
      "widely": 9691,
      "ingu": 9692,
      "DA": 9693,
      "encing": 9694,
      "White": 9695,
      "99": 9696,
      "2002": 9697,
      "removed": 9698,
      "omb": 9699,
      "tren": 9700,
      "Emp": 9701,
      "About": 9702,
      "Japanese": 9703,
      "determined": 9704,
      "0s": 9705,
      "released": 9706,
      "doi": 9707,
      "Organ": 9708,
      "Get": 9709,
      "coll": 9710,
      "buildings": 9711,
      "advantage": 9712,
      "minor": 9713,
      "participants": 9714,
      "Av": 9715,
      "violence": 9716,
      "Pho": 9717,
      "Second": 9718,
      "unders": 9719,
      "Republic": 9720,
      "mostly": 9721,
      "rob": 9722,
      "adapt": 9723,
      "Fore": 9724,
      "Profess": 9725,
      "CT": 9726,
      "47": 9727,
      "stic": 9728,
      "god": 9729,
      "vation": 9730,
      "decisions": 9731,
      "radiation": 9732,
      "fortun": 9733,
      "Rich": 9734,
      "appoint": 9735,
      "ships": 9736,
      "norm": 9737,
      "resulting": 9738,
      "ulum": 9739,
      "netic": 9740,
      "fundam": 9741,
      "storage": 9742,
      "meat": 9743,
      "legisl": 9744,
      "https": 9745,
      "initial": 9746,
      "muscle": 9747,
      "Its": 9748,
      "Museum": 9749,
      "oxide": 9750,
      "clearly": 9751,
      "explor": 9752,
      "college": 9753,
      "referred": 9754,
      "alternative": 9755,
      "Dan": 9756,
      "holds": 9757,
      "risks": 9758,
      "wards": 9759,
      "drive": 9760,
      "tooth": 9761,
      "iance": 9762,
      "wash": 9763,
      "prepared": 9764,
      "pes": 9765,
      "prepar": 9766,
      "inner": 9767,
      "asion": 9768,
      "riage": 9769,
      "southern": 9770,
      "adequ": 9771,
      "Paul": 9772,
      "partners": 9773,
      "contrast": 9774,
      "incorpor": 9775,
      "urally": 9776,
      "ape": 9777,
      "sav": 9778,
      "ida": 9779,
      "thick": 9780,
      "territ": 9781,
      "numerous": 9782,
      "Both": 9783,
      "2001": 9784,
      "jun": 9785,
      "temporary": 9786,
      "replace": 9787,
      "udes": 9788,
      "properly": 9789,
      "yellow": 9790,
      "km": 9791,
      "ror": 9792,
      "controlled": 9793,
      "pollution": 9794,
      "internal": 9795,
      "allowing": 9796,
      "coal": 9797,
      "Mag": 9798,
      "ky": 9799,
      "linked": 9800,
      "Data": 9801,
      "mist": 9802,
      "exactly": 9803,
      "finding": 9804,
      "conflict": 9805,
      "official": 9806,
      "Who": 9807,
      "Old": 9808,
      "distinct": 9809,
      "background": 9810,
      "cers": 9811,
      "Elect": 9812,
      "nine": 9813,
      "battle": 9814,
      "univers": 9815,
      "Book": 9816,
      "yield": 9817,
      "output": 9818,
      "xiety": 9819,
      "policies": 9820,
      "campaign": 9821,
      "nan": 9822,
      "appeared": 9823,
      "advanced": 9824,
      "discussion": 9825,
      "lock": 9826,
      "feeling": 9827,
      "emotional": 9828,
      "annual": 9829,
      "games": 9830,
      "roll": 9831,
      "iff": 9832,
      "characteristics": 9833,
      "anyone": 9834,
      "assu": 9835,
      "statement": 9836,
      "noted": 9837,
      "lip": 9838,
      "zo": 9839,
      "ula": 9840,
      "Arab": 9841,
      "heard": 9842,
      "adjust": 9843,
      "ii": 9844,
      "rang": 9845,
      "keeping": 9846,
      "aller": 9847,
      "dynam": 9848,
      "Life": 9849,
      "Mil": 9850,
      "affic": 9851,
      "surgery": 9852,
      "experienced": 9853,
      "engineering": 9854,
      "Cath": 9855,
      "2019": 9856,
      "film": 9857,
      "ague": 9858,
      "Sup": 9859,
      "hur": 9860,
      "plate": 9861,
      "religion": 9862,
      "drome": 9863,
      "ching": 9864,
      "helped": 9865,
      "Spanish": 9866,
      "waters": 9867,
      "Jews": 9868,
      "cup": 9869,
      "ado": 9870,
      "formal": 9871,
      "sell": 9872,
      "foc": 9873,
      "academic": 9874,
      "disorders": 9875,
      "employe": 9876,
      "edge": 9877,
      "physic": 9878,
      "Em": 9879,
      "involves": 9880,
      "Class": 9881,
      "whom": 9882,
      "pick": 9883,
      "osis": 9884,
      "motor": 9885,
      "units": 9886,
      "Ter": 9887,
      "relationships": 9888,
      "ET": 9889,
      "eties": 9890,
      "toxic": 9891,
      "served": 9892,
      "lease": 9893,
      "conscious": 9894,
      "CH": 9895,
      "uration": 9896,
      "interpret": 9897,
      "liber": 9898,
      "invent": 9899,
      "circum": 9900,
      "strategy": 9901,
      "iders": 9902,
      "opy": 9903,
      "Mexico": 9904,
      "east": 9905,
      "ga": 9906,
      "izon": 9907,
      "85": 9908,
      "mm": 9909,
      "brother": 9910,
      "stra": 9911,
      "input": 9912,
      "liver": 9913,
      "principles": 9914,
      "vessel": 9915,
      "Mod": 9916,
      "ek": 9917,
      "Budd": 9918,
      "Net": 9919,
      "sort": 9920,
      "Learning": 9921,
      "joint": 9922,
      "Prote": 9923,
      "Fol": 9924,
      "mand": 9925,
      "Stre": 9926,
      "Central": 9927,
      "discover": 9928,
      "detect": 9929,
      "PS": 9930,
      "grav": 9931,
      "iling": 9932,
      "scen": 9933,
      "bird": 9934,
      "andom": 9935,
      "improved": 9936,
      "exposed": 9937,
      "please": 9938,
      "Service": 9939,
      "experts": 9940,
      "anks": 9941,
      "profession": 9942,
      "300": 9943,
      "usual": 9944,
      "Mart": 9945,
      "Scient": 9946,
      "Texas": 9947,
      "regarding": 9948,
      "hit": 9949,
      "citizens": 9950,
      "concepts": 9951,
      "multi": 9952,
      "injury": 9953,
      "HIV": 9954,
      "oth": 9955,
      "rum": 9956,
      "happens": 9957,
      "previously": 9958,
      "py": 9959,
      "message": 9960,
      "sustainable": 9961,
      "uters": 9962,
      "belong": 9963,
      "Development": 9964,
      "tructure": 9965,
      "conver": 9966,
      "consul": 9967,
      "manage": 9968,
      "explore": 9969,
      "possess": 9970,
      "Government": 9971,
      "classes": 9972,
      "samples": 9973,
      "Where": 9974,
      "infections": 9975,
      "mathemat": 9976,
      "angle": 9977,
      "ologist": 9978,
      "Bur": 9979,
      "ald": 9980,
      "northern": 9981,
      "grant": 9982,
      "meeting": 9983,
      "supported": 9984,
      "arent": 9985,
      "vegetables": 9986,
      "ava": 9987,
      "hi": 9988,
      "cris": 9989,
      "bank": 9990,
      "dangerous": 9991,
      "Lou": 9992,
      "helping": 9993,
      "leads": 9994,
      "effectively": 9995,
      "NO": 9996,
      "bud": 9997,
      "pred": 9998,
      "Sha": 9999,
      "Court": 10000,
      "orial": 10001,
      "interested": 10002,
      "pages": 10003,
      "depending": 10004,
      "Any": 10005,
      "expert": 10006,
      "amounts": 10007,
      "practical": 10008,
      "Mem": 10009,
      "pieces": 10010,
      "volun": 10011,
      "describe": 10012,
      "Space": 10013,
      "excell": 10014,
      "wife": 10015,
      "languages": 10016,
      "Asia": 10017,
      "divers": 10018,
      "solid": 10019,
      "iverse": 10020,
      "ya": 10021,
      "awareness": 10022,
      "Through": 10023,
      "Make": 10024,
      "Thomas": 10025,
      "AI": 10026,
      "closed": 10027,
      "ilit": 10028,
      "hearing": 10029,
      "beautiful": 10030,
      "sky": 10031,
      "ologists": 10032,
      "victim": 10033,
      "ara": 10034,
      "burg": 10035,
      "compe": 10036,
      "conservation": 10037,
      "ern": 10038,
      "career": 10039,
      "Mos": 10040,
      "pun": 10041,
      "meant": 10042,
      "depth": 10043,
      "Cre": 10044,
      "thes": 10045,
      "island": 10046,
      "haz": 10047,
      "lose": 10048,
      "hospital": 10049,
      "wear": 10050,
      "click": 10051,
      "prison": 10052,
      "shared": 10053,
      "Energy": 10054,
      "vaccine": 10055,
      "icial": 10056,
      "Treat": 10057,
      "mainly": 10058,
      "motiv": 10059,
      "elimin": 10060,
      "ads": 10061,
      "49": 10062,
      "focused": 10063,
      "Latin": 10064,
      "revolution": 10065,
      "mobile": 10066,
      "Contro": 10067,
      "fro": 10068,
      "fly": 10069,
      "bright": 10070,
      "Sum": 10071,
      "iger": 10072,
      "existence": 10073,
      "Out": 10074,
      "recorded": 10075,
      "Cy": 10076,
      "clim": 10077,
      "promote": 10078,
      "Russian": 10079,
      "tested": 10080,
      "Off": 10081,
      "Direct": 10082,
      "TO": 10083,
      "Pac": 10084,
      "strugg": 10085,
      "riculum": 10086,
      "umn": 10087,
      "News": 10088,
      "Cons": 10089,
      "Well": 10090,
      "nav": 10091,
      "Cap": 10092,
      "Ir": 10093,
      "agon": 10094,
      "pover": 10095,
      "definition": 10096,
      "Island": 10097,
      "intended": 10098,
      "settle": 10099,
      "trial": 10100,
      "tributed": 10101,
      "Post": 10102,
      "cription": 10103,
      "station": 10104,
      "Bra": 10105,
      "concerns": 10106,
      "accurate": 10107,
      "song": 10108,
      "sin": 10109,
      "ctic": 10110,
      "wet": 10111,
      "apping": 10112,
      "biological": 10113,
      "rogen": 10114,
      "Know": 10115,
      "UR": 10116,
      "familiar": 10117,
      "farmers": 10118,
      "kil": 10119,
      "spent": 10120,
      "Publ": 10121,
      "chemicals": 10122,
      "pup": 10123,
      "brief": 10124,
      "mel": 10125,
      "facts": 10126,
      "purposes": 10127,
      "credit": 10128,
      "icy": 10129,
      "Glo": 10130,
      "zz": 10131,
      "arms": 10132,
      "involve": 10133,
      "atell": 10134,
      "completed": 10135,
      "aches": 10136,
      "Cle": 10137,
      "ba": 10138,
      "Wind": 10139,
      "III": 10140,
      "concern": 10141,
      "rail": 10142,
      "atmosphere": 10143,
      "cook": 10144,
      "obvious": 10145,
      "saying": 10146,
      "Wil": 10147,
      "anxiety": 10148,
      "diagnosis": 10149,
      "efficiency": 10150,
      "signal": 10151,
      "vital": 10152,
      "Medical": 10153,
      "dated": 10154,
      "looks": 10155,
      "CE": 10156,
      "continues": 10157,
      "letters": 10158,
      "frequency": 10159,
      "dial": 10160,
      "mode": 10161,
      "looked": 10162,
      "nutrients": 10163,
      "ny": 10164,
      "berg": 10165,
      "Virgin": 10166,
      "perman": 10167,
      "iced": 10168,
      "42": 10169,
      "execut": 10170,
      "traffic": 10171,
      "lesson": 10172,
      "Bay": 10173,
      "igenous": 10174,
      "proposed": 10175,
      "professor": 10176,
      "manner": 10177,
      "reached": 10178,
      "lights": 10179,
      "phenomen": 10180,
      "ti": 10181,
      "decided": 10182,
      "astern": 10183,
      "procedure": 10184,
      "Britain": 10185,
      "hop": 10186,
      "emergency": 10187,
      "particles": 10188,
      "primarily": 10189,
      "taught": 10190,
      "1999": 10191,
      "filled": 10192,
      "drinking": 10193,
      "Medicine": 10194,
      "format": 10195,
      "Fam": 10196,
      "Year": 10197,
      "Such": 10198,
      "PM": 10199,
      "contribute": 10200,
      "gro": 10201,
      "encourage": 10202,
      "Before": 10203,
      "pon": 10204,
      "reaction": 10205,
      "chief": 10206,
      "reduction": 10207,
      "expensive": 10208,
      "combined": 10209,
      "Information": 10210,
      "Port": 10211,
      "Civil": 10212,
      "bing": 10213,
      "Instead": 10214,
      "gment": 10215,
      "Libr": 10216,
      "height": 10217,
      "aughter": 10218,
      "valid": 10219,
      "flowers": 10220,
      "centuries": 10221,
      "extensive": 10222,
      "technical": 10223,
      "fing": 10224,
      "renew": 10225,
      "asp": 10226,
      "double": 10227,
      "containing": 10228,
      "iled": 10229,
      "liquid": 10230,
      "acters": 10231,
      "adop": 10232,
      "crop": 10233,
      "crete": 10234,
      "spend": 10235,
      "umin": 10236,
      "Islam": 10237,
      "abol": 10238,
      "electrical": 10239,
      "authority": 10240,
      "Henry": 10241,
      "ogen": 10242,
      "185": 10243,
      "Robert": 10244,
      "posite": 10245,
      "datab": 10246,
      "Women": 10247,
      "indicate": 10248,
      "attacks": 10249,
      "Mass": 10250,
      "iveness": 10251,
      "thetic": 10252,
      "Histor": 10253,
      "SE": 10254,
      "comput": 10255,
      "tasks": 10256,
      "Grou": 10257,
      "matic": 10258,
      "finally": 10259,
      "flex": 10260,
      "largely": 10261,
      "begins": 10262,
      "Those": 10263,
      "Ken": 10264,
      "Ver": 10265,
      "shr": 10266,
      "justice": 10267,
      "eggs": 10268,
      "announ": 10269,
      "specifically": 10270,
      "vin": 10271,
      "Dise": 10272,
      "straight": 10273,
      "stars": 10274,
      "surance": 10275,
      "fee": 10276,
      "grand": 10277,
      "THE": 10278,
      "Mat": 10279,
      "cis": 10280,
      "occurred": 10281,
      "subjects": 10282,
      "paint": 10283,
      "morning": 10284,
      "Ze": 10285,
      "certainly": 10286,
      "greg": 10287,
      "Note": 10288,
      "mph": 10289,
      "wid": 10290,
      "discipl": 10291,
      "ideal": 10292,
      "sched": 10293,
      "aran": 10294,
      "osph": 10295,
      "showing": 10296,
      "digest": 10297,
      "sion": 10298,
      "operating": 10299,
      "itors": 10300,
      "Fort": 10301,
      "ifying": 10302,
      "army": 10303,
      "188": 10304,
      "remained": 10305,
      "paid": 10306,
      "motion": 10307,
      "flower": 10308,
      "explained": 10309,
      "collected": 10310,
      "Met": 10311,
      "smart": 10312,
      "notice": 10313,
      "raised": 10314,
      "lets": 10315,
      "protected": 10316,
      "fal": 10317,
      "Gl": 10318,
      "sides": 10319,
      "institutions": 10320,
      "Div": 10321,
      "offered": 10322,
      "title": 10323,
      "advance": 10324,
      "sector": 10325,
      "Ef": 10326,
      "yn": 10327,
      "grown": 10328,
      "neut": 10329,
      "Ve": 10330,
      "scan": 10331,
      "vulner": 10332,
      "producing": 10333,
      "cm": 10334,
      "measured": 10335,
      ".|": 10336,
      "fif": 10337,
      "satis": 10338,
      "Sea": 10339,
      "Lake": 10340,
      "divided": 10341,
      "Pacific": 10342,
      "solute": 10343,
      "Del": 10344,
      "convent": 10345,
      "pig": 10346,
      "Good": 10347,
      "iring": 10348,
      "cert": 10349,
      "cognitive": 10350,
      "voice": 10351,
      "comment": 10352,
      "cide": 10353,
      "typical": 10354,
      "Russia": 10355,
      "zone": 10356,
      "odes": 10357,
      "characters": 10358,
      "Army": 10359,
      "democr": 10360,
      "apparent": 10361,
      "profit": 10362,
      "wish": 10363,
      "Stand": 10364,
      "Yet": 10365,
      "Technology": 10366,
      "jobs": 10367,
      "links": 10368,
      "vast": 10369,
      "trou": 10370,
      "impacts": 10371,
      "rupt": 10372,
      "nations": 10373,
      "pha": 10374,
      "adding": 10375,
      "files": 10376,
      "kinds": 10377,
      "send": 10378,
      "crops": 10379,
      "Charles": 10380,
      "Mer": 10381,
      "Flor": 10382,
      "shar": 10383,
      "Fre": 10384,
      "circu": 10385,
      "spl": 10386,
      "187": 10387,
      "houses": 10388,
      "harvest": 10389,
      "hes": 10390,
      "faster": 10391,
      "san": 10392,
      "consequences": 10393,
      "inher": 10394,
      "Power": 10395,
      "despite": 10396,
      "girls": 10397,
      "mere": 10398,
      "Rem": 10399,
      "poverty": 10400,
      "ault": 10401,
      "treatments": 10402,
      "Studies": 10403,
      "situations": 10404,
      "investment": 10405,
      "crisis": 10406,
      "BN": 10407,
      "mi": 10408,
      "Exam": 10409,
      "component": 10410,
      "frag": 10411,
      "calls": 10412,
      "convers": 10413,
      "youth": 10414,
      "ody": 10415,
      "felt": 10416,
      "slightly": 10417,
      "foss": 10418,
      "drink": 10419,
      "Que": 10420,
      "advice": 10421,
      "Smith": 10422,
      "voc": 10423,
      "random": 10424,
      "immigr": 10425,
      "destru": 10426,
      "server": 10427,
      "ka": 10428,
      "CA": 10429,
      "fundamental": 10430,
      "detailed": 10431,
      "Sen": 10432,
      "uded": 10433,
      "extent": 10434,
      "].": 10435,
      "played": 10436,
      "Econom": 10437,
      "infected": 10438,
      "ags": 10439,
      "crucial": 10440,
      "Photo": 10441,
      "walls": 10442,
      "moist": 10443,
      "iel": 10444,
      "dependent": 10445,
      "turning": 10446,
      "Alex": 10447,
      "Long": 10448,
      "istan": 10449,
      "seek": 10450,
      "sight": 10451,
      "positions": 10452,
      "index": 10453,
      "recognized": 10454,
      "playing": 10455,
      "phr": 10456,
      "capable": 10457,
      "monitoring": 10458,
      "Bet": 10459,
      "43": 10460,
      "agricultural": 10461,
      "flat": 10462,
      "roots": 10463,
      "phy": 10464,
      "nutrition": 10465,
      "identity": 10466,
      "visible": 10467,
      "goods": 10468,
      "marks": 10469,
      "Bal": 10470,
      "speaking": 10471,
      "Jose": 10472,
      "Engine": 10473,
      "sounds": 10474,
      "explan": 10475,
      "external": 10476,
      "Environmental": 10477,
      "persons": 10478,
      "uff": 10479,
      "fruits": 10480,
      "tical": 10481,
      "periods": 10482,
      "domestic": 10483,
      "floor": 10484,
      "astro": 10485,
      "stock": 10486,
      "pressed": 10487,
      "Middle": 10488,
      "hyper": 10489,
      "aph": 10490,
      "substant": 10491,
      "41": 10492,
      "doub": 10493,
      "usive": 10494,
      "oma": 10495,
      "tenance": 10496,
      "Muslim": 10497,
      "Mill": 10498,
      "fle": 10499,
      "urs": 10500,
      "brown": 10501,
      "studied": 10502,
      "explains": 10503,
      "fare": 10504,
      "proteins": 10505,
      "Bir": 10506,
      "Rad": 10507,
      "dram": 10508,
      "appearance": 10509,
      "selected": 10510,
      "sensitive": 10511,
      "viet": 10512,
      "ception": 10513,
      "officials": 10514,
      "suggested": 10515,
      "leaf": 10516,
      "oted": 10517,
      "tery": 10518,
      "iday": 10519,
      "apart": 10520,
      "topics": 10521,
      "request": 10522,
      "claims": 10523,
      "feeding": 10524,
      "IR": 10525,
      "LA": 10526,
      "Land": 10527,
      "cel": 10528,
      "edition": 10529,
      "police": 10530,
      "marked": 10531,
      "bra": 10532,
      "astructure": 10533,
      "Despite": 10534,
      "enem": 10535,
      "approaches": 10536,
      "dollar": 10537,
      "Acade": 10538,
      "deaths": 10539,
      "perspective": 10540,
      "responsibility": 10541,
      "ammation": 10542,
      "adequate": 10543,
      "inches": 10544,
      "fold": 10545,
      "MR": 10546,
      "greatest": 10547,
      "excellent": 10548,
      "eric": 10549,
      "refers": 10550,
      "secret": 10551,
      "66": 10552,
      "subsequ": 10553,
      "tun": 10554,
      "surrounding": 10555,
      "affects": 10556,
      "hundreds": 10557,
      "regul": 10558,
      "Micro": 10559,
      "aint": 10560,
      "leader": 10561,
      "neighbor": 10562,
      "tips": 10563,
      "Artic": 10564,
      "igation": 10565,
      "enses": 10566,
      "depends": 10567,
      "governments": 10568,
      "helpful": 10569,
      "ION": 10570,
      "Di": 10571,
      "Ha": 10572,
      "rou": 10573,
      "rural": 10574,
      "cope": 10575,
      "Find": 10576,
      "pin": 10577,
      "listed": 10578,
      "vehicle": 10579,
      "Foundation": 10580,
      "Catholic": 10581,
      "da": 10582,
      "Vis": 10583,
      "maximum": 10584,
      "Carol": 10585,
      "Psych": 10586,
      "snow": 10587,
      "1998": 10588,
      "otherwise": 10589,
      "Soviet": 10590,
      "narr": 10591,
      "introduction": 10592,
      "Home": 10593,
      "Street": 10594,
      "Int": 10595,
      "apped": 10596,
      "increasingly": 10597,
      "orient": 10598,
      "solve": 10599,
      "potentially": 10600,
      "marriage": 10601,
      "Review": 10602,
      "marine": 10603,
      "Spr": 10604,
      "creative": 10605,
      "muscles": 10606,
      "consists": 10607,
      "recovery": 10608,
      "flight": 10609,
      "orm": 10610,
      "98": 10611,
      "lie": 10612,
      "ancing": 10613,
      "nest": 10614,
      "stated": 10615,
      "weap": 10616,
      "Company": 10617,
      "PR": 10618,
      "icon": 10619,
      "consistent": 10620,
      "Last": 10621,
      "cules": 10622,
      "argument": 10623,
      "syndrome": 10624,
      "tood": 10625,
      "steel": 10626,
      "returned": 10627,
      "ota": 10628,
      "embr": 10629,
      "valuable": 10630,
      "catch": 10631,
      "sembl": 10632,
      "bear": 10633,
      "dre": 10634,
      "crow": 10635,
      "wave": 10636,
      "Fl": 10637,
      "Guide": 10638,
      "pa": 10639,
      "’.": 10640,
      "Take": 10641,
      "ificial": 10642,
      "Louis": 10643,
      "internet": 10644,
      "secure": 10645,
      "pil": 10646,
      "zing": 10647,
      "generate": 10648,
      "Bro": 10649,
[...]
